FD
EB
07
02
13
F1
16
18
FE
FF
F1
F6
FE
F1
FB
01
F6
E1
15
17
F2
02
05
E5
E1
11
FE
05
22
15
FC
09
FE
EF
21
08
09
F9
F5
E9
0B
24
EA
0D
FD
EE
06
FA
0B
04
FB
01
E5
08
04
F6
F9
0D
0B
F1
05
F5
0B
E4
19
EA
0F
09
FD
21
01
19
EA
DC
06
00
F8
F1
0B
01
12
01
E2
16
0A
0D
F6
F9
F6
01
04
03
03
FE
09
00
FB
F7
EE
EE
C3
19
F4
16
FB
11
FD
F6
07
FB
E9
E0
04
08
E6
EE
0E
00
F3
FA
F1
11
1D
00
F0
1C
DA
F8
D5
11
FD
13
EC
F0
37
22
07
D8
F0
D3
FA
EE
2F
DB
F5
EF
06
0A
E9
01
03
23
02
FA
F6
20
F1
DD
14
E8
06
00
0B
05
0A
EA
0E
F1
ED
F6
15
18
CB
04
36
EC
1B
12
D5
F2
07
F3
09
F4
0D
10
FE
0B
07
FF
00
F8
FC
F9
32
E4
FE
E6
00
E3
3A
07
15
E5
FE
CC
19
F9
FF
DE
01
1E
F4
07
F2
FC
21
0C
01
E4
FD
EF
DE
22
03
18
0C
D6
24
04
05
13
FD
0F
08
32
0A
09
17
E9
F2
E1
00
12
05
FC
FC
18
DF
FF
0A
0A
FB
01
08
E3
05
FF
17
07
F4
E7
06
06
03
13
F9
F0
15
FD
06
1A
09
FB
10
11
06
11
06
D5
05
01
0F
07
08
04
FE
08
EC
09
05
18
F7
00
0C
02
F8
F7
02
07
F2
EA
FF
FF
0E
EE
15
0D
F7
FB
F0
FD
F2
F3
FE
0F
17
FF
19
FA
16
00
FA
16
DC
03
ED
09
04
F9
FD
FA
F2
16
05
1A
DB
F3
05
F0
F1
17
0D
01
FA
0C
FD
F7
0F
F0
E6
E8
EB
F1
02
FA
10
02
F3
F8
05
00
11
20
19
C6
F1
16
F3
13
F9
EE
00
FD
EC
FA
EE
F1
F4
01
F1
FF
1F
E2
11
FA
FC
06
24
FD
F8
04
0D
F6
0F
26
EF
E7
F6
EA
FA
08
F6
FF
F3
13
0A
ED
0F
EF
F7
11
EB
EF
0A
F0
00
14
24
FD
E9
05
FB
E7
18
EA
27
02
0D
19
EF
18
F8
EF
0E
DA
FF
F8
EC
F7
FD
0B
09
06
D3
08
FA
F9
E1
FA
DD
FD
F8
03
0D
FD
0A
FC
03
E2
DA
0F
E5
00
03
FF
F4
03
09
F5
00
F6
0F
13
07
03
00
0D
E7
EE
00
08
00
F3
D5
0E
F6
F4
16
10
03
EC
F2
16
F6
EB
12
01
12
F2
F9
F4
03
12
FE
08
EA
FD
EF
01
1E
07
16
01
EE
F5
F6
FF
09
F0
F5
EA
09
18
E8
E9
0E
1B
E0
06
F2
E4
10
FD
E0
F6
06
F5
F2
F7
0A
0C
F1
10
00
03
E4
FA
0B
E5
DF
F3
FE
F9
0D
E0
1B
11
E2
E9
0E
FD
F2
D9
FD
F6
FB
08
E8
DD
F7
03
EA
01
E6
04
F4
22
05
11
B3
02
DF
0F
03
03
12
E5
EB
14
00
00
E2
CE
FB
0B
03
F0
05
EE
14
E1
EE
E5
D3
1E
EC
E9
20
0B
F2
F9
05
16
05
04
E2
F8
24
09
0C
F5
DE
14
06
02
EB
FF
0A
F7
F7
D7
1C
02
F9
D6
FC
F8
E6
F0
F1
F3
04
1E
E3
17
F1
06
F1
04
DF
FF
17
F3
E0
F9
FE
F5
21
10
FA
01
0B
01
12
EC
16
FB
F4
02
F6
FC
0A
05
FB
17
ED
0E
14
23
F8
E2
E1
F1
F9
0F
FC
2E
13
EF
F2
EE
02
F7
DB
1A
EE
0B
F8
0C
C0
16
E2
F7
06
0F
18
04
DF
14
01
FB
EF
FD
13
DA
04
F1
04
DC
03
08
FA
DB
05
13
03
DD
21
10
F0
03
F9
01
E0
FA
F3
04
F0
03
FE
12
E2
29
08
FA
FD
03
FF
1E
0A
C4
0A
04
FE
CB
F6
00
F7
FD
FE
F9
16
F1
E1
FF
ED
FF
08
F8
FE
D9
10
16
C1
FC
19
F8
01
F8
10
F9
F2
06
FC
11
0D
EF
FE
E5
EE
FF
FD
16
0F
0F
DD
EE
E9
E9
14
E0
EC
ED
02
E9
04
EF
FF
F8
E1
E6
0B
F8
D6
F8
FE
10
05
16
E4
F1
ED
15
FD
01
F5
00
DB
EF
1A
FF
FC
ED
09
CC
18
07
17
ED
09
F0
E4
FE
ED
FA
E8
03
05
1A
01
CE
0D
12
EA
EA
03
1C
12
EB
F0
F4
E8
19
13
0C
F7
FD
FA
F8
F1
F1
12
FC
E0
05
05
F8
FA
08
F3
EC
04
03
E3
DF
0B
F8
EE
01
03
DD
E8
E8
FB
04
09
EB
FC
F3
F9
F9
EA
23
FA
FA
10
F7
14
DF
FC
DE
0D
06
25
1B
00
2D
E7
F2
FD
13
E5
F5
06
ED
FD
FA
F7
14
FA
E8
F8
23
01
24
0E
EB
F6
14
D9
08
F0
0B
FC
06
0A
07
F1
F2
F2
02
FF
E1
06
02
FD
0D
ED
CC
F4
1B
F6
05
04
06
0F
FE
12
FB
0B
1B
16
FD
F5
FA
FA
17
0C
F7
FF
EE
03
33
09
0F
F4
00
E9
F1
F9
FA
12
F7
06
DA
06
15
F2
01
FF
06
02
17
13
09
F5
17
03
FA
EF
0D
26
06
F1
0B
FE
FE
1C
F8
0E
F6
07
FF
13
0C
F6
05
09
DF
FA
EB
E9
04
0F
F1
F4
12
0D
F6
0F
E0
F2
EE
EE
EC
EF
FA
F4
F9
E1
E3
00
FD
04
25
FF
01
02
07
E8
F7
07
05
EC
F5
06
01
00
0A
0E
F7
F9
E2
05
F5
01
01
12
E7
07
CD
F8
0F
EA
EB
F6
F1
DC
02
FF
F9
E6
FF
09
E6
0B
F6
08
0C
F6
CD
16
16
1A
E7
F1
06
1F
DF
28
FB
19
F7
FA
2B
F1
0A
FE
E0
0A
E1
06
05
E6
0E
0B
EA
ED
09
00
0B
E2
F1
F5
FB
FC
FB
F6
05
E0
FC
04
0B
EC
0B
14
F7
1F
0B
FF
F5
03
F3
F3
1B
0D
02
04
05
ED
02
EE
FB
F6
0F
FF
02
FC
FC
25
FA
F6
F8
E1
3F
F7
C6
FF
F4
FE
2A
DA
DF
06
0E
17
19
E6
08
26
FF
DA
12
33
F3
F6
FF
DF
FA
EB
FA
FE
08
05
EA
FF
19
F8
FD
FB
16
F8
09
00
F5
F5
F3
1C
F3
07
F9
0C
F1
01
0A
0C
07
1F
EB
01
0F
03
05
09
11
07
F2
FC
D6
0B
12
F2
12
F7
F7
F3
16
FD
ED
00
06
F5
F5
F4
04
F2
07
0D
0F
FE
F1
EE
F5
15
E5
1E
FF
11
1F
07
24
FB
E3
EE
FA
05
08
15
F4
11
FC
FB
1F
CA
05
06
0C
F9
00
FF
02
1D
08
17
0E
DC
07
FA
EA
CF
FC
FC
EF
FD
0D
FA
01
12
F1
E1
DC
06
1C
0D
EB
F9
07
E4
EA
07
F0
F4
FE
E4
0B
DC
F8
16
13
02
F3
1C
F6
F6
E8
0A
18
10
F2
F7
F2
F8
12
28
0C
F6
FB
E9
E3
FF
DC
09
F2
F6
D5
EE
E6
F6
04
00
0B
EC
F5
09
00
FD
11
04
FF
12
DB
0F
FD
E5
F6
0E
05
06
06
11
FC
F3
0C
08
0E
F4
F0
1A
EF
E8
E8
09
11
12
F5
FA
0D
09
EB
FC
15
03
DA
16
15
F5
CF
D0
01
E1
F5
FA
FB
0E
08
EA
FD
FA
1F
E2
07
FF
12
F9
F5
16
1B
03
F2
05
0F
FF
D5
EA
ED
02
06
0E
FB
DE
0C
00
D9
DE
F1
ED
09
05
DE
0D
F1
D9
D9
20
FB
EF
01
FD
10
FA
DE
08
1A
0F
FF
0A
09
15
1E
22
E7
FB
0B
FF
D5
0D
24
F4
32
07
C6
3A
00
F3
2C
0C
25
F3
F4
FD
FD
29
17
E3
0B
12
F1
FD
01
2B
08
F9
13
FD
0A
EF
FC
1F
E5
CA
F4
F3
25
DC
18
EF
F2
F7
3A
E3
0B
13
EE
15
1C
06
06
10
07
F1
0E
DA
FD
D0
44
05
09
FA
F5
17
EF
F9
E5
F8
26
05
2C
EC
F5
F6
12
D0
EE
20
D6
18
FC
0F
26
FC
E8
18
09
12
F5
DF
FD
1B
10
07
EB
FF
FF
DE
FC
16
F9
F5
0E
F7
1D
02
F4
F5
FC
EE
F6
FC
FF
FE
00
F2
04
FA
FD
FA
CF
F7
07
F5
2E
F3
EC
E3
E3
01
24
10
0B
12
00
01
02
EC
FD
F5
0F
19
F1
00
F1
06
09
FE
F4
0B
0B
04
11
F9
18
0C
00
1A
EB
1C
06
FC
DB
14
15
FA
F8
F6
0A
F7
E3
D5
09
E0
F6
03
14
0C
CA
F8
0D
F5
1A
C1
06
E3
23
EF
FC
0E
E4
0E
0D
01
FD
2A
FC
D8
06
0B
F6
FB
E1
00
07
0A
FD
13
ED
FA
F9
1B
F8
0E
F6
FF
00
FC
F3
1A
FF
14
F1
F9
FB
1D
09
0F
E3
FF
F3
FC
EC
FF
F2
02
04
EC
03
F9
ED
03
F8
F3
08
FF
FD
ED
F3
05
F7
05
0D
13
11
EB
0D
E4
F6
1E
0F
12
FF
FF
F5
FD
0C
09
02
EE
03
06
20
E7
0D
F3
FB
15
FF
FE
E9
03
C9
21
F5
06
FF
EF
16
0E
E4
F6
0A
EB
FF
12
F5
FD
F7
20
00
F4
09
FD
01
D5
17
09
0C
1C
F7
FB
F5
07
F1
FE
F7
F2
16
15
F4
14
EF
FE
F7
0F
0A
02
15
06
17
F9
07
FC
E3
0D
00
01
0A
19
05
0A
FF
00
EC
05
11
0B
08
EF
08
01
F1
0E
F4
13
F5
16
DB
EF
06
04
F5
0B
0C
09
03
00
F0
F9
12
08
F9
F6
F1
FB
EE
EF
F3
F8
0A
19
17
18
F0
09
FA
06
00
07
0B
0F
FF
F0
0B
E5
F0
FB
06
F3
18
09
05
FA
EC
04
FD
1A
19
EB
E6
F3
FB
FD
FB
F8
E6
F9
0C
E1
E7
F0
02
EC
01
EE
F4
F2
00
05
08
F5
00
E2
F0
0C
FA
F9
EE
FA
F5
F7
F3
06
15
11
0E
0C
FB
11
06
EE
E6
F9
0C
FE
FE
01
13
FE
E3
E6
18
F3
F0
15
E7
D3
FF
07
F8
19
FB
E4
09
EE
E3
EE
0A
F8
05
E2
E7
01
0F
EE
EC
07
FF
0A
04
0E
F0
0C
0A
0A
10
0C
F3
FD
16
FB
1D
0A
04
0C
EF
00
FE
08
F3
0E
0C
F8
13
F3
EA
E8
13
05
F2
F3
15
E5
01
05
1A
FE
03
E2
F8
18
FC
1E
F9
08
0A
0E
F9
E5
F6
06
E8
03
03
0A
FA
E9
10
FF
FE
F3
F5
03
D3
08
19
0D
01
0A
09
E0
2E
F6
07
1B
F9
FA
EF
F3
20
F5
FE
F2
01
E9
EC
25
DD
05
EC
FD
F2
F2
EB
19
0C
02
F7
F2
04
DF
11
24
0D
0F
04
EC
0F
EC
E4
1B
E2
09
FA
13
D9
FF
FE
02
FF
D8
FB
01
12
F6
06
0F
F8
EF
FC
F2
FB
FB
06
F2
F8
F8
EE
1B
05
1B
1D
FE
F7
D2
F3
0D
B6
0E
ED
F1
02
17
08
01
0F
0B
F2
05
09
26
DA
01
14
F1
DA
05
0B
0D
06
05
FD
FD
EC
EF
06
02
3C
29
F6
EF
F7
E5
12
D9
09
07
1D
0C
03
05
1C
F8
FC
F9
F2
05
13
ED
F9
08
EE
00
11
10
04
F4
03
FF
15
E9
F1
02
F4
00
1A
E4
FE
F7
FA
02
05
E0
01
F6
FB
DF
06
F2
13
01
0C
F7
E8
FE
E9
FA
13
07
F0
FE
F9
FC
03
08
FF
14
08
E3
E4
F9
06
02
FE
FE
02
DE
0B
F9
03
F4
E4
01
F8
19
F5
01
15
21
E9
F3
01
EC
F8
E5
F4
F2
0C
F3
1D
0A
0C
04
09
00
FD
FF
08
FB
01
EE
FE
27
0E
20
FD
F0
03
ED
04
F8
06
0F
FB
05
F5
1F
FC
07
F2
F9
1B
08
03
F7
1D
0E
F1
0B
07
E7
01
09
F4
12
1A
F5
07
FC
F2
FE
EF
F9
08
0B
F2
02
06
F7
0A
03
07
0A
1C
F2
F9
F3
19
FE
F3
FA
DC
FB
16
04
15
0E
06
F4
EA
F9
08
02
07
02
00
0B
06
01
07
F8
06
07
EC
04
F8
0B
03
1A
01
0B
0A
0D
0D
05
EB
F5
EF
0F
00
F9
F1
01
FF
F8
1B
F1
F3
F7
F7
15
F9
12
0A
18
02
11
FA
DD
E5
F8
00
EF
0D
02
FE
F5
EF
ED
15
04
EE
E3
DA
04
F1
07
06
03
03
F6
FA
EF
05
0C
E3
F1
17
0E
0A
F1
06
FE
09
FB
02
18
F2
17
09
24
F4
F3
E9
F2
09
0F
03
F6
03
0B
07
FA
F4
0B
EB
0E
F6
02
FB
E7
F1
FE
06
FE
F8
06
FD
F4
14
F4
FE
FF
03
18
F5
E9
FB
F9
01
04
05
FA
EF
EE
ED
2E
F1
EF
F4
FA
F8
E3
0E
08
F9
09
D4
FF
F9
12
FB
FB
EE
17
D8
0A
08
E6
02
E3
E5
EA
14
F1
FE
E5
EE
F1
0F
F4
EF
E4
06
F6
06
FE
ED
FF
F6
0F
00
DF
14
FB
EB
F1
00
1A
F3
02
10
EC
FF
E7
F5
F7
17
F9
F8
1A
03
F8
FD
21
E9
F9
FA
00
F8
02
F7
F8
F0
ED
08
05
02
0B
0B
03
03
E7
E1
05
E2
F7
D1
F1
01
FD
EB
FB
FF
20
00
E6
06
FB
ED
06
F3
09
F0
08
0D
FA
EC
16
10
E7
0E
1B
FB
F3
0A
10
17
F5
EF
04
D8
DC
D8
F6
06
22
0F
FD
EE
E1
03
FC
0A
F6
FC
15
F6
DD
04
17
FF
01
F2
F7
1B
F5
0B
F5
09
FF
16
F7
F7
0B
17
0D
00
01
10
E8
F6
0D
0B
14
EE
FC
DF
06
00
0F
05
FD
1B
ED
FA
ED
00
F1
DC
1A
15
FA
E3
1B
02
F7
FA
12
08
05
0B
FA
F5
E9
23
11
F9
08
FF
EF
14
14
F0
F7
F1
E1
DF
07
FB
EC
03
F0
05
0D
FE
E5
02
F2
F1
F8
03
F5
E4
08
1B
F3
F2
00
FF
FC
F9
16
EF
F0
05
0D
0A
FF
F9
F6
F3
EB
E7
FC
00
07
09
F5
14
E1
09
1B
F8
FB
E3
FB
05
15
FA
E2
05
ED
F9
FC
17
EC
E8
F1
08
03
13
D8
FB
FA
0B
FA
01
18
EB
E4
02
EB
F5
0D
CF
FE
FF
08
09
14
D7
F9
F8
E9
03
F1
08
EA
E7
11
FC
F4
E6
13
0A
E5
0F
03
1D
0F
EC
08
FC
D6
FE
13
0C
0D
FA
03
F5
F9
E3
FE
F5
F2
F6
F7
DF
05
0F
FF
25
02
0C
EA
EF
EE
19
0E
08
FF
ED
E4
02
11
F9
EF
FB
06
E3
04
03
E7
F7
03
07
F6
00
00
F0
F4
F1
10
F5
1E
04
FD
0F
08
E1
06
11
FA
DF
F9
F4
03
04
F3
14
F8
D7
F8
1B
1E
FE
02
04
FB
F8
F4
FA
FA
17
EF
E6
F5
F6
04
EE
F6
06
26
ED
DF
E6
02
EF
1A
E2
EE
E1
00
08
16
13
F5
F8
2C
F3
02
FE
04
FB
D2
17
0B
03
FB
FC
02
10
FE
FA
06
F8
F4
F0
FD
10
FE
F3
F9
FA
FD
DA
04
F5
00
04
FF
29
03
FC
FA
04
F3
0B
02
F5
16
0B
1B
0A
E7
FE
FD
F7
F2
20
14
EC
02
09
EF
00
01
F3
DD
EB
F7
F9
0A
04
00
E4
FB
CA
00
DA
1C
07
E6
12
E7
04
F6
F6
E7
05
21
F7
17
F6
0D
D4
03
0A
00
18
FE
27
02
07
F3
E6
EB
0F
EE
ED
2C
E0
21
21
E8
F1
F2
FA
FC
EF
11
05
DB
02
FB
CA
F4
F1
FE
F0
02
EB
FF
14
0A
E3
F9
F4
FE
E4
ED
EE
10
29
16
F8
F0
05
F4
0F
05
18
FD
FF
CE
20
0B
0A
FE
FC
F7
CB
32
F6
00
02
02
05
EA
07
EE
FA
10
ED
1F
F6
0A
F1
F7
15
15
FA
0A
16
E8
EC
10
0F
03
DD
16
06
1D
14
03
F6
DE
04
D5
E9
0C
04
E6
05
05
FD
FE
02
11
F8
FD
03
00
FA
E6
34
D8
EF
FB
2B
E8
FB
EC
05
FE
32
F2
06
07
F1
19
F1
E5
00
1F
FE
FB
00
F9
FD
0C
F9
E9
01
09
08
18
E9
FA
F1
FC
FF
06
07
04
06
FB
05
F3
04
02
03
F6
0D
F9
04
F3
FB
0A
0C
0E
F5
0A
F1
E2
0F
09
0C
FC
EC
F1
FD
F4
0A
E3
13
F8
FA
03
F6
F9
1C
FF
E1
0F
F3
08
F8
F5
11
F0
08
0A
0E
03
05
06
FA
ED
04
13
F7
E9
01
FB
1B
02
03
E9
03
F2
F6
EC
15
EE
09
E7
10
1B
F7
0B
09
F9
FE
0C
08
E5
05
06
F8
F5
01
19
FE
F2
09
EA
0C
00
05
17
C1
0D
F2
FE
F5
09
ED
EA
F9
FD
10
09
F7
08
16
07
19
FF
13
F1
EC
FB
0A
EE
10
03
13
FB
FC
09
07
FD
0D
03
FB
FA
0D
E9
07
FC
E8
0F
12
02
EF
05
E2
06
F1
00
0D
F9
07
12
FB
FA
F9
0F
F3
F9
F3
06
E5
ED
FF
01
18
00
05
16
0B
FA
03
00
0B
0B
07
FD
FC
FA
EE
F5
FF
09
06
EB
09
EC
E3
E8
0C
F7
F6
1C
08
EE
E7
F0
F5
F7
FA
FB
10
04
07
EE
00
00
01
F3
00
F8
FD
FC
F2
13
F3
F4
FD
F9
16
02
EC
FE
EC
FE
0D
0D
F3
EF
FD
E6
F4
E7
EE
F0
1F
FC
FF
06
13
C5
E3
10
BE
F4
F2
18
03
07
DF
06
F9
0A
ED
05
07
0E
EA
0D
0B
F5
01
FC
11
0D
03
07
14
FF
B7
40
E3
F5
1F
03
FC
CD
09
FC
0E
1B
15
10
FC
09
FA
DF
08
F4
F8
FF
0A
08
0B
FC
FC
22
F7
08
FC
E5
0E
19
01
D5
DB
ED
34
F8
10
0D
ED
26
02
0A
EF
30
F7
30
FC
F0
FD
BA
46
1A
EE
EE
08
FD
F2
F0
EF
17
1E
FF
22
11
F0
0C
1D
D6
03
24
F9
EF
0D
F9
E6
FB
08
06
19
16
EB
F8
FF
EF
0E
EF
FE
09
12
E2
00
1B
E7
F2
F7
05
0E
02
F1
0D
0B
F8
F0
06
11
00
F3
F9
EB
02
11
FA
01
E9
F9
09
1E
E5
08
F1
E8
F0
F8
FC
F4
16
F5
FD
17
F3
F4
0B
14
EC
10
00
07
0A
EE
F9
F8
F7
F6
FB
09
0C
07
06
FE
F2
E1
00
E5
F7
06
09
02
F1
FF
F9
08
E1
D2
F7
00
03
09
10
F2
09
DD
FD
F7
FA
F7
F0
0A
12
10
EF
E5
06
07
04
EC
F4
05
15
F2
DE
01
0B
0A
13
10
00
F4
F9
FF
15
EE
D5
06
0F
FE
FF
FF
ED
F9
EE
F4
1C
F5
05
06
0C
F1
ED
09
16
FC
06
FF
E3
F0
FF
E0
14
F0
F7
03
F8
EB
FF
0E
02
05
FD
04
F0
15
0C
11
14
05
EB
06
17
20
FB
EF
14
F7
03
10
FA
F3
FB
1A
0E
01
FD
F3
FE
02
F9
FD
F7
19
F6
E0
10
04
16
ED
0F
16
F8
F9
EE
0C
FF
E7
04
F7
F0
01
FF
F3
05
EF
02
04
F0
19
F5
10
EB
0E
00
06
FF
03
F1
0B
10
08
12
06
FC
0E
13
F5
F4
FD
17
11
F9
07
F7
FF
04
04
F5
04
FB
E5
19
ED
04
08
03
18
EC
12
02
F4
06
10
0E
F5
F1
07
14
04
F6
02
06
EE
04
E8
F7
EC
FE
DF
F2
16
F6
0F
FE
F0
FE
EC
0F
F1
0F
FF
E8
FB
02
FE
11
F8
12
EC
F4
F0
FF
F5
0D
0B
FF
0B
F6
01
D7
FA
05
03
0B
17
F2
21
E6
FF
ED
0B
F0
FF
FA
09
F7
FB
FC
0A
04
FC
F2
11
06
2C
E3
02
08
01
D9
06
EE
00
F4
E7
FA
0B
F2
F0
F6
04
1B
EE
EC
04
17
FF
04
04
0D
EA
02
EC
F2
FC
FF
D8
06
DD
0B
0B
F7
15
FF
05
FE
1C
FE
F6
0B
01
FB
0F
F8
19
FB
FE
17
FC
08
EF
08
FA
E9
1A
06
11
E9
23
0A
F3
0D
EA
04
F3
ED
01
F6
08
EB
02
FE
03
F3
F7
E0
F1
FE
01
E5
07
E9
F1
D3
ED
0F
05
F8
FA
05
1B
FC
05
E4
EE
09
F5
F1
FE
E4
09
F1
17
12
0F
EA
06
E3
FB
18
03
E8
00
ED
FE
1F
ED
F7
0D
1D
0C
14
00
F1
28
EA
F7
14
09
0C
EB
E7
FF
18
04
E3
09
DF
FA
05
2A
13
F4
FE
0F
24
0F
19
EE
F5
2E
D8
EB
18
1F
0D
EC
F1
F5
F1
F1
1D
04
10
10
01
F3
E5
FD
1A
FF
10
F6
DD
0B
07
FE
FD
1A
0F
00
0F
06
EF
F1
FA
FF
F6
FA
FD
11
0D
12
1D
FA
E4
07
EC
15
FC
09
0C
F4
FD
DE
E6
08
14
EF
21
D9
D2
E6
E6
D1
CC
D8
FC
05
F4
F6
EA
0D
CA
F4
E9
F5
0A
C4
16
25
FB
E9
E1
02
07
FF
FC
10
FE
FB
F5
E0
06
19
1A
FE
FE
EB
0F
22
E3
FC
02
31
E4
02
1E
06
FB
09
FF
0D
F2
10
FA
DF
07
07
FE
F5
FC
08
FC
FC
0D
0E
0A
F1
FA
11
F0
22
04
09
F7
FE
E9
EE
0E
E1
0A
F3
F2
10
EF
10
EC
1A
EF
F4
0D
F7
02
FC
FE
F7
02
EF
05
F0
05
0E
EA
FE
FB
E9
F5
0F
08
04
FB
10
CF
09
04
07
08
EF
FC
EF
E1
0D
EF
F2
FA
03
ED
03
E9
1C
F4
0C
FB
11
0A
09
D2
FA
00
FC
04
EA
F0
00
10
09
EE
29
FF
20
19
F5
0D
0A
F8
DA
0E
07
12
22
01
0A
F3
18
01
EF
0C
FF
0A
10
F6
F8
00
03
13
0C
F8
0C
F3
0E
FA
1B
07
01
0B
F9
FD
EC
EE
FE
1A
FE
E3
F2
FB
FA
FF
E9
02
0B
F4
F8
04
13
08
11
E5
EF
F1
0F
00
F4
FE
EC
FE
F9
F3
F8
0D
16
F5
12
0E
EC
05
02
E1
12
F8
F0
06
F0
D6
FF
0C
F7
04
FD
04
F0
F0
E7
ED
FA
02
07
F0
FF
F1
F3
0D
08
01
08
E2
09
07
06
10
05
FD
FC
02
08
03
09
F6
EB
05
FF
07
FD
07
FE
01
F2
0B
FC
11
E8
FC
FA
00
11
FC
FF
03
12
03
16
EF
FB
FA
0E
F1
04
F6
FD
00
FF
28
02
0F
E1
0C
10
14
E9
0B
F6
F5
14
06
1C
F6
FD
F6
EE
17
F7
0D
ED
01
F9
F5
F3
EE
F9
F9
12
ED
1E
15
20
F2
1A
F4
03
0C
F3
06
0D
D9
09
0C
FB
00
0D
F7
F7
FE
06
1B
13
D7
FD
15
07
E7
DF
12
E4
11
07
F9
13
07
E3
FF
F6
EA
ED
F6
0E
E6
09
DC
08
CA
0F
F9
05
F3
00
F6
0E
F8
05
D4
FF
07
02
0B
C9
16
11
06
FA
EB
1B
14
C7
E7
E4
04
F9
05
F3
03
13
D6
0C
10
08
EB
FB
F9
03
FF
FE
0F
F0
DE
F7
0D
14
F2
F3
FF
09
DE
03
04
F3
F5
F4
E3
0D
0C
06
03
F2
F9
E3
06
F4
0E
DB
08
04
07
0C
02
02
F2
F3
ED
03
08
FA
06
1D
F4
F8
1E
F3
EA
05
01
FB
FA
09
0C
1E
FB
F3
FA
E7
DB
EF
11
03
0E
FB
08
08
F5
07
0B
03
09
EA
F8
F3
D9
FC
04
09
EA
F5
0E
18
07
F7
0B
0D
0A
00
F9
01
09
07
F7
D4
E2
06
E8
01
05
14
13
EB
E4
09
14
0B
23
ED
FC
1B
FA
08
07
0D
D9
F9
01
FB
07
00
07
01
03
EC
16
0B
10
EF
07
05
FE
12
FE
F8
F3
01
DD
F6
FF
0E
0B
04
11
03
FA
01
EE
F0
0C
F1
04
09
F7
09
02
EE
F6
08
EE
E8
1D
11
FF
FA
13
EA
04
0F
07
FE
0A
F9
00
F0
0F
02
0F
EA
D6
FB
0B
EF
17
E6
F9
17
08
14
07
11
06
E4
0B
09
FD
F4
E2
F3
F4
13
F3
05
DC
F4
EC
08
F0
12
BC
03
F0
F7
0D
E8
14
E9
F4
0C
FB
16
FC
F3
EA
0D
09
F0
1C
E6
17
FF
02
FD
06
19
F7
07
FF
ED
0C
EA
1F
06
E5
23
01
0B
0A
07
F8
10
F8
EF
0D
F9
FA
04
EC
FC
05
F0
FE
02
FF
E4
F1
00
EF
EC
00
19
F1
20
EA
F0
F8
F8
0E
FA
0D
FF
01
F3
0D
07
01
FD
FA
EB
F7
FC
F7
FA
0D
01
00
08
F2
F3
F5
0A
07
E7
09
03
EB
03
F4
E2
FE
F6
F1
07
EB
FB
FE
F8
F9
0F
FD
EB
0F
F7
14
F0
01
FD
F5
13
FE
07
FA
0D
02
DB
00
F9
F2
FA
EC
02
24
11
DB
DE
06
F6
06
ED
EB
18
06
05
08
02
0B
E1
FD
08
ED
0A
13
F9
E9
FF
0B
07
11
15
08
04
03
F2
E5
06
FF
F8
F9
16
F1
06
FB
F7
FA
EA
0A
11
E5
0E
04
FE
FC
00
FD
0F
F1
FC
10
09
09
03
01
15
F5
00
0B
20
EC
0A
02
F4
EE
05
F8
1F
F6
F5
F3
F6
16
0A
08
01
FA
F0
0F
F8
12
ED
04
FE
FB
ED
14
F8
FF
E9
E7
FD
05
E6
01
F2
F9
D7
EA
00
F4
17
F9
F2
03
1E
0C
F2
FF
EC
F7
FC
F7
F9
06
FA
FC
FA
F9
00
0E
F6
17
F6
E2
EF
0E
FD
EA
E8
17
F2
01
EE
11
09
E1
0C
F9
06
E7
EE
E8
1C
F6
20
05
E2
05
F9
15
0B
EE
F4
FF
E2
E7
0C
EF
08
09
17
F2
FA
1E
EF
05
F7
F2
EF
EC
F4
07
E9
0E
FD
14
FC
03
F9
FF
02
F3
FD
ED
08
D4
F7
05
FE
10
EA
0B
04
0A
0F
09
E9
00
FC
DA
F4
16
02
D4
0E
05
08
DD
06
F8
11
FE
E2
06
0D
F8
00
17
F8
F3
26
07
1B
16
F3
EA
0C
FD
0B
01
FF
30
F4
FC
07
0E
07
DF
F2
16
F5
EF
ED
E2
03
EF
11
E7
CE
F8
F1
F9
E7
0B
0F
E8
0D
EE
1E
F3
FE
02
F9
F9
17
00
ED
02
FE
FC
03
FD
F5
FA
FC
F6
FA
EE
03
08
00
02
F5
09
F1
00
F1
02
E1
F3
0D
0D
F2
08
0A
0A
ED
F9
ED
0C
13
E9
F5
F6
03
CE
12
F2
EE
EC
D9
0B
0B
F2
04
F2
05
F6
FC
C7
0B
F9
FA
EF
F3
FC
0B
FE
18
F8
0C
F9
EE
08
03
06
FF
08
13
FF
2A
17
16
FB
F5
01
FF
09
F2
E3
F3
19
F7
02
FC
01
FC
FA
08
13
FA
11
1D
09
06
16
06
F9
1C
FE
F6
F3
08
FD
03
04
0D
EB
12
FE
F3
EC
03
05
09
FF
0E
EC
EF
F2
FA
0A
09
1E
03
0F
F2
ED
DC
EE
FE
FF
1C
03
11
1F
F3
ED
0E
0F
F3
F8
F6
FA
E9
01
EE
07
10
13
F4
04
0A
FD
FA
18
07
05
F5
04
11
EE
01
FC
EE
F4
0B
E6
15
01
02
FE
00
03
F1
15
FA
0F
EC
D7
F7
02
FB
ED
06
0C
0C
E2
FC
0A
09
E8
10
E2
FB
F0
F6
EF
0C
F3
F7
EF
03
0C
F5
EF
F0
14
F8
16
F9
FE
DA
F6
09
F6
F1
E5
F7
EA
FB
F6
0C
0D
EF
07
FF
FD
0B
EB
17
FA
FC
F9
0D
25
17
F3
F7
F9
0F
FE
F2
E0
EE
F6
0A
04
07
FC
FF
02
F4
0B
F4
FE
0A
F9
0B
D2
F5
11
FC
07
EE
14
00
F2
0D
E0
13
11
F2
F6
F7
F8
EF
FB
F5
08
EE
03
E1
F6
F2
20
FE
F2
ED
EB
11
FB
14
10
EE
1C
0E
09
04
37
FB
0C
0A
00
11
E7
1A
F3
0A
F1
0A
1D
02
0F
17
F2
06
13
03
13
F7
1C
F2
F5
05
08
02
D4
07
E5
0E
0C
1D
06
00
FD
0E
10
01
EE
F7
F9
F9
11
05
F2
FF
0D
FB
08
ED
06
E7
FB
DE
EB
01
FD
EF
FA
F5
F6
13
02
F5
E8
0B
F0
03
F9
02
ED
1B
EE
07
EE
01
07
13
03
FB
05
FF
FB
19
09
FD
F3
09
EB
00
01
EA
FD
00
F2
05
F8
06
F6
0B
F4
FA
F9
E8
08
EA
1A
01
FB
FD
04
04
0E
ED
1D
07
10
05
04
F0
07
0E
00
0B
04
DF
F8
FD
01
EC
15
0E
19
20
FE
DB
0D
FB
F6
02
F6
E4
17
F9
E2
15
F9
FC
14
05
F2
FC
06
E3
F8
06
EE
00
1A
08
F1
F0
1C
E6
F9
05
00
02
06
05
01
FE
F1
FE
FA
FC
0A
F8
0C
05
01
F1
06
D3
FA
ED
F6
E1
EC
FE
F6
06
FE
F9
13
EF
00
0D
08
FB
0C
0A
F9
23
EF
F9
E2
F0
F7
0E
F4
F9
F2
E5
F1
02
FF
F7
F6
FD
F0
05
F3
F4
E3
F7
13
E4
F7
F3
F7
F7
F9
E4
03
0C
FC
EF
03
0E
04
18
EF
F4
1D
EE
F7
0D
FA
13
EF
0C
0C
03
F5
EC
0C
FA
E9
EC
17
EE
25
FF
E8
16
07
FF
0E
F1
FB
0A
FA
12
F8
11
FE
00
0C
FD
FB
0B
26
FA
FD
0F
01
07
0A
ED
09
F9
FD
1D
10
0A
F6
EE
FD
F8
09
24
13
E8
F5
F6
FD
D8
E9
DD
01
FC
EF
10
18
1D
FF
F4
0E
0A
FA
00
01
F0
07
04
F6
EE
FE
E3
04
03
FA
02
0F
F5
F3
F5
11
E9
DB
E2
13
00
05
05
FE
05
FF
E6
05
00
F9
F5
E7
ED
FB
1B
F2
08
F9
03
08
0D
FC
1A
EF
10
06
E9
E6
F8
0B
EB
09
E4
EE
0D
0B
FE
F9
FB
10
ED
DA
FF
0C
0D
06
02
10
EE
FF
FE
08
F5
FA
EC
05
0D
F0
F8
FB
34
06
02
FD
E8
F9
E7
F1
EF
01
07
F1
F4
EE
0A
20
D2
29
FB
FA
EC
F6
13
FB
14
EC
23
07
D8
12
0D
F2
13
FA
DE
D9
FE
FE
F5
17
EA
14
F7
EE
C8
06
1C
FE
EB
EB
0E
DA
E4
20
00
25
EE
F4
EC
01
07
DF
0B
03
06
0E
EE
EE
08
D4
12
D5
07
00
25
E7
FE
11
E7
EF
F8
F5
1D
27
E9
07
0B
21
34
0B
E5
FB
0E
EB
26
ED
02
33
0F
D8
02
1D
14
0C
EC
E8
13
FD
0E
15
FC
0A
11
1B
DC
15
0B
F1
1F
F0
16
20
03
FF
FF
F7
FB
F7
08
0D
13
00
0A
08
F6
10
F5
0B
DF
F9
04
E6
F8
F4
06
E7
32
F2
EC
18
DE
02
FC
04
0F
08
11
FD
FB
FE
14
DB
06
EE
E3
EF
07
F6
F2
0D
E8
DF
04
0E
EF
FB
F8
10
0F
C7
F1
E1
D4
DD
E6
1F
06
D9
06
F7
11
F5
01
FE
07
E7
E0
06
06
EE
EE
0A
FC
11
F0
00
25
11
FE
01
ED
01
37
01
0A
F0
EF
13
09
EC
09
0F
09
F4
EF
09
0B
06
0D
E9
FC
17
02
ED
E1
F8
19
02
0A
F8
0D
CF
FC
11
FC
F6
DD
F6
10
1C
F9
F4
CF
FA
FD
07
EE
13
F0
FC
F4
FC
ED
02
F8
0F
11
EE
EE
1E
04
EB
CB
ED
FE
E8
0A
0A
F2
12
07
0E
09
0C
FC
E4
0E
04
0D
00
07
CC
0A
17
01
26
04
F4
08
04
18
ED
F5
F7
EB
F7
CA
13
F0
DA
14
01
17
0A
FC
E7
05
F6
F0
F1
E5
EE
07
ED
FC
F4
2B
FF
15
FF
F2
F5
11
02
0C
FC
FB
16
19
ED
09
17
03
04
F8
1C
DF
01
E5
0A
FD
EF
01
E5
EF
09
10
F7
EA
05
05
0E
0A
00
F7
05
F5
F1
F6
00
17
FF
E7
F0
F2
F9
DF
05
F1
FB
08
E3
07
05
07
F2
18
FD
F3
05
FA
15
E8
F2
E7
F9
0C
E4
F9
07
F3
14
F7
F9
DB
0C
E2
E9
01
F8
EB
DC
FB
0B
09
1A
F1
02
F7
E2
05
F3
05
EA
0E
EC
E5
DD
10
E9
01
05
0D
11
22
D6
F6
0B
06
FB
E7
F9
13
06
F7
EF
10
20
13
01
F5
EB
1B
FF
EE
0D
07
14
1A
F4
FB
0D
F6
E4
EC
11
15
01
05
FB
F6
FF
0F
16
1D
03
05
F2
05
06
07
09
F4
E7
1E
01
F0
F4
EB
0F
FE
F5
18
F5
FB
F1
FE
15
08
18
F5
00
E3
F8
DD
FE
E7
F0
15
DF
19
F4
11
F2
1D
1F
F5
08
08
13
FD
DE
04
F6
02
0A
F5
E0
F5
F0
F3
02
FC
F3
F5
01
0B
F6
F7
03
E3
F7
1C
F4
F5
10
EB
FE
EF
17
03
0D
F5
FD
01
10
F3
F1
09
16
F5
03
E3
F1
04
0A
F8
EF
01
FF
EF
F2
BA
17
F9
10
EE
E0
F2
1B
E3
C9
05
1F
FA
F8
2D
0C
06
DD
01
09
14
EE
09
F4
F5
EE
F8
00
04
BE
13
FB
15
E6
ED
F1
F7
0F
D6
CC
E5
01
FB
FF
18
FB
22
FA
19
FE
02
F1
F5
F0
F1
FB
21
F3
EA
ED
DA
FD
C1
F4
F7
1A
F3
E8
03
08
03
08
02
F5
EB
FC
ED
FB
0A
00
0E
17
F3
FD
02
EE
F0
22
06
F3
05
15
04
D2
F3
0C
02
14
F6
04
F0
05
FC
06
18
F6
E8
FC
15
24
C5
DC
0A
F5
F1
FE
03
FD
11
EE
C6
FB
F4
EF
03
0B
04
27
FF
D2
27
21
FD
F8
DF
EB
04
1F
EB
ED
F3
0A
2D
E0
F2
0C
27
E2
DD
16
07
15
0D
31
1C
FB
E0
0F
E6
FF
1B
F2
F1
D8
08
16
0A
24
F6
07
FD
FE
0D
0E
CF
F5
0C
F1
0E
06
18
01
21
1B
07
F4
11
FD
0B
F9
0C
00
04
08
F0
10
F0
07
E0
18
ED
F1
05
1E
0D
09
EA
0F
D8
F9
F0
EB
EF
1B
1D
0F
03
13
F8
19
03
09
FD
16
F0
EF
21
0E
18
F8
01
EF
19
F9
D7
EE
DA
EA
0C
F2
F1
FB
1C
12
F9
D4
02
FC
D0
E2
0B
EC
F2
FE
24
05
12
0D
ED
07
15
1A
0B
F8
FA
0A
F8
14
03
F7
22
01
0D
14
03
F7
FC
08
E6
EE
06
F7
01
01
05
0F
0F
14
05
01
FA
F0
FE
F7
EC
F9
25
D2
1E
0C
EE
FD
0A
29
0B
F5
0A
FD
F8
02
08
01
05
06
CE
FC
E8
EB
02
FA
17
FD
F7
F6
0C
0B
00
19
F0
F9
0B
F0
05
F2
FA
FE
FB
F9
08
09
FF
F1
F0
00
01
DB
07
14
14
2B
E9
F6
F3
05
08
EA
E9
0D
09
05
F0
0A
E3
05
0C
E7
FA
28
05
CF
FF
08
0D
0D
01
E5
12
F3
F5
15
FC
0F
DE
E0
EF
F9
18
0F
FD
EE
E7
27
00
E3
F7
FA
F1
0A
07
EF
F1
00
FF
EC
04
02
00
EA
FA
07
01
03
F4
F4
F6
FC
0D
17
03
00
EF
01
E4
F0
0F
1C
F6
02
0A
25
03
14
21
EA
13
0E
F1
EE
20
F3
03
FA
0D
0C
06
F0
0F
13
04
F9
EE
0E
0A
F4
F0
F9
01
1E
DF
1C
05
0C
01
F4
0D
FF
E8
03
FA
F4
E9
0A
F5
F6
FD
E7
F6
03
0B
0D
F1
FB
F6
FF
00
E2
00
16
EF
05
16
08
F8
FD
FE
09
00
DE
13
0D
18
EE
EC
0C
08
F2
DD
0F
06
EB
08
F4
13
FA
F5
F9
1E
F2
06
FD
F5
00
FC
06
14
F6
EF
EB
F3
0B
03
02
0C
E8
F6
FD
0A
05
00
E3
EB
F5
E4
00
09
F4
F9
E8
01
06
FC
10
FA
01
FA
F7
F8
F3
1A
F8
1C
FA
05
F5
F1
ED
13
0A
1D
F6
FD
11
F7
DB
FD
04
01
F0
0A
08
0F
FB
F5
DB
FF
F6
EE
0B
F5
16
F8
FD
09
F3
1B
FA
0A
FE
0C
FF
FE
FE
E2
E5
F5
FD
FF
07
1A
0C
FD
F4
F0
0F
DF
F1
FA
E8
00
16
FC
E2
F3
02
12
04
DC
04
09
BE
1E
FF
F7
DE
DE
F3
0E
F2
FC
F7
F7
00
F5
FF
FE
FF
06
E4
13
13
0E
F3
03
F1
FE
F7
13
0D
EE
11
FC
F6
D0
F0
0B
18
FC
0C
12
F5
00
0C
EA
EF
14
FB
03
F6
1D
F2
09
08
0E
F0
F1
F0
13
12
1E
FF
F7
18
FC
E8
0B
06
05
F1
EA
0B
FD
06
12
02
07
05
C3
FA
FB
10
ED
F5
F3
F7
05
19
1E
16
11
FD
ED
F4
0B
EE
FB
05
1D
EE
17
11
F0
14
04
0F
F7
07
0A
FE
E8
01
F9
FA
19
F1
05
F7
06
06
F1
18
19
E8
0A
11
10
FD
EA
07
1A
06
01
F0
F2
0B
03
11
02
17
E6
FF
F3
04
E0
E6
F8
FE
0E
F3
1A
1A
15
F9
14
11
03
11
E8
06
04
0D
04
12
FA
13
EC
06
F8
EF
FE
FA
05
1A
FC
28
19
D5
E5
11
ED
F1
01
F5
1A
04
07
F1
0E
F2
E8
04
16
09
01
08
01
00
17
EE
FE
06
0D
DE
10
08
FA
E5
ED
10
F8
00
05
F1
0A
14
ED
07
0C
EE
FD
F3
06
11
FF
FF
1A
FD
06
EB
08
13
E5
E1
FF
02
0B
05
14
14
EF
F4
E4
F2
17
F3
F0
EC
FA
15
F3
FF
E9
0A
FA
EE
03
FB
EF
00
02
FD
05
FA
05
0C
F9
F3
FA
26
08
F7
F9
F5
08
D9
ED
12
0B
0F
03
09
FE
16
0A
D9
13
05
F5
EC
01
F0
01
FB
06
F2
F6
08
0B
F0
1D
10
EA
FA
09
E2
09
07
07
F3
03
FD
04
E2
11
E8
F7
06
FC
ED
0E
FB
01
11
07
0B
16
F8
F9
02
02
01
ED
0E
F7
FF
F9
05
FD
00
F5
05
0F
F6
05
FC
F1
EA
E8
27
F8
EC
32
F7
FA
FD
FB
F5
E7
F8
24
23
06
02
F1
0E
14
FE
EA
F1
1C
0D
08
F1
05
13
C8
16
F3
18
01
EF
21
09
08
F6
0B
FD
F4
F4
07
FA
03
06
03
08
F8
D7
FA
F5
DB
04
F7
E0
CB
22
E1
E0
F4
ED
EB
0A
DE
0B
FC
1C
FF
0D
EE
ED
E4
D6
FC
13
17
19
08
F5
0B
04
F3
D6
FC
21
2D
E7
EB
02
12
0F
08
DD
04
03
FC
F8
F1
11
00
08
E3
0A
0D
12
10
10
FF
EA
14
F7
F2
FA
FE
EE
09
F7
14
04
FD
07
ED
F4
1C
19
FB
0F
F2
00
00
F6
13
11
0D
06
FD
FB
09
0B
F6
01
01
01
F4
FB
FF
FF
F1
14
FD
0D
0D
FE
04
FA
E4
F3
1C
FA
F2
08
FD
F7
FD
FB
1A
F7
0B
DA
F6
EF
FA
FE
0D
E7
EC
09
F7
00
07
FB
FC
F2
FC
0F
EF
09
FA
F6
F0
D2
FA
F6
DE
11
F1
0A
E5
EF
02
F4
DD
ED
F8
0D
05
D2
E6
0C
04
00
06
DE
EF
FC
FA
0E
18
10
0C
F8
E2
03
F6
FC
EB
F5
EA
F3
0C
11
01
E9
02
F5
FB
FA
F6
F6
08
00
F8
F3
FB
0A
01
F4
FB
07
12
02
FB
00
FB
02
03
09
FC
EF
E5
F9
EE
D9
F2
F8
F3
00
EC
07
12
F0
E9
00
02
03
DF
FB
03
F4
10
EF
FB
16
12
F0
02
18
F9
01
0E
01
F8
0B
FB
F6
02
12
F1
EC
08
00
07
0F
E8
10
06
F8
07
E4
EC
1E
0C
F2
0E
1C
0B
1C
FB
1C
FA
08
F3
0E
03
F7
1B
F2
0F
EC
01
F0
0C
18
E8
E8
F9
F8
E9
FC
10
06
11
FC
F8
F4
0B
FA
F9
F8
EE
F2
11
F5
F9
15
F4
D1
0F
FF
14
FB
1B
FC
F5
02
1A
F7
F6
F1
08
FC
08
0C
F5
F6
09
11
F1
01
01
0B
F9
04
01
F2
EF
07
E2
15
08
02
FB
06
06
F8
FE
02
DB
FE
FE
FE
08
04
0F
F5
0C
07
F7
F0
10
F3
EC
08
F0
F5
F9
F2
03
0B
EA
F8
F0
06
00
F8
F6
F8
0C
01
08
03
EC
FA
FB
03
00
0C
09
0C
F2
00
12
EC
F5
F7
0A
1A
FB
F7
F7
0A
02
05
11
E4
F1
FF
F3
E2
05
04
F8
FE
10
F9
05
08
F6
D2
EA
F7
04
F4
0D
EB
F0
F0
F7
FA
F2
01
06
03
EF
DD
DD
FE
FA
F3
F3
02
F6
12
E0
06
02
FD
E9
0C
E5
09
1A
13
F7
ED
F5
EA
E6
08
0D
F5
05
EF
09
05
DF
06
07
06
E3
FD
14
E1
E1
09
F0
0E
01
FE
EE
E7
F8
06
ED
09
05
E1
0A
E5
F4
08
FA
E8
F1
C5
08
04
DE
07
F1
F7
09
19
E3
1A
16
CD
CC
15
1A
FB
08
D6
D8
08
0F
EC
FD
F6
FF
12
04
01
19
30
01
FB
24
F1
16
DC
0B
09
2C
0C
F7
F0
03
0C
F8
00
D9
04
25
13
08
20
EB
02
E9
F8
0D
0E
F9
00
F6
DA
01
0C
EB
12
0F
10
F8
FA
FC
10
F2
F5
F9
F9
F5
DE
03
FF
0C
0E
EC
11
1C
00
FC
F5
01
F3
04
F9
D5
04
14
EB
15
FF
FF
EF
FE
08
F2
FB
07
DD
F7
1F
FD
FE
07
FB
08
E7
F8
0A
F8
0A
F0
02
ED
0C
19
06
07
FD
FA
FA
26
17
1A
18
0A
FE
FB
E3
02
F3
02
D8
22
05
17
04
EE
F6
17
1A
12
E6
EA
ED
D5
FF
FF
17
00
FC
F2
F0
0B
0F
09
E7
D6
14
01
13
09
01
FD
E2
FE
04
EC
FB
14
09
EA
EF
FF
C6
FD
00
E9
E5
07
09
09
DE
E5
08
12
F8
F4
03
E0
DA
ED
FD
F6
18
0F
11
04
DF
03
FB
35
FB
13
FE
DE
FF
E1
F5
E4
EB
08
02
DD
EC
09
F8
F8
CC
13
13
02
FB
F4
13
F3
E9
FB
07
01
E7
F8
D9
F5
FC
FF
12
10
07
FE
F7
07
0C
FF
F4
2E
F6
0E
0C
2D
01
08
20
01
12
0F
FC
0B
F4
F5
00
0A
03
BF
F6
D3
FF
F8
F6
EE
EC
FA
E3
DC
15
02
E1
ED
F0
FF
23
13
F1
F9
F3
FC
F8
0C
15
E1
FE
12
13
18
F8
F3
01
17
FB
10
01
0C
2B
0D
07
05
0F
F2
EC
06
03
FC
FC
04
EE
05
F7
E4
2D
0B
0E
03
F4
F6
05
F5
EC
FD
FC
08
F6
14
F6
0F
07
FD
E4
07
26
F4
D9
F9
1E
08
F9
15
0C
FB
FE
10
0E
01
12
0E
0B
07
0B
0A
F7
08
04
EC
DC
FF
16
04
1C
E6
FF
01
18
EF
E7
E8
E0
DA
F8
14
FC
12
F6
17
FA
00
F8
07
F0
17
F5
15
EF
04
04
1B
FF
05
F9
15
F6
F8
F3
FD
F4
0D
10
FC
06
F0
0D
F4
FF
0D
0F
15
FB
0F
0A
0F
02
FD
FB
F5
E7
02
03
0E
F0
FB
21
FD
FA
03
FC
EF
14
E5
0D
F6
11
18
13
06
07
FD
02
F9
FE
FD
D9
10
00
F0
F8
03
1C
EE
E7
0D
EF
D5
E3
F1
F6
0B
22
F4
E5
F8
EF
DB
14
E7
1F
0B
21
15
F8
1E
D9
EF
E1
19
E0
F3
17
F1
E3
E9
FD
F6
DC
18
06
01
F6
F6
1B
E5
F5
F4
F5
07
EA
03
0F
EF
E5
18
F6
ED
F1
0E
17
FE
F9
F8
F0
01
F7
22
0D
DC
F1
FD
E5
E6
F2
0B
09
FB
F9
F2
E1
F0
2B
1D
FE
E7
F8
09
E3
FA
1F
F4
FC
F5
02
20
EE
15
0F
DB
F0
F4
10
E2
04
C5
0D
00
EB
D9
EC
ED
EC
09
08
02
FB
05
03
F4
FF
FC
1B
F2
09
04
18
0F
D8
02
07
12
0B
FF
01
0D
F5
11
01
19
17
FF
FF
18
FE
14
EC
FE
05
03
F2
07
EF
F2
03
D2
DD
04
EC
1E
F7
E6
08
FE
0B
EB
1A
E8
F2
F0
FD
14
FF
0B
F8
0A
09
FA
EE
09
F7
17
D3
0C
1A
F6
FB
FF
02
C0
0D
EF
01
01
F8
EF
EB
04
F8
11
F8
F6
E7
14
F8
F6
F5
EF
FD
09
F0
12
E1
FF
07
0A
F2
0C
03
07
F3
ED
01
20
13
C6
0A
FB
F1
E7
08
FC
0A
F4
02
0B
03
08
DF
05
F9
FF
E5
F5
15
E9
E9
14
EB
F5
08
13
09
EE
EA
0C
F0
F1
20
09
17
FC
FE
F4
EC
F2
EE
EF
03
F9
FE
FB
F8
07
0C
E8
FC
F6
0E
FB
00
07
F7
05
EA
FE
E6
F9
F6
07
0A
F6
F6
EC
DF
06
F0
00
0C
DD
10
DF
ED
05
0B
0D
0B
05
EB
E3
FA
FB
F7
DE
05
EE
FC
FD
EB
1A
FD
08
F8
0B
F8
E0
08
02
F3
17
CF
0D
F5
0C
F1
05
0B
F8
FC
02
FA
07
F7
FE
02
0E
1C
14
E8
FB
FC
0C
E8
14
00
F7
F9
FA
14
0F
09
08
F9
07
E6
0E
F5
C3
0B
FA
E8
FE
04
FD
EB
03
F3
03
EE
D5
00
F5
ED
EB
08
FE
06
08
0B
11
0B
12
0D
05
F2
19
E3
FF
ED
E8
18
0F
0E
02
FF
E6
10
24
04
F6
F7
F1
FB
F5
FE
12
EE
01
EC
01
0B
FF
0F
03
0B
EC
07
F8
00
04
D9
0B
03
E9
04
FA
FD
0A
10
E1
EC
EE
F8
FF
FC
FA
E0
00
F6
F0
E2
0A
F6
FF
05
01
01
E9
F4
DC
FD
0C
12
FA
03
FB
10
05
F2
16
FC
04
0E
10
FD
FB
03
F3
E9
09
08
F0
F0
03
E5
FD
F6
E3
02
F2
FC
FB
06
01
F0
F4
0C
0F
E5
14
21
F9
04
F6
FD
29
1F
25
06
FA
13
09
D5
FB
E9
EF
F4
18
ED
15
FF
07
F8
F3
E5
FE
0A
F3
EB
17
FE
E8
FF
09
0B
0F
08
E4
0F
07
E3
ED
FD
0A
19
F8
F5
06
2D
F0
02
FB
F8
EE
0E
01
0B
FE
F5
F1
06
F0
E6
05
01
04
09
F6
06
0D
D6
FE
1B
05
E8
FB
0A
14
D8
FD
FF
F9
10
F1
07
08
01
FE
01
19
F5
17
0A
E7
F1
0A
F1
0C
14
FB
0A
E1
FC
07
FF
14
D3
E5
19
FB
EC
00
09
05
D4
EC
FF
06
FA
FE
E7
F4
10
FE
13
0E
19
01
08
FB
F0
08
08
10
EA
0A
EF
0F
F5
F3
02
04
FE
17
00
F8
FD
05
0D
FD
D2
FF
02
DA
03
0B
FE
EC
FA
0C
F2
FC
07
F1
0B
E3
F8
06
10
10
F9
FB
EE
FF
04
EE
FA
EF
00
13
09
0A
F7
FC
FF
04
F0
11
15
FB
EC
F2
FB
07
01
FA
02
06
EF
F1
FB
EF
F5
31
05
FF
17
07
0B
18
F9
FC
0F
05
F7
F9
14
EE
FF
19
F8
FC
FC
08
F6
E2
02
09
FB
F6
09
17
06
F1
FF
F3
0A
08
0A
F4
02
02
18
02
F4
12
06
FA
02
11
04
01
1B
29
FE
EB
03
F0
0C
07
ED
07
FB
F3
F7
1C
E9
01
FD
1D
FF
F5
04
EC
0D
04
F6
11
FF
FE
07
16
FB
0C
F0
F3
F3
F3
03
F1
07
06
EC
0A
F3
05
F8
00
14
FB
07
04
11
FA
06
EC
07
03
05
DA
04
DB
DD
E4
FB
07
12
F9
FA
16
04
F7
03
E7
FF
EA
F1
06
F5
FC
F6
DC
00
22
03
10
F7
E4
F4
00
04
17
0F
F5
F5
F6
07
FC
E3
09
08
EB
10
00
07
F3
0D
10
FE
02
08
FE
F8
01
DE
21
F6
09
07
0A
EA
FE
EA
E4
0B
F9
02
19
0A
02
09
F2
F6
07
F6
EE
FE
0B
03
0D
ED
19
08
13
F3
E3
0B
F2
F6
11
FE
02
00
FE
F3
E1
F8
F8
F9
D2
05
F5
15
EF
F6
09
ED
04
EF
03
03
F2
19
11
01
FF
FC
0B
F0
F4
11
05
FD
EA
F5
18
F3
02
F0
E9
F6
FD
EE
0D
EA
07
F5
FD
F1
19
04
F2
FA
05
F9
F0
0C
00
1E
FF
07
FA
EB
0C
12
E6
1B
22
FF
FB
FB
F4
CE
F8
12
05
F8
0F
F2
12
EE
F6
F9
FD
00
07
11
13
00
F2
02
EE
02
07
15
0D
07
FD
01
EE
02
EE
ED
0B
FF
FC
00
07
EB
F0
E8
FE
FE
1D
FA
DE
1C
F5
F3
04
FE
0E
07
09
1D
EC
EE
E1
EF
1A
07
F9
03
F8
0B
F7
F3
FE
F1
EA
ED
F9
FE
22
FA
F3
16
F6
04
EA
0E
0D
00
F9
03
F9
07
26
21
0D
FD
FC
FC
EC
0B
01
17
F5
EA
03
F6
EA
F2
EF
F4
EF
15
13
ED
0B
F5
09
FE
F0
08
DD
08
E7
F1
02
1E
FA
15
0C
0B
F8
08
18
08
05
06
03
08
F4
F2
FB
F6
F4
07
0B
0B
32
FD
E4
FD
0D
F6
F3
EE
15
0C
F8
EA
FB
EA
FB
F7
1F
FE
1D
04
FE
0D
18
E9
1C
F8
F6
FD
F0
1E
0E
F4
FF
F1
05
EB
02
0F
FB
00
EF
FF
F0
0B
03
04
05
1A
01
F6
05
05
03
02
E4
F2
1A
06
12
EE
F5
07
FF
F2
09
EE
E9
F3
12
F9
09
17
FC
09
08
04
09
FF
17
F2
F2
02
0D
03
0C
00
00
11
10
FA
15
0A
FA
E3
FA
FB
F3
F4
02
FB
1C
10
00
DB
FF
0A
01
FD
00
1E
EF
02
21
19
27
E8
EB
DC
11
EF
DA
08
F8
EC
E1
09
F8
F5
19
DB
06
DF
09
03
07
F4
EE
13
10
F5
EF
EE
F0
EE
06
F4
F6
01
FB
02
21
05
F2
F1
F9
0C
12
FD
DF
FF
F4
FD
F4
01
04
F7
15
F8
00
09
10
EE
F7
06
0E
0B
FF
02
11
E9
07
E2
00
F5
F5
06
08
07
01
F8
05
19
F8
0F
FD
10
E1
0D
F9
ED
10
F2
00
01
FB
1A
09
09
1A
03
F9
05
06
E6
1A
14
EC
02
F3
EA
0D
05
02
00
FC
02
FB
F8
F7
F6
08
04
F9
17
02
F1
00
08
17
09
29
FA
14
05
00
19
F9
F8
F8
ED
13
FE
F5
10
03
F0
13
04
2D
1B
19
FE
E3
0D
04
14
08
F8
FC
E6
14
FF
05
08
E2
05
06
18
F5
03
FF
E1
1A
08
06
F5
0E
FE
17
01
15
E2
11
F0
1F
FD
FE
F7
DF
00
13
F2
EF
EC
CE
08
28
05
06
02
03
D6
F0
08
F6
07
F2
F2
F6
03
FA
0B
E3
F9
01
19
23
0A
11
F0
F6
F7
09
07
F1
03
0B
FC
F9
F7
F4
EE
09
05
05
F8
1A
FE
08
E9
FB
10
E9
F6
EC
07
11
15
04
20
1E
19
EB
17
09
FA
FB
FE
F5
F0
02
FA
DE
F9
05
F4
03
08
01
04
F7
F9
F0
D1
FD
05
07
01
ED
01
F7
04
F1
F4
E6
F4
D7
0C
12
08
F4
03
F2
0A
EB
09
FD
03
FD
09
FF
0A
FC
F9
0F
08
05
03
0F
F6
09
F8
0C
0B
E5
0B
EC
09
0A
FA
06
01
0B
F4
03
FD
FA
0E
EA
02
E5
F4
12
F9
FE
F0
FB
F3
09
FB
00
FA
F5
06
09
FD
FA
14
F6
FB
00
1D
F8
F2
08
F2
FE
DC
EC
12
01
0C
F5
FE
F7
F9
06
0E
13
05
FA
F8
F5
F7
13
1C
F9
0F
01
1F
F3
0D
06
12
08
0E
F7
08
00
00
E7
F9
FB
1B
F9
1C
04
F5
FC
FC
02
0C
0C
F9
EC
F6
FA
F5
FF
09
00
FF
05
01
ED
04
0F
00
04
0B
01
E5
EB
02
F2
08
1E
F8
15
FB
ED
FC
15
FA
E8
EB
E5
FE
E1
F2
08
20
09
11
F6
FF
EA
00
22
F5
20
06
F8
01
02
0D
FF
07
F3
FE
ED
F5
01
E4
00
D8
EE
F3
0A
F6
ED
0E
0E
D5
F5
02
FE
E1
02
EE
ED
F0
FB
08
19
12
00
14
06
01
12
07
1D
FC
E3
F2
0E
F8
F5
EA
0F
17
F5
0B
FB
EC
F2
FD
14
0A
F8
FC
D1
0A
14
02
F1
07
EF
D4
F1
0B
06
14
FF
03
0D
1F
05
F6
F9
F4
0A
0A
FC
FC
FB
0D
05
0C
FA
F1
F6
FA
14
E3
05
F6
09
00
E2
FC
18
F4
FF
F1
E6
EB
0A
EE
01
17
F8
F7
EF
01
FA
FD
FD
E9
EF
F8
FC
08
0C
F9
FE
FE
20
EE
F4
FF
04
EE
05
06
E3
E7
FA
FE
15
FF
18
16
05
03
EF
0F
FF
20
03
F2
0A
0E
10
FA
EE
DC
EC
F0
EB
12
F6
D6
00
17
FF
05
F9
09
DB
FA
0B
0B
04
E7
EF
01
F6
E7
08
0F
FE
F8
17
D8
1A
00
F9
08
04
EF
F6
F6
F5
13
31
F9
DB
DC
06
F6
12
03
E3
06
09
FE
F6
06
0B
F5
08
F2
FD
FA
0C
02
02
E2
F3
FB
16
10
04
FF
EF
05
FC
EE
F2
25
26
FC
DB
0A
03
0D
D6
F4
EF
F7
FF
F0
10
ED
FC
E8
08
FD
07
04
02
0B
0A
08
EB
D7
0C
05
0D
23
EC
FE
09
FD
E9
05
F3
20
FB
13
0F
07
0D
F7
F6
05
12
ED
F1
07
1E
E7
EE
EB
F8
F1
04
EB
EE
1D
18
FD
E7
0F
04
04
17
DF
FF
F2
F9
EA
FD
F6
01
F2
16
F9
1E
E5
06
05
D7
01
13
10
BA
EF
F8
F9
F8
17
F1
EB
F4
F5
FB
F9
02
0F
0B
ED
0D
E2
F1
E7
0A
1B
F6
EB
01
00
F0
F0
15
01
12
06
FD
F8
E6
E2
F5
0B
EB
E8
E8
FE
0C
EF
01
05
00
F6
E1
EB
06
ED
FB
F5
03
FF
00
10
FD
FC
FB
0C
12
F4
11
06
FD
F2
06
FB
F3
18
03
0B
ED
07
06
0E
F9
00
EF
06
12
F2
FB
11
F7
F4
04
15
0F
FC
F1
F0
08
0D
E7
EA
EC
FD
0B
FD
F4
0A
17
EB
FD
DF
FE
F4
0B
0B
F3
F4
F8
07
03
EB
0A
0F
08
02
F2
F4
FC
F7
FB
E7
F7
06
07
FD
03
F2
1A
F4
0E
EC
F7
0E
F0
E6
0E
0C
16
ED
FA
F4
06
07
14
EB
EC
F3
1F
0F
D6
18
08
04
E1
F4
00
FF
FC
FF
0B
15
F6
F4
FA
FC
FA
01
F3
1C
F1
EF
2C
F4
04
0B
07
EC
FD
E4
F5
FC
0B
21
13
1C
F0
0D
05
EB
F5
01
FF
FB
EC
E9
FD
16
1B
F1
EF
01
F0
0C
0C
02
E1
0E
0A
07
04
F1
DF
FD
F5
08
09
08
09
DB
06
01
08
F5
E7
11
05
E7
00
05
FB
F5
E6
FF
EA
04
FC
F7
DE
06
06
05
1A
06
07
05
FA
0A
0B
F5
E9
F9
07
F4
1D
17
02
03
05
F6
0C
F9
07
0E
07
F3
FE
12
E8
E6
F0
FD
12
E6
FE
F5
0C
F8
ED
0A
0B
F6
10
0A
F0
FC
07
0C
04
F5
F3
F5
FD
11
FB
FE
F0
FD
13
11
00
00
F4
00
F9
EC
01
FF
F8
F2
09
EB
03
0C
F9
DC
DE
F1
06
02
08
EB
10
FA
08
04
08
0A
F6
0D
F8
07
F4
F8
ED
FF
FE
F8
20
0A
E1
1F
E0
01
0E
F0
02
10
0B
0D
F8
02
12
F6
EB
EC
07
0F
07
FB
FE
03
1C
05
01
09
00
D6
0D
FF
FF
EB
01
04
02
EE
E9
F9
02
FD
FF
13
EF
01
E9
FD
EF
FC
14
12
0B
FF
08
0C
0B
0B
FE
FE
E9
FE
F8
FE
10
F0
F1
0E
F3
E6
F1
05
FD
FA
FC
03
F0
FD
18
F0
FE
17
EA
F1
F8
0D
FA
00
0D
E8
20
1F
F7
25
00
08
FC
FC
24
FA
13
0E
FA
0C
14
0D
00
F8
01
1E
FA
03
FB
05
FC
FB
1F
F1
FC
F9
F5
FA
08
FD
F7
00
15
FE
FE
FF
10
EE
02
03
F1
0E
16
F2
F3
04
F7
EA
02
F6
FA
E2
DF
0D
E4
FE
1B
09
F9
07
FB
07
FC
F5
FB
0D
05
FB
F3
19
F2
E7
07
FC
FE
17
17
03
14
F5
FD
F0
FC
02
FB
F1
F5
FC
F7
F6
E2
FC
0B
0A
17
03
EF
12
F3
FF
F6
15
FF
F9
01
1A
07
04
F3
07
F9
FD
F7
14
01
17
06
06
FA
F2
11
0B
01
00
F7
00
07
F5
F8
F6
01
FE
FF
FE
FC
08
07
10
05
1C
0B
12
0B
04
04
F2
F4
FE
03
10
FF
01
0A
03
F9
04
F1
F7
EE
02
08
FD
02
04
04
EF
0E
F9
FE
06
F6
02
12
10
03
10
09
F7
F2
ED
FC
F9
06
E8
FA
06
F1
F6
1C
0D
F8
FA
FA
04
ED
F9
14
07
F0
13
0C
04
06
04
F8
01
F3
EF
09
13
08
03
09
06
F4
07
FF
F7
0E
FE
FE
F1
EE
0E
EF
FB
F6
03
0D
F2
FC
09
06
1E
F1
F6
00
01
1D
ED
09
EE
E3
CA
CD
14
08
F3
E7
FF
0E
08
F8
F5
E6
ED
E9
F9
05
00
DA
FD
F7
ED
0D
FA
03
EE
FA
F2
04
04
FE
F5
F6
EC
0E
FD
00
01
0F
EB
EF
F2
00
05
0D
12
C7
E9
12
F4
EF
D3
23
DD
06
0A
FD
08
F8
26
EC
00
1C
F4
E2
F6
EA
08
0C
E1
01
05
F1
0D
E1
0A
01
0E
EB
EB
F5
F5
F8
FB
F2
F4
02
ED
14
F5
F5
F0
EE
0C
F9
EC
0A
FE
DF
12
03
F9
FE
06
02
E9
0A
06
0D
3A
E6
FF
0B
0B
ED
F9
02
18
F6
07
07
FD
0E
F0
F2
1A
24
12
FA
E1
DE
01
FE
EA
11
03
FB
E0
17
03
1A
0E
EB
F4
E9
EF
03
EC
00
FA
06
1E
0A
06
FD
C2
F2
07
F7
10
FF
ED
0C
0B
E6
F4
04
F6
E7
FC
05
02
01
20
F8
ED
0A
F9
13
F7
ED
18
05
0D
FE
F4
0F
EC
10
F9
F9
05
EB
0C
01
05
E8
FC
FC
07
02
F1
05
F5
18
08
E9
00
FE
0E
0B
FD
06
07
F0
F6
E0
0B
05
0C
FA
FB
E8
EF
FD
10
06
EE
02
D8
10
E6
02
F6
E8
F4
01
08
20
F6
0F
0A
08
F8
F5
00
EB
F0
EC
15
0E
FB
FD
FD
08
EE
F3
11
08
F3
0D
F1
F5
F0
03
FC
02
1F
05
07
06
E5
0F
F7
08
23
F7
06
E7
06
03
12
EF
01
F5
F2
D3
FD
E7
F3
FF
FB
EA
13
DF
F8
FC
02
09
F4
06
FE
F2
19
03
EB
18
C2
0A
03
F1
F4
02
F5
F4
F0
E7
10
F6
FA
F7
03
03
FA
0E
F0
EA
FE
04
21
04
FD
0C
0B
03
F6
FC
18
F0
ED
FB
0D
DB
1E
0A
E8
09
FD
09
0A
01
F6
F9
F4
DE
12
F0
03
09
FC
15
03
0E
1A
F3
0E
FC
E6
F6
FE
00
03
17
F3
F3
E5
F5
11
1B
FE
14
F3
14
F2
08
FD
EC
FE
0A
FB
07
03
0A
03
F6
10
FC
FD
03
F9
E9
F8
F8
EE
F1
1A
E0
F8
FE
FE
F7
05
FE
0C
13
FA
E9
E4
0E
F9
0A
D1
ED
0C
F7
EB
0A
EE
14
F9
FF
0B
F6
F6
E0
F5
F7
13
F9
E6
07
F6
FE
07
F6
FF
09
FF
EF
F0
F2
F7
F2
F3
0C
F8
13
F7
FC
18
F1
01
01
13
F3
EC
EC
F4
F7
F8
ED
20
05
F3
0C
28
FA
10
F0
E7
FA
FC
10
08
0E
E4
F8
EB
16
E6
F0
08
DF
FF
FD
08
14
FC
E1
01
0C
E7
FF
03
04
DA
E6
D1
E0
05
ED
F8
EB
05
FC
00
CE
0A
14
15
F2
EE
F4
F3
08
F1
F3
EF
00
06
0D
D7
02
06
0E
06
E0
10
0D
01
F8
E7
13
12
F2
F3
F8
EA
0B
F3
EF
FB
FA
FB
0B
F3
F7
E1
07
F4
EF
FF
FC
10
E4
00
FA
1C
EF
E4
1C
FF
EC
E0
05
15
FA
F7
0B
EF
05
07
E9
FF
F9
FF
01
FB
0D
DA
F6
F8
F8
0B
F4
FA
F0
11
29
05
F6
12
1B
E3
0D
06
EE
0F
F3
16
01
F7
FB
0C
FB
FD
F2
FA
13
F1
10
17
FA
0A
0D
26
19
11
05
F7
09
07
02
ED
EE
F6
18
FA
E7
12
F9
EB
0A
21
05
E4
0D
17
10
F1
0D
1D
10
04
1E
F8
03
F4
E2
15
10
07
FC
E9
09
FA
FB
0C
10
12
FC
FC
F8
F5
1D
19
FC
1C
E4
F4
0E
F3
EA
F3
FB
06
06
13
05
01
F6
0B
FD
FF
F1
19
F3
F7
1F
FA
F0
F6
12
0D
FE
E8
06
F3
F2
F6
04
F2
09
1C
01
FD
EE
F5
EE
F6
EE
0F
EA
F5
FB
01
F0
EE
F1
1C
02
F6
19
0B
E6
FA
10
10
FE
EA
FA
06
05
F4
F8
04
05
F4
19
FC
0B
01
04
00
06
0E
11
04
08
F1
12
F8
F2
06
0A
04
1E
F3
FD
F5
07
F1
F0
EE
FE
F2
06
04
11
23
11
FC
F2
06
F1
F9
F7
FA
02
04
14
FD
FC
E2
FA
0F
0B
0E
05
FB
0B
EE
F8
FD
F0
F3
FE
FB
0B
E1
1B
F8
FF
E7
0A
EF
01
11
EA
F9
08
F5
F8
E1
12
10
F2
F5
F0
04
05
EA
01
FF
E6
05
D4
0A
00
FF
EB
EC
03
13
F4
F4
F8
04
03
E2
F7
F3
01
05
F4
F8
08
F5
F6
F1
0D
06
F5
FF
F6
21
03
07
F6
00
17
FB
24
0D
FE
0C
27
F6
07
0C
0F
FB
00
13
0E
F1
16
FF
0E
E8
0F
07
EF
13
06
04
08
F4
F1
10
04
00
EE
00
F1
FF
02
1A
EE
01
F7
03
F4
FB
16
0F
0D
09
04
EE
FC
EB
04
0D
03
09
FF
0A
09
F8
E5
0A
06
FF
F5
07
07
F6
04
05
F8
0D
0B
E9
07
17
06
FB
D6
C5
02
EC
F9
03
08
0B
F0
D4
EB
FC
02
EC
F0
FB
E5
FD
FB
00
02
0A
E9
FA
10
F5
E2
00
15
05
F3
FD
05
1E
23
F8
FD
17
F0
FE
00
F1
0F
F7
F4
01
FB
FC
0C
01
FA
DA
20
11
03
25
15
0D
FF
F7
0A
FF
E1
F3
02
04
03
EC
F4
F9
FE
12
0E
F7
02
F0
E7
F6
F9
02
15
08
06
05
F3
0C
EA
08
13
10
EF
FC
02
FE
DD
F0
02
F2
FC
00
F8
26
0C
FF
FF
00
F7
FE
06
06
F0
08
F1
07
FE
02
DC
08
F2
FD
03
E0
F1
02
09
F9
F2
16
1A
FE
19
F4
E3
EC
15
05
FC
CE
F6
05
0C
08
FD
F6
E5
EC
0A
06
E8
FA
FE
0E
14
F5
27
F3
03
EC
E8
C7
FF
EF
F8
E7
03
F8
F6
15
F2
01
19
0E
FF
ED
F6
0A
08
0F
FC
F5
06
F8
E0
F8
0C
03
F1
08
F9
FE
E9
02
06
D8
F1
F2
0E
08
05
F3
FE
F6
F8
0D
03
03
F9
E5
0C
FB
0A
FF
EC
EE
ED
ED
07
F8
1C
E4
EF
11
FD
FF
FD
0B
F6
FF
0A
FA
EC
12
FB
ED
03
00
F4
FA
F8
FB
FB
0C
0C
FB
F4
E4
FF
19
14
14
19
16
1A
DD
F3
F0
FC
FB
09
04
03
E6
EA
F2
F7
06
04
14
E8
E7
12
00
0A
FB
1D
F5
05
F1
F9
EC
02
FE
F8
EB
FC
06
F5
03
E6
0F
12
08
03
0C
F3
05
0F
19
FF
F5
01
FF
ED
FD
09
12
F2
06
05
ED
FE
04
0B
0E
02
0E
FC
F1
E9
F4
05
03
FD
F4
05
0A
E5
05
05
02
EE
EC
FE
05
EB
F2
EA
09
ED
F1
0A
08
0F
08
01
F9
F0
F5
F3
FD
15
F9
ED
0F
07
00
E3
05
FC
0F
0E
09
02
05
08
1D
09
0C
F8
0E
E9
E2
02
F9
1B
FD
E4
EC
0C
FA
FF
13
F5
11
F1
00
F7
F3
EE
F2
0F
EF
12
EB
F8
0B
FB
EB
0A
E7
09
00
DC
0D
08
FC
FE
F6
0D
EF
E6
1E
04
00
FE
08
02
F6
12
00
F3
F8
FF
00
16
06
17
06
1B
DC
FA
12
F9
EF
00
05
00
F3
FB
0B
02
0B
F5
06
01
E5
FE
F1
F0
F0
07
F8
EB
F0
07
F6
1B
02
02
F5
FA
FC
F9
F6
F2
12
00
FE
11
0A
0E
02
F4
0C
06
F7
D1
0D
F1
FA
FF
02
00
F2
08
FF
0A
1F
F1
0C
FB
F8
06
E7
FD
0F
FC
E7
04
FC
EC
0B
F7
F3
E2
0D
FD
09
0F
02
FA
0A
01
FB
0D
FA
10
CF
C8
CD
0C
EF
01
EC
FC
11
F0
FC
FD
06
EE
ED
0C
E9
02
02
F8
0B
ED
06
01
F1
12
09
FB
E1
E4
F0
06
0F
06
FE
0D
09
15
03
EC
0D
E9
FB
F4
03
F5
FD
FF
00
0F
02
07
FA
00
03
10
0D
0A
E7
EB
0D
06
F6
FF
0B
0C
FE
04
F1
F4
15
F4
0B
FE
14
0C
0E
15
02
0C
F9
F8
FD
FB
15
FB
F4
F5
0F
09
FD
EE
F6
01
16
12
FF
FE
FE
EE
09
F2
F7
EE
F7
FA
FB
1F
0A
20
0F
FF
E8
0E
F5
05
03
07
0B
01
01
10
1B
0C
F3
04
F4
05
0B
FC
FC
01
00
0A
EB
F7
1E
01
F6
09
04
0A
FD
27
17
F7
DB
FD
00
0B
08
EB
10
F8
05
16
03
FE
ED
FE
07
04
F6
F2
06
F0
F1
00
03
01
E2
F3
07
F7
E6
F6
EF
0A
0D
EE
05
1B
F5
F9
F3
E7
F7
F8
12
00
17
16
E6
02
EE
09
15
FB
FA
F8
14
F3
E6
00
07
0B
11
F6
EB
F2
10
04
FD
FB
16
F1
04
F1
C8
07
FC
F1
0C
01
11
02
02
07
0B
F1
0F
0C
FE
00
0D
F0
12
0D
F7
01
1A
09
FC
08
FD
EB
09
EA
FE
01
FD
F5
11
29
06
01
F7
F6
04
14
FC
F6
05
FB
FF
F2
F2
06
F4
13
02
EE
06
0A
F7
08
09
FF
EE
F8
EB
FD
FB
02
F6
0A
F7
09
05
EF
FD
FA
F2
0C
EF
08
F0
00
ED
F3
F8
FD
FA
F0
FE
11
01
FA
FD
02
07
FA
06
FC
E3
06
09
E8
0A
0B
04
EB
EC
03
02
F4
02
F4
04
F4
F3
FA
F1
15
F9
FF
FB
02
F5
1F
09
11
FD
F5
03
0B
07
06
0B
F2
1C
F2
F6
F6
F6
13
FB
F3
EE
F8
11
14
0B
0C
FF
F3
03
16
03
F3
15
01
F7
09
F6
FA
F8
F9
08
13
08
FB
03
05
F4
FB
1D
02
0C
E5
F5
01
EC
0F
00
13
D9
FD
02
EA
F7
15
0B
07
1A
FB
01
02
FF
FB
FD
FB
17
08
1F
15
06
08
0C
05
FE
EE
12
03
07
04
08
10
09
F1
E7
0F
09
02
03
09
F9
EC
E9
E4
F5
F6
F9
08
EF
FE
1B
F6
EC
0F
11
0A
E8
F2
02
F3
AF
F0
12
09
FD
0A
08
1F
EA
F9
0D
EB
FF
EF
F5
19
EF
CD
EB
0C
D6
00
02
20
D9
02
D4
F9
F2
11
0E
FE
F8
04
0A
E0
F1
03
18
04
04
F4
05
FE
F8
E8
07
07
FD
EC
08
0F
F1
0D
F6
14
04
E2
FB
1E
E9
E9
08
F7
06
D9
F4
F0
1E
0F
F5
0D
03
13
FA
FF
1C
FB
F2
F2
06
EF
0B
0C
F6
00
08
FE
F4
FE
F5
08
FB
FF
F2
17
1C
03
F7
03
FD
07
FF
15
18
F9
FB
0D
2A
FC
E9
0D
12
FE
0A
F0
03
F9
11
E8
FA
EF
18
F5
F2
18
08
EE
EB
07
F1
EB
1D
06
02
F3
08
FD
0B
02
E3
0F
F9
DA
0D
FE
02
21
F0
03
17
05
F8
05
EE
FE
F1
E0
EB
0F
EE
F2
E2
05
FB
09
0C
0B
10
0B
04
05
18
F8
0E
ED
F8
E6
F6
FA
F3
0D
FD
ED
F0
13
FC
07
05
F1
FC
FE
EB
F5
05
F0
05
F8
16
EA
F4
08
03
1C
FA
07
F8
04
18
E0
0C
FF
0B
04
10
F0
16
0B
12
00
F9
11
07
E3
F0
EF
0A
0C
F3
13
08
FA
08
FD
F9
0B
E3
0C
FA
0A
E8
07
E5
D8
F4
FC
E9
0A
FB
07
16
19
01
0C
F6
05
09
EC
F6
F0
0C
1D
0E
2A
03
EE
FA
E6
F2
ED
02
F0
FE
05
F8
0A
FC
F3
F4
08
01
0A
26
EC
FE
04
F7
17
11
00
13
FC
0A
F0
FA
EF
01
F7
E7
0D
02
08
FB
F3
F2
14
EC
01
14
E8
F5
ED
09
12
F8
F6
15
F4
07
0B
F3
0F
F3
0E
09
13
F5
F6
10
0B
EB
01
13
FD
07
1B
F6
F6
EA
0C
E0
F5
0C
F8
03
FF
EC
00
DF
07
0D
FC
FD
F6
0F
14
FE
16
FD
05
0B
F1
01
E5
FA
0B
E7
1E
03
1F
03
0A
DD
0A
11
F5
0E
FB
00
E5
04
1E
F2
0C
16
1E
F8
EF
F3
F3
EC
08
FA
F6
20
FF
1B
15
EE
E1
13
FD
16
02
0E
E7
02
EA
F2
FD
0B
F5
02
03
04
F7
0A
04
FF
0C
F5
FC
FB
02
FF
E7
F1
19
0B
1C
F2
00
EF
F9
F1
F3
11
19
F8
05
07
07
ED
E4
FE
14
F3
F8
04
03
F0
F7
EA
00
03
F5
F9
EE
1F
00
12
F3
FE
E3
F1
FE
02
02
0C
EF
FA
F8
11
F4
09
FE
13
13
EC
0B
FE
0D
F6
16
F4
19
12
F4
FB
EF
F1
0B
F9
16
0E
01
ED
12
1B
04
DA
01
08
E9
EC
F9
F3
07
F6
02
02
02
06
EC
EA
DE
0A
E9
02
E9
F2
0C
FE
F7
F9
F3
D2
00
02
01
CB
E4
EA
11
08
D6
F0
12
05
0D
01
F2
EA
05
F7
F4
F8
0E
0A
0A
0B
F6
0D
ED
08
F5
00
F1
E1
1A
0A
F8
14
D9
01
01
12
09
FF
FC
F8
D0
DB
0A
15
01
FA
08
FF
F1
1C
EA
E4
F6
FA
10
EF
19
01
0A
FB
F2
0F
E1
EA
0E
11
08
FD
F2
1F
15
FD
F3
F9
FC
1F
08
E7
02
0B
FA
0E
FC
0B
FC
E4
06
EB
20
F9
EF
01
00
18
06
03
08
FC
16
FD
19
F1
02
05
13
EB
0E
18
0A
05
0C
01
EE
EA
05
E7
1C
20
F5
F7
DD
12
2C
01
FB
0C
1E
FA
FB
02
18
02
FD
ED
14
F3
01
F3
F2
08
04
FA
F7
1B
EB
F1
F8
D9
FD
FD
10
E0
01
F5
FC
1B
0D
E3
04
02
D2
FC
F7
0B
F4
E9
1B
F7
01
0E
01
F3
0C
1A
07
EA
02
D5
09
0B
F5
10
F2
01
F1
F1
02
EB
FF
FA
08
F9
E2
EC
03
ED
13
15
FD
ED
FD
E4
0E
0D
E4
FB
09
F2
0B
16
EC
F4
08
08
0C
13
F2
EF
07
F5
FB
E8
0C
12
FE
E1
F6
FE
F7
0E
F1
00
F7
F6
ED
EF
F5
04
D3
FC
06
FE
03
04
EE
06
F0
FD
1A
11
E8
E1
DE
EF
01
05
FF
DD
F5
F6
05
E9
FD
FD
05
02
FC
D2
F7
F3
E8
F9
D1
01
E6
12
FD
FC
E3
05
EC
E5
F9
15
DF
FA
0B
0A
FC
05
17
05
FD
F6
FB
0A
11
01
00
10
FD
0C
25
F9
DF
16
04
03
0C
18
1E
00
03
F6
09
FB
ED
16
E4
05
FD
F5
0F
12
07
ED
FF
FA
22
17
FC
02
EB
2A
F4
04
03
F2
1B
FB
10
E9
0C
02
08
F7
FC
0E
08
14
FA
02
F4
FD
FA
FB
F4
03
01
EE
EF
F0
1D
05
E7
09
0D
FE
FA
03
04
F8
F2
EF
0D
09
F0
F0
E1
0D
09
0E
00
11
F8
0B
F1
02
01
F7
11
FD
F8
F1
FC
06
FF
FC
F9
02
06
09
ED
11
0A
FC
00
ED
03
03
F7
E8
FC
E9
F3
03
FD
D7
19
07
F5
09
FE
FC
00
EB
EF
FA
F8
0F
07
DF
E2
F2
F7
03
16
10
07
E5
0F
F2
0B
F6
EC
04
EC
F4
0E
EB
09
F4
01
00
FA
F9
FB
05
19
09
00
EC
EA
E7
FC
05
F5
12
E8
1A
0A
0E
F2
FA
FB
0F
0A
F4
01
11
04
0D
12
06
02
E5
0B
1D
FE
01
04
09
08
0A
EC
0D
2A
1A
F4
F4
FD
0C
06
0D
01
16
00
11
ED
EC
EE
0A
1E
F5
E4
08
14
3C
1A
F2
00
05
FF
0A
EE
17
FB
06
F6
0D
F4
03
DE
F5
06
0C
12
DD
FD
F7
0B
15
00
DA
F9
07
05
FD
F8
DB
32
03
09
00
05
FF
03
06
F3
F8
FD
12
FB
07
03
15
F7
EF
2F
09
1A
F6
0C
03
F5
00
EA
0D
24
F5
1A
10
03
FC
0E
E0
EE
03
02
F0
F7
FA
05
18
FE
06
E8
F1
04
F8
11
12
E3
F7
10
0B
E0
FB
07
EF
12
F2
F6
F2
09
FE
FD
0B
0A
FE
FC
F4
F8
ED
0A
09
0E
16
1A
0E
F2
04
F2
0E
FD
EE
F7
FE
0A
F6
FC
09
00
F5
FD
16
F5
14
FA
EF
EB
FF
E3
FC
0A
10
10
0D
F1
04
EE
F8
F8
E7
0D
18
0C
F3
FF
1B
0A
05
F9
FC
FE
F3
F9
DF
FE
FD
04
01
16
E4
04
05
13
13
03
F7
F9
F3
FD
E2
FA
0C
FE
F8
F6
F7
F2
17
EA
E7
ED
08
0F
EA
00
01
09
01
E2
01
F5
07
ED
EE
08
15
1B
F0
F4
FC
09
FF
13
02
FC
DE
12
1B
09
EF
DF
E3
03
FC
0E
01
FE
FA
EB
14
FD
0F
E8
09
F5
F0
C9
FA
FB
F8
F4
E1
09
20
21
00
0C
0A
F7
EC
FC
0A
F6
0E
F2
ED
FC
18
F5
E9
00
FF
08
12
FD
EE
FA
1C
0B
F9
F6
02
EA
FC
0A
07
11
1A
0F
F7
05
0D
F4
17
0C
24
1D
13
0A
E8
0E
1E
0D
04
19
FE
29
F2
EC
E9
F9
E8
F2
FD
F7
EC
34
0D
FA
F4
EC
24
0A
E4
F2
DF
01
DC
1F
14
0E
1B
F4
DB
10
30
1A
01
FA
09
22
EA
DE
21
1C
E5
EE
15
20
0C
EC
19
04
2F
F0
F5
FE
EA
05
07
07
02
E6
07
F9
F4
EB
1C
1B
EF
FE
EE
19
F8
FD
F7
0F
09
EC
0C
00
FA
00
0C
F8
EF
19
01
AD
00
FC
13
E6
14
FD
FC
05
02
16
F8
E9
E5
EB
DD
FB
B5
18
09
F2
D4
0D
15
F9
F4
F1
13
F8
24
E1
EB
23
14
EA
0B
F0
06
F3
0A
F8
F6
DB
F0
EA
FF
15
13
05
24
0D
F3
F8
FB
EF
C2
15
DF
F4
18
19
12
06
12
EB
F3
FD
F6
10
FC
EE
FA
F9
04
F3
1D
F9
10
03
07
FF
F0
FF
17
09
0C
0F
FB
FB
0D
FE
FC
2C
12
F9
FB
03
03
FA
03
0B
04
F2
F9
FD
18
EF
FD
F6
09
FE
00
06
06
08
06
F8
FC
03
EC
CA
01
F0
FA
F7
06
03
F3
01
03
0A
01
D8
F4
EC
FA
08
00
1E
04
DE
03
FC
F1
DE
14
F9
08
09
00
F8
EE
12
0C
02
EF
FF
FC
03
FB
09
D6
EF
DC
01
F1
FE
0F
F7
F8
0E
0C
F8
0B
E5
E0
14
02
01
01
FC
1F
05
E9
1A
F9
F2
00
F4
DE
DB
F4
EF
04
DB
0B
12
E3
0F
F9
EC
F8
07
02
05
FB
FC
F3
EE
EC
0B
E4
00
0D
F3
00
11
06
0B
F9
E1
F7
0E
FA
F7
FE
06
03
ED
07
FD
F9
12
F3
ED
FB
FF
0B
FD
D7
05
04
F4
F8
07
09
11
00
FB
03
F2
0B
01
FE
08
0A
04
06
15
E0
05
15
F5
04
0B
E8
E7
E0
21
07
FC
00
ED
F0
11
09
0E
FF
F2
07
FF
14
06
03
0D
FD
05
EB
DA
11
E9
F6
10
14
10
05
03
F9
F4
0E
07
1F
0D
D7
0E
22
FC
D6
FB
F2
08
0A
F9
0B
07
F0
18
F0
01
EA
08
F5
07
F0
03
0A
00
08
F7
0E
04
EA
FC
03
05
01
0E
07
F8
EB
EA
FC
FF
FC
F2
F2
FC
04
EA
ED
FA
16
F7
07
F7
FD
04
03
FB
D5
FB
13
F1
F3
13
0C
11
F3
EF
0E
F6
EA
F8
0A
0B
FC
10
0B
01
F6
EF
04
F9
ED
01
FC
D9
FA
02
07
FB
F5
F7
E0
20
FB
0C
EE
DC
F4
EA
E4
FE
F9
10
F7
EA
F8
04
F9
F0
F4
0B
11
07
15
EC
14
F3
FB
F0
16
E8
0B
F3
09
FD
13
F4
F5
FD
01
FB
FA
2B
F9
F1
0E
FC
EF
E7
F1
0E
22
1A
1F
EF
EC
FA
F9
17
01
F6
FA
0E
FF
10
F9
08
11
0D
F2
ED
19
07
DA
E3
EF
0A
F3
F7
0A
E4
FC
F4
17
EC
0B
FB
05
C5
E7
F2
F4
09
ED
02
24
01
0B
0D
06
02
FE
05
FC
09
DC
EB
F4
EF
F7
10
0E
17
06
03
04
F0
FE
FE
FB
EF
0F
E5
EF
08
F9
F1
F9
1E
E2
07
E5
02
08
1A
16
EB
F2
FD
0D
EA
F0
FE
17
0F
EC
F1
FF
E0
01
08
17
0C
FF
02
06
06
0B
01
01
0A
0F
F0
18
F3
0C
02
01
E7
0D
0A
F9
04
E6
09
03
F2
EE
EC
02
F5
15
FD
F2
FC
EB
F4
EE
01
FE
0B
02
12
E2
09
01
FF
F0
F6
01
11
F2
FA
EE
FB
F4
07
09
11
F0
FF
F6
06
0E
FC
F1
F9
FC
07
05
FF
E5
FE
01
F2
F3
00
FA
11
FE
06
E8
E9
11
0D
EC
12
EA
01
FA
11
03
FD
F3
F8
07
07
FD
ED
FA
18
09
0E
F6
EE
FF
ED
0A
F5
FD
E6
FA
0A
0C
05
01
03
0B
16
04
FB
0C
FD
23
F8
F9
EF
0E
12
FC
DB
E4
00
ED
09
E7
02
F7
FB
0A
0B
1F
07
EB
E8
FB
FD
0C
08
14
DD
0E
05
0B
F6
F8
09
F9
19
E8
03
03
E8
26
E2
FA
FD
0C
F8
10
00
EB
1B
DF
F7
00
03
0D
F1
F1
FE
FA
EF
ED
08
29
01
10
1A
0D
0E
C7
D4
08
01
ED
07
DF
EB
FA
E9
E3
11
F8
1A
02
FE
11
F7
FD
F4
07
D9
0B
1F
EF
0E
FE
11
04
F6
FA
F6
F7
15
1C
07
DF
FD
E7
05
E0
F3
FB
E8
10
ED
1D
FF
F6
0C
1D
13
27
F8
FD
E2
1C
F4
F8
F8
10
EF
DD
0F
F9
EF
06
04
FA
18
09
F4
E3
F3
FD
07
08
13
FB
E9
11
F6
FA
EF
00
F3
E7
0F
FD
23
E0
F3
F9
E5
F2
EC
24
FD
FF
FE
04
F3
FD
06
E6
FF
12
FD
11
F1
FA
DD
EC
0F
0F
FC
08
0A
12
10
D7
E6
04
04
DB
0D
F3
D6
FB
E4
DD
1B
07
FE
09
04
E5
0E
09
EE
FD
E3
24
EF
01
12
F1
13
F3
03
01
DF
01
07
F2
EE
05
FE
05
F9
05
1E
EF
F6
09
05
09
E5
08
0A
00
FD
01
FC
08
16
0C
E6
0C
0A
FB
FF
05
FE
F3
05
02
09
F1
04
EC
F8
FB
FF
0B
EF
F0
07
00
0E
0C
FD
00
12
03
1F
FB
FA
02
09
02
FF
20
FE
FE
FE
F8
03
E3
F1
02
EA
22
F4
F0
F0
12
E8
F4
02
19
F4
F9
F0
E0
FC
04
13
FB
07
13
20
04
10
09
E8
09
F7
0A
0C
18
FC
08
07
F8
FC
1B
11
F1
0A
02
0C
F6
EB
00
FF
FE
EB
0A
E5
F9
01
EE
01
00
13
1F
F1
04
FA
02
05
06
0C
E0
00
F3
E8
FE
05
FB
10
F7
00
01
13
F2
EB
F6
F4
F4
F0
08
0B
E5
F7
FD
F5
F1
E2
06
0D
F2
EA
08
0A
00
0B
18
FC
09
F4
07
0C
FA
0D
05
F4
FE
07
F9
F2
F9
F7
07
E8
F5
05
0B
09
E9
F4
18
01
00
0B
06
FA
F7
F8
0B
F2
09
0E
DF
02
F4
04
30
F8
FF
0E
24
0A
07
14
14
F9
F9
F4
00
00
01
F2
F1
1B
0A
12
FF
07
FB
FA
04
05
F7
F3
EE
E3
FF
F9
ED
0B
FC
EC
E0
F1
0E
F3
EE
F1
08
F8
F1
14
F2
F8
EA
01
F9
EB
F8
FC
F2
FA
08
0D
F4
F6
F3
F4
F9
06
15
05
FB
0E
17
12
0B
C9
F7
15
1F
FF
01
04
0E
02
16
FE
09
00
08
03
ED
05
17
DD
EC
F7
FE
1C
F6
F8
F3
E3
ED
F8
F3
EC
DA
01
F4
F8
23
02
18
27
E9
F5
F5
07
22
01
D9
FA
0B
F8
15
FF
15
02
FE
03
FF
19
10
1E
08
21
F1
0E
FF
EE
EA
0F
F2
03
E9
12
F1
03
E7
16
09
DD
F7
ED
EE
0E
EF
F9
09
09
27
EB
F5
11
F6
02
0C
FE
15
0D
00
FF
17
05
09
04
EA
02
F7
0B
17
FC
ED
F8
F1
FD
06
F7
15
04
EE
07
FB
0D
09
04
05
0D
0D
E4
08
F0
0E
F4
16
1D
1E
01
0D
10
08
18
F6
F5
03
FE
06
03
FF
F7
07
F3
F7
F6
09
09
D6
FA
17
F0
DA
08
F7
0F
F2
0B
F9
EB
FB
10
F8
F9
01
0B
26
E9
E9
F5
12
04
0B
01
FA
EF
0B
F2
E3
F0
00
03
D8
16
10
14
0D
0F
FC
16
F9
09
0E
FF
01
FA
05
F1
FD
FF
FE
0F
DC
EA
07
F9
F1
03
FA
12
05
0D
0D
ED
E3
F0
EB
01
DC
07
34
ED
F8
D0
D0
E7
FD
E5
E4
03
F3
ED
03
E0
E6
1E
11
CC
06
E9
FB
E6
01
F8
3D
1F
FE
F5
DA
00
04
17
F9
16
F1
F1
FA
0D
13
E6
DB
00
EF
D9
F2
FB
15
F8
E0
17
03
07
17
23
08
14
E8
F9
ED
EB
03
FA
0D
F9
10
00
F6
17
22
09
1B
19
1D
03
03
21
12
FC
FF
1E
00
11
0C
17
EF
15
04
EC
F7
2C
02
F3
FD
C9
0B
D4
05
EE
03
21
00
F8
FA
E6
F7
FC
05
08
F5
19
28
F6
09
00
E4
E8
0F
11
FC
0F
1E
FE
EA
18
06
FB
F7
F5
09
05
FF
20
E2
F2
E8
EA
02
0D
E6
FC
ED
F2
F6
0A
F2
17
EF
EC
FE
FA
F8
20
04
00
F8
E6
FC
0A
F7
FB
F7
00
F2
0F
02
F2
E8
0E
FA
F9
C5
0B
F3
E9
08
0D
15
10
F6
1A
FE
F0
FA
09
D7
03
11
19
10
05
E5
F6
DC
0B
03
1D
F5
09
EE
F8
10
03
E9
FD
00
E4
08
0A
01
F4
F6
F9
08
0B
0C
E7
F6
04
EE
03
03
E8
F0
E2
F9
0E
EE
F4
F3
FF
08
E0
F2
0A
0C
F9
07
F7
1E
08
FF
F5
EB
06
F4
FB
00
F3
FF
07
04
FF
D4
E5
F8
F5
09
1F
18
E8
E0
1A
F2
0B
0A
05
FA
17
12
F8
00
15
F2
E9
0C
0B
F4
0B
E3
E9
11
EA
F4
FE
02
FC
E2
11
E5
DC
FB
F0
DC
FD
26
EC
E0
0F
00
EB
F8
F0
1A
EF
F2
1F
0E
1D
F6
F0
F3
F3
F4
FD
F1
F0
E2
0D
FB
0C
03
E9
13
FA
E7
05
FE
04
F4
0E
0F
F7
EA
08
EE
F5
ED
FA
F0
FB
0D
0F
0E
F1
20
F0
F1
F2
0E
0A
0E
00
F4
FD
F4
02
0D
0A
1A
F9
F6
0E
EF
FC
12
24
F9
0A
F6
0D
F7
05
15
FD
04
0E
03
1B
F4
04
F0
F0
ED
F3
FF
F8
ED
EB
11
00
01
0D
F9
F6
FD
FE
0A
F0
05
15
1E
13
FC
0D
06
F7
F7
01
0F
EF
DE
FC
08
F2
0E
FF
01
F5
02
FA
13
FC
04
EE
06
0D
F8
0E
F2
08
F1
FF
CB
FA
0D
FB
FA
05
F5
06
01
F9
D9
EB
08
F4
18
FD
0F
08
F4
21
F1
0E
F4
13
F1
18
FE
E7
0B
EB
FB
0C
06
01
F8
E1
F9
E6
0C
DE
0E
08
F4
E7
EF
0D
03
EE
1F
0E
F7
F3
04
05
F5
0F
F7
12
F4
0F
FF
DC
F5
00
02
1C
EF
DF
01
08
FD
F6
18
FA
08
E4
FD
F3
FE
F8
F0
05
0B
08
FD
18
FE
D6
0B
FB
05
05
07
06
F5
0D
FC
0D
E3
FA
FC
0D
1C
F2
F4
F1
19
FA
FE
F9
13
EE
00
06
E2
0E
F1
E9
E9
ED
FA
FA
F1
0A
F3
EF
0B
F9
19
03
FD
E0
DF
E8
E6
EF
E8
E3
F7
E7
F9
E5
07
E5
F1
F1
EC
FF
F4
00
F4
1C
FF
F4
F1
19
F3
13
FC
EC
F1
FA
E8
13
03
F2
0F
01
0C
04
0C
F9
C8
16
05
0D
CF
18
19
F0
F9
F2
E4
03
02
EC
09
E9
F0
DB
F2
EF
0A
23
01
F2
07
08
1C
0A
F8
02
FE
E1
FA
E5
1F
DE
00
FB
00
EE
D3
F7
02
05
EA
0F
0D
04
0D
25
F9
0F
EA
04
04
F1
F4
F8
1A
F0
21
13
0D
02
16
C7
EF
0A
F9
E9
FA
02
E4
D6
09
03
23
0D
E3
FC
09
FA
FB
F6
D5
F3
06
0C
E8
CF
05
D7
0A
0E
F4
13
04
02
17
04
0C
F7
05
18
EA
FB
0B
08
05
F7
E2
14
16
DD
19
1F
F7
F2
E5
FE
FE
F6
FE
17
E5
FC
FE
03
EE
DA
F1
0E
05
17
E6
F3
F8
23
0D
EF
00
F0
01
F7
FC
EA
FD
16
F1
F1
06
16
F2
24
E7
F1
E7
0F
F1
02
0D
0F
DA
13
06
E0
00
FD
EF
DF
18
ED
F5
F0
F4
09
04
D4
02
FC
DF
DF
03
1D
19
0E
DF
06
21
03
F3
F8
F0
F8
16
0D
E2
00
09
1E
04
F4
D9
02
FD
0C
0B
F3
FA
10
EF
08
E5
FD
14
D4
06
FE
10
EB
14
E9
F8
FA
26
E7
0E
EC
F0
09
00
15
E6
EC
F9
F9
11
FB
17
E6
F1
19
F6
E6
0E
FC
0C
09
05
F0
FB
0D
F9
D3
FF
F6
EF
EF
07
06
02
29
20
FC
E2
FB
11
0E
06
F5
E6
FB
EE
0D
10
F0
FC
E4
FF
D8
F6
0A
07
F5
E3
0E
19
00
1F
0A
FA
F7
DE
06
F8
E5
08
11
16
F6
27
13
14
0A
F7
EB
23
0C
0D
EC
F0
01
18
EE
EA
F5
F6
0A
E4
FC
07
15
FB
08
04
07
19
EE
F5
C6
08
CF
F6
01
F9
19
F7
00
F7
EF
F5
F4
FD
01
EC
09
F2
19
14
FE
EE
E8
FF
17
FE
02
04
FE
0C
0E
19
F2
F3
0B
F4
0A
10
DD
E3
02
FE
E7
F9
F7
E8
FA
0A
FB
F7
FB
03
04
F3
FC
F9
EC
05
01
EF
04
00
19
EE
0B
F8
15
F3
FF
06
10
0C
00
FE
1A
12
00
FB
03
09
FC
03
0E
17
0D
09
F6
01
09
DD
F5
FE
EE
E3
FC
F6
07
EE
FE
07
D4
23
EF
F1
09
09
07
02
0F
05
03
D7
01
C5
0B
1A
E4
11
ED
02
06
FF
04
06
05
05
EA
FA
EA
11
EE
FC
EF
F7
17
FA
F3
17
03
04
F5
15
F8
FD
0B
07
1B
F0
E8
E6
03
01
FE
EE
06
EB
F2
14
F9
F4
20
F7
F5
F7
0D
22
08
F8
0F
F2
F9
D6
CB
EA
1F
EB
07
F4
ED
04
FD
F8
0A
FE
EC
DD
DE
F2
23
EE
14
FF
08
F8
25
23
EB
2C
F9
D5
EB
E6
23
F9
F1
F0
18
14
FB
FE
01
D6
D8
EC
E3
12
0A
EB
D8
0A
0A
F6
E8
D0
1C
04
FA
F2
11
13
0B
03
01
17
13
F4
0F
FB
02
00
37
03
25
FF
01
FD
E7
02
0F
0D
E9
1E
0B
01
F9
26
EE
17
12
FF
F7
1D
1A
FE
01
FA
F2
FC
07
09
DD
02
E4
FE
F4
03
0F
1A
FA
09
FE
17
1C
07
D3
F4
1C
25
DF
FE
05
22
19
09
09
01
0E
0B
F7
0F
1F
0B
FE
F1
E8
2D
12
F4
02
01
FB
FA
F3
18
D2
F5
16
FD
F1
22
15
0B
FC
FC
FA
F1
18
FB
FF
F2
FE
07
08
FA
FB
1E
16
0B
21
08
13
1A
24
07
EC
FB
F4
0F
EA
E6
20
FE
14
FE
FB
1B
1D
DD
27
0C
DA
05
E8
07
F7
05
11
F2
08
0E
ED
F0
FC
12
08
CE
E8
1C
F5
1A
06
03
F2
12
EF
F9
06
0C
F1
F0
F2
E6
EB
06
F8
F1
22
12
0D
E0
09
05
F0
0D
D9
E5
FF
F8
FF
F5
EF
14
F0
1E
ED
21
06
05
05
FB
1E
09
E8
F8
E4
10
19
FF
0F
05
01
E6
F0
FC
02
F5
0B
F0
02
03
E5
FB
0C
F5
F1
F7
27
F3
E8
0A
02
11
E9
0E
14
F5
1C
FE
E4
E1
1A
04
1A
F1
22
EA
07
22
F7
EC
05
0E
F8
02
01
F7
F2
F1
02
EB
F9
00
01
EF
FD
FC
F1
0D
06
02
EF
F8
01
11
08
E9
FB
14
F2
F5
09
01
03
09
09
02
02
0A
FA
01
F8
F2
01
F7
00
01
01
F5
F8
BC
FB
F5
F5
FF
23
06
FB
EE
EE
05
EE
01
0D
F9
10
F7
FA
FA
12
FC
0E
FD
F5
02
0C
FF
EA
12
04
FE
FA
12
FE
03
12
12
EE
FD
FF
E2
F9
12
E9
FA
0D
15
FC
F7
0E
03
FA
E3
09
1F
1B
0A
F7
0F
0F
DB
D0
01
F2
F4
01
FF
10
1C
FE
03
E9
FA
0F
02
FF
EA
F3
0F
F4
EE
0E
00
F9
DB
FD
DD
F5
02
F7
D8
01
07
07
E2
E3
0E
0C
F0
F4
FC
EE
FE
0C
EE
EB
16
DD
02
0C
01
F0
0E
FC
03
12
FA
F6
10
EF
F4
EC
13
00
F6
FF
09
09
10
17
E9
FF
FF
0B
09
FD
0A
FB
E5
F8
07
FC
ED
07
F3
00
EE
02
F2
F6
ED
1F
FD
FB
FB
E4
00
07
FF
F8
E0
01
FE
0A
FC
0D
F3
E9
08
14
F4
F4
02
0E
F0
F1
EF
F4
0D
1D
F2
04
08
0B
E3
F3
E2
FC
F9
E7
FA
F7
01
0F
12
03
10
0F
0E
E9
06
F2
06
FA
F5
FC
18
F4
FF
F9
04
FF
07
F8
F5
ED
03
FA
F0
F6
16
02
FE
0F
E5
FA
03
F3
E1
FF
1D
E9
20
1E
FE
F2
0A
FE
EF
05
14
FB
21
0E
00
DA
F2
08
02
F6
05
FA
08
FF
0E
04
0A
EF
FB
FB
09
F8
F4
FA
F1
F2
01
17
02
F4
03
FD
F7
EE
FB
DD
F4
01
ED
0C
FB
0F
08
01
FA
EE
0A
06
F9
12
DF
0C
F7
09
F2
02
EA
0E
FD
1E
17
0C
1C
05
1D
E3
EF
F2
03
15
E5
04
08
04
F9
F7
FC
1A
E0
2A
F5
EC
F8
DF
34
02
20
FC
05
FD
02
16
EF
03
11
03
00
EA
FB
FE
FA
0D
02
04
00
FE
19
ED
FD
07
F2
EC
16
0A
0F
FB
0B
06
0E
11
EE
F9
FC
05
F7
02
12
F8
FF
00
F0
F8
EF
F2
04
F3
14
08
EC
F3
FE
01
02
09
F7
0C
00
F9
DC
F6
F1
09
0C
F2
0B
FF
F2
20
E2
02
F9
0D
03
01
FA
05
FB
E2
DA
0A
F7
FC
FC
04
01
05
E8
F3
F3
F3
E6
06
EF
14
02
1B
F4
00
EC
FA
03
F9
05
F1
0C
02
03
11
FB
F9
1F
08
02
FB
02
13
FA
0E
0F
09
1D
12
FD
F8
FE
F9
F9
13
EB
E5
0B
0B
1E
23
F0
E5
E3
E4
34
01
15
DD
DA
03
EF
DB
01
EE
E5
01
06
E3
EB
18
FF
F9
07
F1
13
DC
03
0A
1B
13
0A
EB
FE
EE
EF
09
01
F7
0F
F5
F3
11
0D
FA
E6
EC
08
E5
13
08
10
F2
B5
08
FD
F7
15
1C
F5
00
F9
F1
0F
F7
FD
16
1D
F8
25
14
06
19
04
00
0E
0C
01
F0
EE
F5
1F
D5
FA
01
15
05
FC
01
07
1E
04
E5
00
19
0B
02
F4
F2
FF
D4
0D
EC
19
1D
FD
0F
E1
F0
D5
FC
F2
11
02
27
FC
EC
0A
EE
F4
E9
08
FE
E7
14
17
0B
0F
03
FC
F4
08
EC
EF
F4
F6
08
D7
FE
03
04
01
11
0B
F8
F9
F3
05
F4
0E
10
EF
E9
02
F7
11
1B
04
F7
FB
DA
F2
01
0E
EC
F5
0F
F1
FB
06
FA
FE
10
01
0F
F3
F5
F6
12
11
ED
01
01
06
0C
08
F8
0B
F4
F1
06
01
07
13
00
FB
08
E3
05
FF
10
EF
07
FE
0A
13
05
FA
FE
EB
02
E8
EA
F0
DD
0D
03
F4
12
F2
FF
FA
FC
F1
01
F6
F1
F5
EE
0E
0C
04
0C
FE
16
0F
EA
0E
F6
0E
E5
0B
F4
F8
F3
0E
E5
DF
03
F9
1E
FF
FC
05
05
F9
F1
AD
EA
09
FC
EE
1F
F4
FB
01
F3
EF
FB
0C
F1
F0
F9
00
E8
F6
FE
F5
07
14
17
F9
02
08
FE
21
FA
03
11
06
00
FF
F7
03
FA
F2
FF
FA
08
FE
EE
FD
05
05
FB
05
F9
1F
FC
14
18
12
07
F6
0F
D9
01
D8
FF
FD
FD
F2
FD
E7
06
FB
1D
EC
FF
0B
04
05
DD
0A
FF
FD
03
E4
FF
FE
11
E8
01
04
DD
F3
02
F2
0A
01
F5
F5
F3
0B
FF
0F
DA
F7
F9
EE
E7
0A
01
09
F1
05
FE
04
17
F6
E7
02
04
E8
09
12
0F
13
EB
00
01
EF
FD
E3
F1
03
02
ED
F9
0E
FD
F2
E6
0B
FD
EC
FF
F6
0F
03
F6
FC
04
0C
FB
F9
18
FB
18
0B
02
EB
1F
FC
FC
D6
FD
F4
F8
01
11
0E
F4
05
01
09
F2
08
FB
FC
F2
F9
F6
01
00
E4
05
D5
06
1A
FD
DD
EA
0E
F7
1A
01
F6
0D
13
FD
06
09
0C
F4
0C
FE
06
1F
FD
F1
06
16
08
01
03
13
06
15
01
05
0C
DB
01
1B
11
DC
FA
F6
F8
F6
10
04
04
F2
05
FA
F9
FA
F1
01
F0
0B
F0
10
0B
E7
FB
F1
EA
FC
FD
0F
E4
FE
FC
DA
F0
EE
F9
F3
07
E8
10
EE
02
05
03
08
F0
04
F4
ED
26
E3
FB
0B
F2
11
02
F2
F4
0F
23
20
ED
EC
0D
13
FE
EE
12
F2
EF
21
11
0E
1B
06
1A
13
02
10
F4
FD
F0
F3
D9
DD
FA
16
1C
15
0C
FA
FE
F8
EB
DB
DA
EB
E2
EE
E2
F3
E2
02
E7
03
02
02
ED
FA
D8
13
EF
E7
01
15
EE
02
04
F8
EC
FE
06
F2
05
FA
E2
ED
20
CD
04
EF
05
05
FF
0F
ED
19
F3
F2
03
FC
0D
00
EF
FD
F5
09
FE
F5
F0
F3
04
F6
F4
EF
13
1C
F7
F9
00
FE
F8
13
F3
FE
15
F1
F6
FA
17
FC
1C
FE
01
FF
07
F1
00
09
DC
08
00
05
08
FA
12
F8
E0
F9
FA
05
F3
02
12
03
02
0E
00
0B
01
0E
13
10
00
F5
F7
0E
17
FB
03
09
12
0F
FF
0E
F7
06
28
FC
F7
FE
05
0B
16
DD
F1
E5
FF
E6
E2
07
F8
EB
17
06
05
06
09
F5
E8
0C
1E
10
E8
0C
E4
0C
FA
0C
F5
00
F1
0A
FC
04
DE
08
F5
FF
07
F3
1C
1E
15
F8
0E
0B
F5
F0
EF
F1
1C
1B
07
08
DF
F5
07
09
FF
F5
FC
F7
0E
07
FE
F5
02
09
01
09
E5
11
FD
04
F0
F8
F7
ED
E5
04
FF
09
F9
1E
05
04
FD
0B
F1
FE
05
01
E4
07
10
F1
0B
F4
04
00
0C
02
09
F9
02
E4
01
01
09
D9
11
E2
00
FF
0D
F9
07
1D
FA
1E
F6
1E
0B
EF
FF
DC
11
EF
F6
0C
03
04
01
02
06
F5
E0
FC
03
01
EB
14
F3
07
F5
FC
D3
ED
01
F1
FD
07
FB
EC
02
20
04
E1
0E
FA
00
FE
0F
EC
08
09
EF
EE
26
05
ED
15
EF
FA
07
FB
04
00
F4
17
F4
0C
F4
E9
05
F8
0A
FA
00
FA
FA
02
F1
F3
03
02
1C
E3
EA
06
05
F4
F6
19
01
00
F2
07
F1
E8
D3
0E
22
F6
27
1D
FD
FE
FC
E1
04
0E
F4
ED
F6
11
0A
03
F3
F6
ED
09
07
F7
14
0B
26
F2
FD
0C
03
FD
FD
D3
0C
F9
03
FC
12
00
F7
1B
06
01
FE
FF
02
F7
EB
06
00
16
09
04
DC
13
19
0B
0E
0D
0D
11
02
FD
EF
06
07
FC
F9
01
10
DE
F8
08
EF
F6
FD
09
FD
F3
FE
E2
0A
07
07
07
04
F5
FD
01
FB
11
03
FF
F8
EF
06
08
01
F4
02
11
F5
0B
14
07
EA
02
06
08
04
F9
EF
01
14
1C
11
F7
FD
F7
F6
ED
DE
FF
EE
07
15
FF
00
08
F2
F2
01
D5
08
02
F6
06
1A
07
0F
F0
13
0E
EB
04
DE
0B
01
D8
09
F4
FB
00
08
01
CA
16
E6
00
FC
04
FF
F1
04
06
F7
EC
00
FB
17
F9
EE
F8
01
0A
F9
F7
0B
13
F4
F5
FD
03
04
00
F0
23
0F
FB
0F
E5
F2
15
FD
EC
F8
DC
F4
10
FD
19
F0
FC
F0
E0
13
0C
EB
E7
FA
00
F4
CE
EC
09
FF
F1
ED
0D
FF
F3
F4
E5
E8
01
05
F4
0E
F1
16
F1
FB
ED
ED
05
F5
F4
0A
03
06
F1
EF
F2
F1
F9
EF
00
10
05
EA
FD
02
27
EE
F8
EE
0D
F5
EF
DF
0A
F6
F0
EC
FC
10
15
F1
0B
07
22
FD
03
06
0A
F5
0E
E6
E9
03
07
11
E6
06
0F
1F
30
EE
01
08
1B
EE
0B
02
F3
FD
1C
0D
F8
11
13
0A
03
0D
E9
FC
0A
0E
F4
F6
0F
0F
04
04
09
09
F6
FB
00
18
EE
F4
03
FC
0E
03
EA
09
F9
08
FD
06
F2
E5
13
F1
08
10
17
EC
F4
EF
FC
05
FB
05
D3
FF
0E
E8
FD
FF
0B
10
F1
10
09
05
EB
0C
14
FF
FE
0E
02
F7
02
E4
05
F6
0E
E9
DE
F0
DE
0E
05
F6
F9
10
07
D7
EE
F4
08
E5
F6
0E
F2
07
11
F9
09
06
1C
0A
F7
F2
F8
0C
0A
02
E4
F5
F2
03
19
F6
10
F3
FB
0A
F0
10
E3
09
FE
03
09
0A
12
18
04
05
02
0B
F6
12
F3
FD
18
DD
ED
EF
19
FB
DB
07
F7
FA
0A
F0
F0
1E
1E
F6
01
0B
02
F3
DE
EF
09
F9
01
FA
01
0B
21
EA
F4
FF
18
08
F8
08
FC
F6
1A
F5
F6
16
1D
FE
11
10
FA
FE
EF
FD
06
F8
06
FA
E4
E9
F0
05
EB
EF
02
EB
F5
EF
07
EC
FD
F7
FA
0A
16
06
08
15
EC
27
03
17
F0
0C
04
0B
EC
08
F4
1A
FE
22
F7
08
09
F6
FC
06
01
15
0E
F9
13
F2
F6
F2
06
F2
09
03
0F
04
FC
14
FF
F1
E7
F0
11
0A
21
E5
F7
16
E1
E3
1A
F6
FF
FD
02
05
08
F7
F0
FB
EE
0B
02
02
05
FD
F8
E9
F2
07
14
09
FA
F0
00
14
FD
07
FA
0E
1A
19
F1
F2
F2
0A
27
04
FD
0B
F8
F4
F8
0C
07
FF
FD
FA
0B
03
FA
0A
EE
FE
F8
02
00
EC
FB
C4
DA
13
0F
03
09
FE
F2
16
FE
07
FD
F8
F2
08
E4
E2
00
FA
02
F3
F3
0C
15
E4
03
EA
FD
FC
0C
E9
F4
08
F5
FE
DB
07
03
01
F4
1A
04
FB
0B
12
E8
FC
F1
F9
06
CC
F7
E1
04
F7
FB
25
0C
11
F6
FC
2C
D9
FE
E4
EF
FE
0F
0C
13
0C
F4
F8
EC
F2
18
0D
EF
E1
FA
0A
0E
FA
F8
EF
F5
12
FF
DE
12
F7
F2
EE
F5
02
13
03
FE
F0
F7
1C
FA
EA
01
03
FF
EB
05
11
05
04
F3
09
EA
02
E8
FE
E9
15
02
24
0C
F4
14
05
0D
0B
F3
DA
E7
FC
1B
0E
E7
02
FE
F7
1B
E9
05
06
EE
00
FD
FC
0C
0E
10
FD
04
13
04
FF
01
F2
07
FC
FC
11
12
F1
F2
09
0B
05
FB
0B
F7
14
F1
E7
07
02
E9
FA
E5
EE
02
FF
1A
22
F6
E3
06
05
11
05
01
04
05
FE
0C
F0
16
F6
F9
F0
FC
04
FF
0B
03
06
ED
EF
FD
F5
04
E8
E8
FE
E9
0C
F7
08
07
01
02
F1
F9
03
0C
EE
0C
0D
0B
FA
ED
DE
EE
1C
FD
FA
FE
EC
01
05
08
FB
F5
EB
04
F9
0B
0A
0A
04
00
17
06
19
F1
05
ED
FA
1A
E6
FA
F4
03
0E
09
0A
10
12
EA
19
14
F4
02
07
F4
F1
EA
03
00
1D
12
FE
0F
F9
F2
FE
0E
01
0E
08
F9
0D
ED
F2
08
00
DF
EE
06
F8
FF
05
03
E5
02
E3
FD
0E
08
F6
07
F6
12
F4
FE
DA
00
F5
06
06
FB
07
00
0C
F4
04
09
F1
06
15
05
EB
21
07
17
05
F6
F5
14
10
07
E5
0D
0F
EB
F7
ED
F2
F9
F0
0A
1A
03
F6
0B
05
EE
05
FF
F0
E8
01
F4
01
FA
FA
07
07
0F
11
FD
E7
F3
F4
08
EE
EB
F9
FC
FA
02
04
FE
F7
FD
FD
FF
F8
E4
E3
1A
FB
0E
13
06
FF
0D
F7
FE
F8
E9
00
F8
DA
EF
08
21
FA
03
0B
EB
FA
F8
FC
01
F1
FC
07
0E
0A
04
FA
FE
FD
F6
04
F0
08
E8
F4
EE
06
FE
FE
F7
F6
03
10
06
FF
07
03
FC
F2
E5
07
0B
F8
10
FC
12
02
12
FB
F5
F3
FD
FA
03
F5
07
09
F3
04
0E
F2
05
FF
F7
F2
03
03
00
F1
06
03
10
04
1A
ED
F8
F4
15
13
06
0B
E9
1D
E5
0D
E6
0A
E2
F2
05
F9
13
07
0D
ED
12
F9
07
FD
F0
F8
F6
EF
E9
08
13
F5
00
E7
08
02
F4
E8
03
06
FE
F3
00
03
FE
0D
08
1A
10
03
05
F1
0C
17
FD
F5
EF
F5
1B
FC
FE
15
F3
DB
01
F6
E0
F8
05
05
19
0F
DA
FE
05
F1
15
EC
0E
14
0F
1B
13
F2
0C
EE
FE
F0
F1
0C
E3
FD
1B
FF
05
F7
F8
E5
00
FE
F6
00
FA
0B
F0
FF
EC
E2
10
FC
FA
F6
F9
14
F4
E3
F7
16
FF
F1
0A
E0
E6
CF
E5
0C
04
E6
E8
05
13
F4
FF
10
FA
FA
F2
FB
0D
E8
CC
10
02
E6
1C
F8
13
E1
1F
F2
F6
07
EA
FF
F6
07
08
FF
03
FF
1B
22
03
11
F1
FE
F4
FC
0C
02
EA
0C
EB
0A
F9
11
FF
F1
12
F7
EC
0E
E0
BC
F5
F7
03
FA
07
0D
FE
F5
EE
F2
0A
05
F8
08
EA
00
07
F3
06
EE
FC
EE
08
FD
10
09
FF
11
0D
03
00
02
0E
FD
09
0B
19
FA
F7
07
FD
10
EC
F8
EB
F2
07
05
14
02
02
13
10
07
F5
EA
01
F0
08
E1
EB
0B
13
D7
E5
03
F9
20
01
E6
F2
FA
F8
F2
00
02
F6
01
F8
F9
0D
EE
F9
EF
F9
E8
FE
FE
0A
06
FD
F5
F6
0A
CD
E8
08
FC
FC
18
FA
FF
F3
08
F7
EE
FC
0D
05
FE
FF
02
DA
05
FF
E6
05
01
10
09
E2
02
FC
05
02
F3
05
18
FA
FF
F0
05
0B
0B
F8
00
E8
0E
06
F9
0E
F2
EA
F6
F3
FA
F9
F4
06
F0
05
F3
07
EE
F8
F8
00
F6
F1
08
0E
0D
12
00
07
FD
15
FA
EB
FE
F3
FE
F7
F9
FD
09
F9
F9
ED
F6
0C
13
04
F1
FA
02
FB
02
EE
F1
07
EA
FE
FB
FC
EC
FC
FC
09
F6
09
EF
00
EC
F8
DF
00
F5
FC
FE
F0
F6
0B
0F
FC
0A
FC
05
DE
03
FF
FF
EC
ED
0E
F5
EB
F2
16
0F
FC
11
06
EE
09
F4
F2
04
DD
DF
FD
10
03
F4
00
FF
00
07
F4
F9
07
FB
FD
F9
15
F9
02
F1
06
F4
EE
0F
E2
F5
EE
08
FD
0B
0E
02
FD
08
08
FA
F8
1D
1F
00
06
1B
01
F2
D9
0E
07
F2
23
1B
0E
FF
FD
16
0A
F0
FE
07
17
EA
EF
FB
FE
1A
00
F6
16
18
F3
06
FC
F7
FF
E8
E0
F3
04
04
FD
ED
0D
D2
F6
F4
FB
9E
FD
EB
F3
FD
F6
FE
F1
FB
F0
0B
00
E1
EC
F4
0F
0B
FC
11
EE
02
06
05
06
FC
FD
0D
E0
0D
FF
0E
F4
ED
F5
FE
01
CA
FD
FD
0A
03
08
18
17
0A
F4
FB
F9
03
FF
F5
F9
05
FA
EA
EE
EC
05
03
17
0A
13
00
01
FB
F4
06
F7
0A
F5
F6
01
F0
F9
05
FB
02
12
09
EC
F2
0B
0F
FB
0B
F0
FD
02
25
14
FD
F0
EE
EF
FD
14
E8
FE
FD
0C
E2
F6
EC
FE
F4
19
FA
FC
04
F3
F4
00
15
F5
0E
1C
00
E4
F8
FC
05
D9
EC
F6
FC
1B
04
EF
FF
ED
FC
F0
03
EB
F3
0C
E9
F9
FC
FD
05
0F
03
09
F5
01
01
F9
EF
04
F1
08
10
05
15
00
09
01
03
0B
01
00
F6
02
00
04
FF
F2
ED
F2
F9
07
09
F2
FD
06
07
FE
F9
1A
FE
06
09
FE
F9
0A
07
13
F8
0A
19
E2
FF
08
09
07
FC
03
F1
06
FC
F7
FB
E9
E5
1B
EC
F6
13
11
02
E3
F2
07
EF
DD
F1
F6
FD
1D
07
07
05
F4
0B
03
0A
FB
FF
EF
0F
14
0C
01
F9
F3
09
F6
F5
FD
0C
F6
0F
08
09
E7
1A
13
EE
F1
04
F6
F7
ED
F0
13
F4
FF
FD
14
06
EA
0A
E8
05
FB
E5
1D
F8
FB
F5
0C
0F
21
0E
FD
15
12
E5
01
0B
E0
DD
08
FC
00
05
0A
ED
F6
02
03
EF
FB
E9
02
FE
0F
F5
FF
F9
F1
FF
11
EC
17
F0
F8
F9
FB
05
21
1D
02
E4
FF
F6
F9
EC
21
F5
E7
F4
F7
26
F4
0C
04
F6
F4
0A
F9
00
E2
F0
ED
E9
01
0F
18
F8
05
0B
EE
EC
03
EF
00
09
D4
1C
0B
F1
08
08
0A
0E
14
01
F0
F8
0D
0A
04
08
00
1D
13
F8
F1
08
E5
0D
0E
FE
E4
DE
F0
05
11
0A
EE
09
E8
FE
02
07
F7
FA
F3
F5
15
FB
0B
01
DC
FD
17
FC
D6
F9
F6
E7
19
EE
EB
F2
FB
F8
02
FE
07
0A
EE
01
01
FF
0A
0D
01
EE
E7
00
03
EF
05
F5
10
0F
F8
EC
12
01
F8
0E
FF
07
02
06
11
0B
F0
03
0E
F3
EF
08
F4
0B
FC
10
03
0F
15
0C
FE
E5
D5
1D
02
FD
1A
01
12
06
04
02
1C
F9
01
E7
FC
E3
F3
E6
FE
08
0A
F9
13
E6
11
E9
F9
FF
0D
0B
F8
0B
FC
E3
D8
F8
E1
08
E4
F4
03
E2
EF
E9
16
FD
FA
F8
E8
06
22
03
0C
EE
FC
F2
11
0C
10
E5
E0
08
F7
EF
ED
FD
F1
EE
13
0C
09
11
0E
F2
FD
17
F5
15
06
0C
F7
EA
E1
00
01
F4
EB
26
0C
03
F5
18
09
ED
EA
15
FE
FB
F4
E5
F1
07
1B
01
EF
F9
FF
F6
03
07
F6
F2
F4
F9
0E
03
03
02
FF
05
F5
02
09
F7
03
FF
E8
F7
FB
01
F8
10
F7
00
09
F3
0F
08
03
F2
F6
0A
E9
09
FC
F4
E9
02
EB
FD
12
03
F2
0A
EB
08
1E
F6
04
DE
02
EB
FD
0C
05
EB
05
0A
11
0C
F3
0F
FD
F1
FC
11
F8
F4
1B
04
E9
EB
EF
EB
0C
03
FB
F5
DD
F4
FF
F9
FF
12
E9
05
F4
04
0F
02
F9
EC
F8
F5
06
09
08
D7
E3
00
F1
16
EF
06
FA
E4
00
E5
EE
0B
FB
FA
D4
14
F8
10
FE
EC
10
11
FD
F8
18
06
05
F1
FD
01
FC
00
F0
EF
DC
EB
EE
03
08
17
01
E5
09
DF
0D
E9
06
F0
D8
10
FA
F0
06
F4
0F
F5
ED
FA
EB
FB
08
ED
FC
09
F3
E4
14
09
0C
FD
FC
08
EF
10
FF
00
1A
03
F0
FF
EF
FF
F2
03
D7
F7
F0
05
F2
0E
FC
FB
F1
0A
F8
01
FE
E6
0C
0C
F1
FC
00
05
13
FC
F7
F6
05
0B
02
00
04
DB
FD
EC
EE
FD
FD
E8
FD
FC
FD
EF
F8
0A
FB
08
09
F6
ED
00
F9
D8
F6
12
F2
F4
04
FF
17
F5
F2
00
02
09
FF
1A
05
0B
02
FA
E8
FA
01
E3
FB
0E
00
29
E9
E8
F6
DB
EE
01
FC
D4
F2
F7
FB
01
07
04
FF
23
EB
F5
FA
F3
10
F1
F3
13
FA
F6
20
0C
09
F5
00
1A
F4
03
FF
F2
09
0D
EA
E0
0B
EB
08
0E
02
F2
13
FC
0C
03
E7
E6
F0
0B
F9
FE
0B
18
0E
07
F4
F5
FB
E8
0E
ED
13
05
08
12
E7
F6
04
00
F4
10
05
F4
09
06
F5
0B
04
1A
F2
12
F7
FE
08
08
08
FF
EC
0A
D6
EE
04
04
F6
00
07
04
F9
03
FD
E1
FA
F6
08
03
E0
DE
F9
16
F8
F0
07
F8
E6
EC
FB
0F
E2
FE
DD
EE
0D
FB
F8
FE
F1
F7
20
07
17
E9
FF
F4
F4
F4
04
05
01
FD
FE
FB
FD
FB
E7
FC
18
12
FE
05
04
17
F0
E6
13
0F
DF
DB
15
04
12
02
E8
06
0F
09
2C
01
FD
D6
FE
0D
0D
F4
F7
1E
13
02
F7
E4
DF
F0
00
FC
EA
FC
13
0A
0A
05
EB
FE
00
0E
07
02
FF
0E
01
EA
F7
F9
20
03
E8
E9
05
0E
E8
F9
06
E9
FD
00
23
0D
F6
13
FF
D8
CE
01
2D
23
09
11
EB
19
FB
F1
FC
12
F3
0A
FC
E8
CB
F6
09
1E
EE
EC
F0
E7
F1
F0
17
F2
F5
01
E9
15
DA
0B
14
F7
FF
0B
F7
ED
10
EA
F2
15
04
09
FF
D5
FA
04
05
E5
1A
00
07
03
04
D3
FC
0B
02
04
E8
0F
F9
EE
08
0A
FA
08
FD
F1
03
F2
E6
D9
E2
EE
FB
F1
F1
E6
E9
00
FA
D8
FD
0B
03
00
04
F6
17
05
FA
04
1A
05
00
F5
F7
F9
FF
0B
FC
FF
0B
02
F3
FB
F4
0E
F0
0D
09
0A
0E
F1
03
EF
FB
0D
0A
09
F2
E9
0A
08
10
F0
E1
08
F1
0F
F9
FC
E6
08
17
05
04
03
E2
EB
FB
13
0F
F7
F9
F3
F2
10
EE
01
10
FA
FF
03
22
00
F6
EC
F8
16
0F
EA
FE
05
FC
05
FB
19
F9
F3
17
FE
06
00
19
0B
E0
0A
E9
FA
F3
02
00
02
FA
F7
FD
F1
12
E4
1F
0B
2F
08
FC
F7
FB
F7
FB
1B
F0
F5
02
00
FB
12
07
FB
12
FE
02
D5
FE
06
18
EC
F1
FD
01
07
01
04
F5
06
E4
13
11
FF
04
E6
1B
12
E0
05
F7
DE
ED
0E
08
FD
0C
F6
ED
0C
0A
F6
ED
08
06
00
E3
00
01
FB
0C
07
F8
DA
00
00
16
F5
08
02
05
08
04
09
15
04
F8
04
E8
F4
FE
EC
09
07
FD
2D
FD
05
0B
DA
0B
00
F3
FA
FE
02
FF
02
F3
E9
EF
03
17
F4
FE
FD
EC
06
01
15
FF
02
00
01
00
F9
0D
FA
0F
F1
0B
EC
F6
F9
0B
F6
FA
DB
F5
F4
CD
F6
0E
00
F7
01
00
DF
0D
FC
FE
07
02
F8
E5
15
F5
FF
06
1F
07
EB
07
F0
FB
00
2B
15
10
DF
01
01
EF
E8
07
00
0C
09
F6
15
FC
F5
FC
22
EA
04
EF
01
DE
F9
F6
EE
FF
FA
E8
0B
F6
E4
EE
DF
F0
09
EF
EB
DA
EB
FD
F2
02
07
F7
02
FF
F7
ED
FC
E1
FC
02
E3
FD
F4
07
F9
F7
F2
CB
ED
FE
FC
D9
F5
04
02
F1
EA
2C
EF
CC
FC
07
0A
F6
F4
E4
FA
35
26
F9
09
01
FC
11
0F
E8
04
08
0C
06
03
08
F8
E8
F5
CB
1E
F0
F5
01
01
F5
B9
F0
0E
D1
11
0A
0A
0B
28
01
00
0C
F1
0A
17
0F
FF
13
0C
03
27
F6
15
E5
FC
17
05
F8
D6
FA
00
07
FC
13
15
EF
14
FF
FC
0B
F9
14
FF
EA
F4
D6
E4
1D
F1
ED
01
01
EF
1A
F7
F8
F6
11
1A
11
F2
08
00
F2
BB
F0
1E
EB
1C
FB
EB
D8
F5
15
05
EE
05
DC
0B
F9
F8
02
FE
02
EA
EF
F8
ED
C6
F2
16
FF
02
F1
F0
0A
07
FF
F5
FA
F3
FF
04
F7
FE
12
FF
F6
F1
25
01
FD
F5
FF
08
F1
ED
0D
FA
07
09
FF
F6
F9
08
0B
FF
00
01
F4
18
FB
F6
F9
F8
0A
0B
08
E7
00
F5
06
0E
F9
04
05
EE
F5
ED
06
17
FD
DD
0B
06
F8
F4
FD
E3
EF
02
F8
F8
F4
12
00
ED
04
0B
F4
FE
FF
F9
13
FF
05
05
E7
EB
F1
11
08
01
E1
F3
F4
13
F0
F7
F7
F5
F1
EF
EC
F3
F6
EF
E2
FD
0B
F0
EC
06
01
FE
00
0B
F1
FD
FE
14
F3
F1
EA
FB
1F
29
FC
03
FD
1A
1E
FC
FA
04
09
19
F0
04
FA
F0
F7
F8
E2
EE
14
12
FE
FD
06
FC
02
F2
CC
0B
07
F6
ED
FF
08
11
ED
F5
03
05
FC
0A
01
1B
F3
0E
06
FA
FF
0F
08
03
11
1B
13
1E
F6
1A
10
13
0A
14
0C
02
E3
1D
29
0E
E4
F5
13
12
2B
F9
EA
0C
EA
FB
EA
EF
17
0A
FC
04
16
17
EF
02
FA
E0
F6
07
CF
FF
08
F0
05
FA
06
02
F0
F8
02
04
00
18
13
FF
1A
F4
FE
0D
E7
D8
06
20
F5
F7
FC
10
13
14
FE
00
F0
F1
10
0D
0C
FA
06
EF
02
EE
FB
22
FC
07
0A
F2
FF
FF
EB
07
09
F8
F3
11
09
FC
F7
FE
FE
10
FB
22
ED
08
F2
FB
FB
F7
F2
05
F5
14
FE
F9
F0
EF
05
EE
F3
C0
E4
04
1A
E9
FB
FA
05
F9
0A
FB
01
EA
E8
EF
04
09
EA
F5
E8
FA
07
F2
F8
E6
F3
E5
FB
F9
F1
04
FE
FC
F6
03
E3
DA
E8
FD
02
1A
FF
EC
FF
04
0D
FC
05
02
D7
F8
18
08
F8
F5
18
EF
F8
02
00
C8
DF
14
17
ED
F3
01
04
F7
08
EE
EC
F7
ED
01
03
06
F7
18
02
F2
0F
15
0C
FE
05
07
ED
EF
0A
00
1B
10
FB
E5
10
0A
01
08
08
E7
F7
F7
E6
0C
F4
02
03
FD
EB
FF
0B
12
03
03
F3
EF
05
E3
0D
DC
F4
18
F3
F4
0C
09
04
DE
DD
F9
ED
0D
09
F5
17
F7
06
F7
FC
02
05
F5
EB
FE
E2
FF
F6
F3
16
FA
07
18
F7
F9
11
0B
F8
10
10
00
F0
FC
02
09
09
17
11
EF
F5
09
03
03
F5
F1
1E
F9
F2
17
DE
D3
F5
F4
0D
F5
F4
0F
F6
05
02
EC
FA
EC
F3
ED
F5
EB
FC
F0
F3
03
EC
EA
27
00
FA
06
1E
EE
F8
ED
23
16
0C
F5
1C
02
0D
F3
EA
FA
F5
02
F4
0E
F9
0C
F6
FF
04
F7
FC
FE
FE
EB
04
F9
F5
EC
1F
ED
14
0A
FC
0A
07
FA
FB
DD
F2
DC
05
F8
F7
F7
FD
1B
F2
F3
F5
DC
03
FD
04
DB
FA
E4
F0
08
01
12
E1
23
EE
07
F8
14
F3
F0
04
EB
03
F9
18
0E
0B
FC
FB
F6
CA
06
19
0E
F4
01
17
FA
F0
00
EC
C6
02
F7
05
F5
F2
02
0B
EF
14
03
EE
F6
D8
FC
0A
FB
FE
EE
F6
09
FE
0B
FB
FC
F0
EC
13
DB
17
08
04
FD
03
F4
07
08
F1
02
EF
FE
F2
F9
ED
FB
05
0A
20
06
F8
F2
07
D8
E1
DF
15
07
1E
DA
F6
0B
FC
FE
04
E9
08
F1
09
D2
ED
EE
F9
06
00
F8
F9
18
04
F4
0B
FA
F2
FA
00
11
F4
EA
F2
08
F2
E8
F7
08
F6
19
04
F4
F3
05
EC
F1
00
FB
0B
EB
F0
F4
E0
ED
02
EB
F7
01
0B
FF
F2
17
0F
0E
E7
07
FB
F0
E5
FF
FD
02
07
01
FC
07
07
F8
12
F7
07
FC
FA
1A
0A
08
0B
F7
FC
F8
D6
07
FD
FB
0A
EC
07
E7
F5
06
09
F7
FC
09
F0
0C
1E
EE
0E
19
09
F3
11
06
0A
F2
F2
21
E0
0F
E9
09
05
00
D5
DE
DF
03
FE
FC
18
00
F9
FC
11
11
FF
E2
EA
E9
EF
F6
13
E0
E4
FD
EB
06
01
E5
02
E8
11
EE
04
18
03
E5
F8
07
EC
DC
D3
23
F4
0A
05
E6
F1
F3
F5
1D
01
19
FB
0F
04
08
10
05
F6
11
EB
FF
FD
E3
02
0A
02
08
F3
FB
E7
F7
01
FB
06
16
F3
F0
F1
F9
FE
F4
EB
F5
F8
EF
0A
F4
11
F8
E7
FD
11
F6
13
03
F8
05
07
17
0F
F5
F4
E2
FC
17
08
02
03
F9
EE
F0
08
12
F6
FA
10
FE
06
E4
14
FC
0B
0F
F9
03
F6
FB
EA
EF
FC
F9
20
01
07
FD
08
17
15
03
FD
15
F1
FE
07
F3
0F
08
16
17
EE
F8
F9
F6
F1
F7
EB
0E
F4
FB
0D
00
EF
FD
FB
0A
10
0C
FA
DC
F8
F8
F3
02
00
E2
0B
F9
FE
E2
F3
EB
10
FA
04
F6
F4
09
FC
19
F4
E3
EC
F2
03
08
0B
06
FD
EE
00
DA
06
07
D9
FF
F2
FF
0D
FD
FE
E7
08
F8
F7
FB
0A
10
FD
E9
0B
FB
0B
F6
0E
EB
12
F5
01
0B
00
F4
FE
23
F8
01
15
E2
FB
05
07
02
FE
FC
02
F9
F8
04
07
03
01
15
12
10
17
FF
15
03
FF
E3
F0
23
FD
0D
02
03
F5
EA
FF
F3
13
06
FC
01
07
E8
FE
07
F3
08
05
FF
0F
FD
F9
05
E5
03
06
FB
E6
ED
16
07
FA
F2
ED
F7
FF
FA
DB
12
0D
FC
F0
E5
EC
09
06
15
FF
0D
EC
FF
EA
F0
0D
E7
0C
0F
ED
F8
09
01
D6
FF
04
EC
FE
10
10
F1
FE
EF
10
04
08
0D
11
F7
07
12
FF
08
06
ED
D5
E5
F7
06
01
EC
02
0A
F3
F6
FC
E8
EE
19
01
EA
1B
06
FA
E1
E2
ED
F5
FE
E8
05
FA
08
FD
FB
FF
EE
04
DB
F0
11
04
DC
F7
05
08
E2
E8
FF
0D
F4
14
04
F6
FF
FD
E2
0A
23
ED
EE
0E
EC
FF
0B
07
07
0C
F8
F8
FA
F0
F7
0E
0F
E6
FF
25
F1
FA
F7
DF
E2
E3
06
EC
0F
F8
EA
13
27
E8
FB
F8
E2
FA
D7
1C
04
02
08
06
03
03
08
F9
03
EC
05
01
FD
F4
F1
09
FC
F2
07
18
0D
F8
14
F3
11
05
F8
11
FD
05
FD
1B
07
0D
E7
FE
F5
ED
0D
EE
F8
09
06
DD
E2
0C
FE
FE
FB
0E
14
F3
FE
E7
03
E4
FF
E1
F1
13
F4
F0
F5
01
11
ED
F5
05
E2
E6
F1
FC
F3
04
FE
E7
FB
F4
0F
DD
F3
00
04
26
0D
08
05
EF
DD
F5
DF
FC
00
F4
1B
DA
ED
0D
F5
0C
09
ED
E7
FE
03
E8
00
F6
0B
06
01
0C
11
E5
FF
FF
16
25
00
F2
F7
FD
F5
03
F0
F5
E1
FE
F9
FA
25
FB
F7
E7
09
D2
FC
F6
1E
F6
DA
16
FD
08
24
09
01
00
EF
FD
09
18
F3
13
FC
0C
2F
19
18
04
03
22
28
08
01
10
0E
E6
31
F1
07
03
12
F9
E5
FC
FC
25
01
E5
12
16
FF
0A
06
D8
09
F5
FC
D1
F4
1D
0B
F7
CB
02
FC
02
0F
FE
EF
06
FC
13
01
F6
FB
EE
01
EF
E5
F0
10
EC
F0
EA
0D
DD
FB
E4
19
0D
06
20
F6
0C
1E
EC
EF
F3
D1
16
F7
07
11
F2
F6
EB
F9
FF
22
FD
DA
E3
F5
3C
F7
DC
F9
ED
06
25
DF
1F
00
18
EF
FD
EF
F5
EC
FD
D7
FB
F5
F0
0B
18
19
FC
F0
13
1B
F5
01
F3
04
E2
ED
06
0A
2B
F4
F5
07
2D
13
1D
09
18
FD
EE
22
ED
FA
0D
23
E3
E0
F2
1B
27
EA
17
10
E7
0B
DC
0A
F4
0B
F1
05
F2
F7
0D
B8
F8
0C
FE
DA
0B
12
EF
FF
0B
08
FA
0D
F8
EC
F8
E3
1D
00
FB
CF
20
F2
11
F4
F8
05
0D
16
FE
ED
0D
FB
E6
01
13
14
F7
EE
09
FE
11
05
F5
13
01
FE
F2
FF
EB
E8
F2
F4
E9
1B
25
E2
00
05
F8
FC
F8
F8
ED
E4
15
03
09
08
06
F6
05
D9
04
04
F7
FF
04
05
FF
25
01
FF
08
DD
05
12
F3
03
FE
05
07
25
EC
0E
F9
1A
EF
F0
0B
F4
E2
0B
00
F3
06
F6
15
07
D7
01
ED
FE
E8
07
0D
FC
0F
13
09
F9
00
F1
1F
EE
0A
FC
0A
EE
FA
04
EE
1F
DE
F2
E2
12
15
03
F6
F9
DF
0B
F9
15
16
04
1C
0B
F3
EC
F9
FA
FF
0C
FD
0C
F2
FC
F1
0F
E9
28
E5
10
07
FB
00
F3
0D
00
F5
F8
1A
03
10
D7
14
FE
EB
06
F4
EF
10
FD
F4
E3
01
FE
04
EB
0F
F9
F1
0B
FC
F8
F9
18
F4
18
F7
15
1D
E4
F2
D5
0D
F5
F8
F7
F2
22
F8
EB
06
DD
FB
FB
19
00
F5
E7
E9
F9
09
E8
0E
01
11
0D
F7
0A
00
02
1A
FF
07
01
00
E6
F4
FB
26
0C
09
FF
E8
05
EC
FC
E6
F3
13
0D
26
19
C2
0E
00
FD
C9
06
F6
E2
E4
08
DD
0C
F0
DD
11
04
07
EF
DE
EB
EE
F4
ED
01
0F
07
EB
EB
F8
02
01
FD
0F
F5
16
F9
0A
13
E3
F8
F9
FF
11
FA
F1
F7
0D
F7
03
00
FE
F3
0A
FB
0F
0B
0B
FB
EE
EE
0A
03
02
F2
00
F3
06
16
08
F4
02
05
EE
FB
12
FF
01
14
15
26
0D
07
0B
F1
1F
DF
FD
E2
E9
F8
E2
FD
EB
F3
FB
E8
FB
F1
01
FB
0A
04
F1
0B
F2
EC
F7
03
EB
0D
16
F2
FD
02
06
EE
F2
04
FC
F5
E3
02
0F
01
D5
0A
10
E5
02
F3
E9
04
12
EC
02
00
FD
13
FA
F6
08
06
FE
02
11
00
12
E6
E8
14
20
ED
06
EF
1B
06
F5
15
F1
0A
F5
F0
02
F0
F6
FF
11
0D
08
04
EF
F7
02
FE
FD
E9
0F
0E
F2
F5
F6
E1
FB
F4
06
0A
F1
08
04
14
F7
FD
F6
F8
0E
E7
0B
0E
10
04
F2
09
08
F2
16
02
F7
FC
07
02
DE
E7
EB
0A
FF
FD
08
EB
0A
F9
EE
0F
FA
1E
03
F7
FD
12
F9
EF
1D
F4
F9
FA
0E
02
FF
0F
FD
09
ED
10
ED
08
09
FE
07
F6
10
FB
08
E7
FB
FD
FA
F4
EE
F5
08
F5
FD
F6
F5
F8
0B
07
05
F3
04
FA
0B
07
18
03
05
F7
07
FC
FD
01
F3
02
1F
F7
FA
F6
F3
F3
FD
01
FE
01
02
06
19
FC
F3
FE
EF
FC
EB
F0
FA
F1
16
09
0E
0D
FA
F5
14
EA
F4
04
09
F0
F2
0F
0A
FB
02
02
00
04
F6
07
02
F8
F2
03
F6
FC
F2
02
02
F7
11
00
FC
F3
03
FE
FD
16
FB
0C
FB
03
0A
00
00
F2
F1
F2
0E
F0
FA
12
FD
0F
DD
F4
F9
17
D4
03
08
E3
0A
FD
EB
11
F7
FF
08
02
20
F6
02
E5
1F
F8
09
FF
FC
E0
04
FF
EA
00
FF
02
E5
E9
0E
EB
F8
E8
00
10
2B
EF
1B
15
F4
DA
07
18
F4
E7
EF
F3
E7
F4
FB
FC
09
EB
16
00
0F
0D
01
D2
EF
F2
1B
0B
FA
E1
02
14
DC
01
10
DA
0D
F7
01
F6
19
0C
06
F3
F4
D7
F2
10
EB
FB
FD
DE
2E
00
14
EA
0C
FB
EF
0A
F0
17
12
04
FA
03
DF
07
09
F8
FF
01
0B
FE
11
14
FE
02
06
0D
08
FF
05
E6
03
EC
10
0B
1D
F6
22
1C
11
ED
EB
05
FD
FF
EE
F7
1D
F4
FB
09
FD
FB
F8
1D
FB
FA
12
F3
ED
FB
F8
00
09
07
F9
10
04
07
F5
09
FE
EA
F4
EA
F5
FD
F4
F8
06
FA
08
03
FA
0D
F3
0F
DD
F8
0B
06
FA
F6
0A
13
F4
DE
02
23
F3
08
0D
F0
FD
16
01
05
EC
19
08
FB
02
FC
13
F6
F7
FA
FC
F3
E5
F5
DF
1A
11
FC
02
F3
FD
FA
12
10
F4
FB
F5
15
F8
0D
0A
EA
ED
E9
16
DF
F4
E8
FB
F3
23
D5
E4
18
F2
0C
11
EA
FE
05
F9
04
DD
F2
FE
F9
0A
E8
00
0D
0E
05
08
F3
F9
D9
0C
E2
0A
EA
01
F4
FF
F9
0B
ED
FD
F3
E6
F0
0C
01
08
07
F5
FF
00
21
00
21
F9
D3
F3
E8
DF
FF
F9
02
01
FC
0F
F5
EF
D3
F5
06
FD
2B
0A
FB
F4
47
E2
05
F9
10
0F
10
F9
00
09
F2
11
02
0A
DF
06
23
18
0E
D3
F4
22
FB
18
0C
F6
08
02
F7
ED
F6
F0
F6
FC
13
03
21
08
EF
0D
14
0E
00
0B
0F
D9
F2
E3
FA
0E
07
E7
DF
00
0B
15
11
1D
02
05
1A
11
ED
16
F9
F8
0E
00
FF
08
02
EF
0A
F7
16
E6
12
10
12
16
0B
FE
00
1B
F2
FE
E9
EE
DF
FA
F9
F9
FC
FC
F8
FA
FB
03
20
0C
E9
08
02
EB
E8
F1
F8
0E
EA
EE
02
02
0F
11
19
05
EA
E2
07
09
01
0F
02
FD
15
04
EE
15
E9
F1
F5
FA
0D
00
13
03
F9
13
F3
09
09
F7
FA
EB
09
09
FC
0D
EF
1D
F6
F4
EE
F8
FF
07
F6
0C
0F
FA
F4
02
F8
02
D0
00
13
F1
08
DF
FC
F5
0C
D2
F1
FE
F8
DD
08
E7
14
05
F9
F6
FA
13
F3
EF
F4
19
F2
04
01
ED
EF
01
FA
05
EF
F7
F9
F6
F1
1A
0B
F9
01
E0
0D
1D
FB
12
F5
06
F2
17
26
F0
FF
EB
F8
F1
EF
FB
17
F1
F2
F3
FF
FF
05
06
DD
F1
F6
03
0E
13
EE
12
19
F4
06
FB
E7
FE
F6
F9
00
F6
F7
0E
E1
08
FA
F5
0D
0B
07
EB
F9
22
F9
08
02
EB
07
EB
FE
FC
FB
20
13
05
0C
F1
0D
EB
F3
00
17
06
06
1B
F7
FA
EC
EC
F6
EA
F0
E9
19
11
08
0A
0D
EB
03
E0
D6
FA
07
E4
08
0B
13
F6
11
EA
0A
F0
08
11
F9
1B
F8
F9
F9
06
F0
02
09
F2
06
F1
FB
00
16
E0
09
E4
E4
F0
16
ED
E2
FE
12
06
F5
03
08
DF
07
F4
F4
14
F5
21
0D
F2
03
1F
03
0C
E8
ED
FF
E7
2C
FD
FB
13
02
E7
13
F2
11
00
D3
03
01
1F
F7
15
0A
FB
F1
06
12
EE
F3
0A
09
F4
F0
F5
02
F6
F3
D2
FA
01
FB
DC
FB
FA
06
0E
0F
02
0F
CF
FC
EA
05
DD
FF
F6
22
F3
12
FD
F6
FF
E3
F6
25
FB
14
FE
03
F8
F4
FF
D9
F5
F3
F5
EF
06
1C
DA
1C
D1
0C
F1
F9
04
FC
10
0A
06
FB
08
F8
03
04
13
F3
21
0A
F2
EE
FC
05
02
DE
01
0E
09
00
FB
F6
F0
F4
F7
09
01
06
05
FE
25
02
0C
FC
F1
EE
0F
EB
EF
27
F5
11
FC
0B
00
F4
FF
EE
1C
F6
FF
C8
FF
14
FC
FB
FE
04
03
EF
F0
FD
F4
F2
02
FB
04
20
28
EB
F7
F6
0B
F3
F9
00
F0
0A
F9
F1
03
FE
05
E8
FF
0F
F4
01
FF
E3
FE
F0
00
F2
F7
FD
06
0B
DC
ED
10
04
F4
02
06
FB
EC
F0
EF
12
F2
22
EE
FA
FE
F0
0C
F9
28
08
E3
F6
00
04
04
F8
EE
0A
02
F8
00
F4
00
EA
FA
FD
F0
0E
03
E9
FF
F0
FC
FD
11
04
FB
04
02
28
07
F4
FA
F7
05
0D
01
F1
12
0C
01
14
F7
12
04
1A
EC
DB
FA
F8
F8
F6
EB
E3
13
FA
0A
FA
FF
FE
E3
02
FF
F1
FB
F2
02
DE
09
F5
F4
00
14
F9
02
06
EB
F7
F4
E2
0F
DB
06
19
07
0C
D6
11
E7
14
04
0C
FB
F7
F9
F3
00
0C
F4
06
03
FB
F3
F8
FF
F0
08
FF
00
11
11
03
EA
DB
FB
F5
05
FD
00
DF
1D
F4
08
05
E5
EB
01
FD
F9
0C
F0
FE
F8
FA
FD
F5
FE
00
09
1D
FF
F9
EF
FE
FC
07
13
08
02
12
02
E6
FC
F8
FC
13
11
0F
E6
0D
F6
13
05
08
FB
F3
17
15
EA
D6
0D
01
FC
06
FD
FB
F0
EB
0D
F5
F8
FD
F2
16
06
F0
F6
FE
09
11
07
FD
F1
F9
F2
FE
FA
0A
EF
02
F8
ED
E8
FF
F1
01
00
06
FD
E7
11
FE
FF
15
01
0D
05
08
FC
E7
FB
FA
F5
2E
F7
F8
0E
ED
06
F9
06
0D
0D
EF
06
F1
08
EC
FB
F3
FD
F9
FC
02
F3
01
DF
08
F7
FE
03
0A
F2
DD
11
10
F3
FB
20
01
0C
FA
F9
EE
05
DC
FD
15
F9
11
07
07
05
C7
E0
01
F6
ED
01
DC
04
04
06
06
F5
05
09
F0
0D
F6
EF
09
14
F9
02
09
08
18
E4
05
E0
10
F8
04
10
F8
1C
EF
FE
EC
0A
F0
F3
EA
09
FA
1A
F2
ED
E9
01
00
F8
00
FE
F2
0E
ED
EF
03
E0
F3
F4
FA
F1
0C
21
F0
F8
13
16
07
F2
E1
11
FD
03
FA
F8
FA
EB
FE
F0
17
02
16
F9
F5
07
EE
E5
F3
FE
F6
07
0D
F7
FD
0F
FC
F1
D9
13
F0
04
F5
F8
F5
EA
EC
EF
05
06
EC
E6
FB
FC
0A
FA
E7
EF
15
07
F0
FE
E1
FF
F7
F0
0B
DD
E7
E0
EE
0A
0E
E9
F5
19
25
EA
1C
07
F1
04
FB
10
01
28
F4
FF
1E
FC
EA
FF
FE
0D
00
08
DE
FE
17
10
F7
0C
0D
DF
DE
F1
04
05
25
00
ED
10
0C
0F
EB
0A
FF
FD
F7
02
FA
07
13
16
F2
01
F4
F4
ED
F8
F6
1B
18
00
0A
07
E3
CB
2C
FA
1E
0E
DD
F3
EF
00
ED
E7
FB
11
F3
25
E0
E6
FF
FC
FA
F7
E9
01
F7
0A
EE
05
09
F4
F0
19
05
FB
0C
EE
F3
DF
F8
F5
04
0C
03
FC
C9
CB
EE
ED
EB
03
DD
15
FA
18
05
18
C7
ED
08
15
0A
D4
FA
F6
FC
E7
01
E7
04
EC
04
0D
04
14
0B
F3
01
FC
08
EC
DF
F8
F1
FE
FB
FC
06
FD
02
03
28
0D
11
FA
FF
E5
FF
1F
E7
06
F2
DF
03
F6
F2
F0
02
21
06
F7
FC
E5
09
0B
E6
06
FC
12
FA
0D
04
E4
FC
E4
1C
F7
EA
FB
0A
EF
07
12
0B
02
F9
13
FE
0F
F0
12
0A
06
DC
15
12
EC
1D
02
03
E0
E7
01
23
0A
EF
1E
E3
F3
FB
03
E6
F9
09
F9
FC
0D
F1
F7
F4
0F
02
01
06
F8
13
06
F1
DA
03
15
0C
D4
05
06
03
02
EB
FA
F3
1C
FC
0D
FA
F2
06
00
0F
07
DE
07
F4
03
0B
F9
11
05
05
E3
F1
08
2D
FC
F4
00
0F
13
0B
F5
F7
ED
03
F5
F5
ED
F6
EA
0F
F3
0A
01
E3
EC
05
FE
0F
E1
F6
EE
00
F5
EF
F2
FF
F0
FA
09
06
08
05
ED
04
20
0D
01
ED
01
F0
F9
FA
05
17
FE
F7
09
01
EE
06
08
F5
0D
EB
0B
03
FC
F7
FE
FE
0C
F5
F5
FD
1A
08
F6
F2
13
10
0F
F8
E6
F3
09
FC
F9
F7
14
09
0F
0E
FE
E6
0F
FC
01
E5
F2
03
EA
FB
E2
03
EF
F9
F5
F0
FF
0B
0E
05
FC
1A
FF
F9
F2
14
EB
F4
17
EB
07
06
0B
E8
23
07
FE
F6
EA
0B
03
07
0C
04
F1
F7
08
0C
F0
0D
02
0E
F4
F9
00
18
02
F1
10
E9
FE
F4
FD
06
10
FE
05
EB
EF
FA
05
0C
F9
F1
03
FF
DA
29
F8
F8
F3
F8
09
0C
F3
00
04
06
F7
EE
09
E9
05
EC
0B
0A
F6
02
F1
EC
0C
FD
FE
F7
F7
01
FB
03
F4
07
ED
0A
F8
02
07
F1
F7
11
FD
F8
F6
FB
08
10
04
F1
F6
0A
E1
13
F2
00
01
17
0B
F5
F2
FF
F9
EF
0C
00
03
F6
D8
06
F0
02
0B
04
F7
08
02
0A
14
FF
10
0A
E4
EB
05
FE
F0
0E
EC
F5
EF
05
F4
F2
FD
F0
ED
F3
EC
FB
EC
F6
F1
F6
FE
F2
0D
FA
00
F2
07
DF
0C
F1
0C
03
F7
ED
FC
0F
ED
F4
FD
F1
FE
04
F3
0B
13
01
0B
F6
FB
F8
F4
03
08
0B
ED
F8
0C
EF
08
D7
0B
F8
E7
0B
F8
19
06
EF
F4
02
D8
07
FD
E7
10
13
15
2A
FD
F4
F8
FD
EB
FD
FF
08
F4
13
F1
F6
FB
06
0A
00
E8
F0
0A
FA
FA
11
E7
10
01
05
0E
11
E5
F5
F6
ED
03
10
02
ED
08
F1
FB
F0
D2
0B
10
09
CE
08
02
EB
FB
0A
CA
0D
17
0B
E4
09
06
F0
04
0A
15
F3
FE
E9
FA
F7
0D
F4
0A
FE
0A
ED
FC
F5
FC
F1
EF
F6
DF
08
14
EE
17
F4
FC
F7
11
0A
E1
0E
EE
F1
FE
06
13
F1
02
F1
09
0E
07
04
06
DF
FC
F0
08
00
F8
EE
09
F1
D2
FE
03
E4
01
0D
F4
F7
00
10
E3
E6
05
F1
08
F3
02
06
E1
F1
1E
F7
F9
F7
FE
F4
06
ED
E2
0B
01
1E
EE
0D
D7
04
00
02
F8
04
F0
0C
09
08
F4
EB
07
1B
01
0A
F2
FC
11
06
02
05
0B
E3
F0
E0
04
03
EF
0A
10
02
0C
01
C5
EB
EB
14
05
14
E9
06
F4
04
0B
FE
0D
F8
00
ED
15
12
F4
11
0E
FF
0D
FF
0E
12
F5
F9
FF
FE
F7
01
00
0B
E4
F2
F6
FC
0E
08
0B
2C
FC
1B
04
EC
FA
02
EC
06
14
E0
EC
FC
EF
17
13
FE
0B
EC
04
F5
EF
F3
1E
DF
E4
FE
FE
14
0D
E1
EA
0C
06
EE
EE
0B
F4
F6
05
EF
12
05
F8
E0
E5
08
0D
00
05
0F
F9
D4
ED
03
F8
18
F6
01
07
15
FB
FD
D9
FF
0A
0C
03
F8
11
00
F8
FA
17
FE
F1
FD
F8
02
11
FF
FF
03
E9
F4
E5
14
FC
11
E5
04
EB
FB
0D
FC
1A
FA
23
30
07
06
05
08
0E
DD
01
0C
06
ED
FD
F6
07
F8
17
0C
EF
EA
0A
08
E2
0A
F9
F3
0A
F6
26
EE
01
FE
0C
1A
16
17
00
F1
F3
1B
EC
FE
00
EA
08
25
E4
EB
1D
F0
07
F9
FA
04
06
F6
F3
F9
EF
07
08
0E
F0
15
0F
FE
FF
FF
FD
08
F8
F2
FB
03
F7
F7
FB
11
FB
F3
F3
06
2E
FA
0A
F3
F6
F9
EC
04
30
16
15
F1
0E
04
05
03
F2
15
10
0C
FA
09
04
E5
E9
1A
F1
21
F1
0E
01
FA
01
EE
0E
07
F6
FA
19
0A
EB
FE
F6
EE
0C
E0
15
F3
F5
08
FE
FE
FB
E6
09
D7
0D
FD
FB
E0
F8
F2
0A
FD
0C
16
05
B8
E0
F1
EE
D2
FF
ED
E9
13
09
E0
04
E6
02
EB
FE
16
F2
05
F3
F6
05
F9
FF
06
E6
F1
12
0E
08
07
EE
FD
14
15
05
00
F3
EE
04
01
FF
15
FB
F8
05
03
F0
C0
03
08
FF
F5
CA
15
EC
09
E0
F4
F7
FE
D9
F8
EE
0B
EE
03
FA
07
00
FA
F9
F7
14
EA
F6
0C
11
EC
FF
DA
EA
FE
00
09
D3
EB
08
05
0B
F8
E9
F2
04
EF
06
0A
EF
04
FF
0D
0F
09
06
FD
FC
F9
05
05
04
E6
04
FF
0F
FA
F1
11
F7
E6
01
06
04
FE
14
1B
DB
F9
F7
00
E8
F1
02
FB
11
FF
EE
E9
19
00
F3
18
08
0E
E0
F7
FA
FB
0D
E1
EB
1B
0A
ED
E8
0F
18
FE
06
FA
E5
F6
02
E8
13
11
01
EC
03
03
CC
F1
F4
F9
F1
03
F1
0F
03
08
EC
EE
08
F1
17
FB
F3
15
FF
FE
F9
EE
FC
FC
FC
0A
F6
0C
13
F7
0C
FA
EB
12
FD
FD
1F
FF
E6
F9
EB
FF
F1
01
09
00
EB
E4
03
05
F1
E1
07
FE
06
EE
16
0A
03
E5
03
F5
03
FE
09
02
11
FF
F6
ED
FA
08
09
EB
03
36
F1
16
16
13
07
FB
F3
EB
0F
09
1F
33
0E
0E
02
04
16
E9
FB
03
E7
FB
E0
16
10
F7
EC
F4
EC
F9
F0
DC
0E
21
12
EF
14
09
1C
13
F8
EB
0D
0C
05
07
04
0D
0B
F5
12
FB
E7
06
FE
FD
01
EF
09
02
EF
FC
F3
0B
F3
DA
02
06
F7
0A
01
0B
F1
FE
EB
0F
F2
FC
05
FB
0C
EA
04
FB
02
10
03
FE
15
EC
11
12
07
F6
FD
0B
07
08
FF
19
11
FE
19
F1
ED
E9
F7
FE
0A
04
00
EC
FA
0F
14
EF
13
01
05
08
0D
02
18
0E
F7
10
EE
09
FD
EB
1C
FA
F7
FD
12
F4
F9
F9
02
01
12
F0
F6
FB
F3
F4
15
05
09
11
0B
01
04
03
04
05
04
FF
0A
F3
FE
FB
FF
08
E6
FE
F1
08
10
07
EC
E9
10
F1
E4
0A
FE
FF
14
08
14
F8
04
06
F4
F5
EE
F4
00
F8
F0
01
EF
F3
FB
0F
F7
EC
0E
FC
15
EF
0B
EF
F2
08
15
05
0D
0A
FA
03
0D
ED
EF
02
09
FD
F8
14
0B
FB
13
0A
0A
E4
05
E7
12
05
06
0B
FE
0E
FE
EE
14
F5
12
10
02
FE
FC
F2
F9
12
FC
13
EE
F7
F8
04
05
00
07
05
14
F5
02
E9
FE
09
FB
13
ED
03
19
F1
0C
E9
0F
03
FF
FA
16
FF
ED
FD
FB
03
04
08
19
E5
03
03
E5
FF
F3
06
FB
0B
ED
EE
10
F9
0D
FF
FD
10
01
0B
F6
EB
F4
06
0B
0B
0D
EF
EF
ED
FB
05
F0
E0
F4
E7
F6
FC
10
0E
0E
F8
F2
0E
E8
F1
08
09
04
F2
03
FA
FB
13
FE
0B
EF
FB
F8
F5
FC
F9
F1
FF
F6
04
FF
08
FA
F5
F9
F5
E7
0A
04
0F
E4
E3
F1
02
08
18
F8
0B
08
03
0E
FF
E3
E3
04
04
FD
0B
FE
DC
F6
FB
0B
01
F5
17
F7
08
F5
06
F2
FF
1E
16
FD
1E
FC
DE
F5
F4
FA
08
FA
05
F5
1B
E8
F3
02
12
0B
D4
0D
01
F1
02
03
FC
20
F9
0A
0C
11
E3
0E
06
F0
09
FF
0D
04
06
F4
F8
D6
0B
0D
FE
EB
ED
0B
03
14
EF
EE
FA
0A
0B
0B
E9
02
09
E2
FD
F2
EB
19
03
E1
F9
F8
0F
EE
F4
1F
FA
EB
F3
0A
0D
EC
F5
0C
10
E9
12
09
E1
FD
F5
F6
F0
17
F5
F3
FB
17
F9
F9
DB
F9
F7
02
13
DD
03
F1
FE
F2
F6
F5
F9
01
04
02
0B
12
F4
10
05
F4
1A
FF
EF
F0
15
03
FE
1A
0C
D5
D9
0B
18
12
1C
F4
07
E4
F3
14
F1
04
03
DA
F3
01
F1
08
08
09
F9
01
F6
DF
FA
F6
F5
00
11
09
F0
F0
F8
F7
F5
05
12
F8
F5
1D
0E
E6
02
14
FC
03
FC
13
E5
08
F0
12
05
FB
E6
1C
0E
E9
17
F2
F0
ED
ED
D0
EA
F7
F8
0C
00
F2
08
F8
EC
E8
0F
0F
FB
03
1A
FD
05
04
05
FB
0B
13
0E
0B
F8
F0
E6
11
E4
03
F3
FE
F7
0C
F6
08
15
0B
FF
18
FF
EF
FE
0F
F5
F8
F3
EB
08
EA
03
05
18
21
17
0A
E1
F3
FF
F0
3A
DC
EE
31
1D
ED
E4
32
FB
F9
05
15
F8
0A
04
2D
F2
F1
F8
04
FE
00
D5
0F
03
13
03
FE
D8
D1
11
F2
1D
EE
FD
FA
00
0F
08
EA
F0
09
F8
0B
FF
19
F0
F4
1E
03
CF
2E
1E
F8
D2
06
1A
DB
03
3B
E1
F9
EE
1A
1D
BE
E3
F3
F8
C1
F7
04
C1
1D
F2
10
FA
2F
F7
02
FC
0E
07
2C
ED
D9
06
0C
0C
BC
0A
E7
11
F2
F6
0C
F3
FF
F8
FF
1F
F8
F1
DD
10
F6
17
E3
F7
FB
F5
F9
FF
F1
15
EB
ED
04
1F
26
DF
1D
10
FE
EC
F9
14
13
2B
FC
F8
25
FE
DE
FC
F7
F9
05
1E
13
F2
05
E2
F1
F7
0F
0C
F4
FE
F6
DD
02
01
EF
EE
ED
FF
DF
FF
07
FC
F9
E6
04
01
13
FA
26
21
F8
00
0C
12
0C
08
FB
DB
F6
0C
08
2A
E8
FE
F8
12
04
06
F2
F7
E2
F6
13
FC
F6
F6
07
1A
FA
2E
FD
03
F9
F5
03
EA
EE
FD
06
08
F3
F4
F3
30
0E
FB
ED
E6
18
FC
13
F4
DE
11
FA
FF
F9
D9
03
F8
F7
F9
F2
0D
F6
E0
F0
E0
02
14
FE
F7
E0
0A
FC
E8
1D
0B
F8
F0
08
07
FD
F4
04
17
EB
0A
05
EC
E7
F8
F7
0F
FE
EF
09
05
F0
F5
F5
0C
13
DF
F9
F6
02
07
F4
08
06
05
ED
12
0B
E6
04
EB
13
03
F9
04
10
FE
F6
06
FD
FC
FD
FD
1A
FF
02
FA
0A
F0
FA
E8
FB
04
03
17
F0
FA
FA
F8
EE
FC
FC
03
F8
FD
09
FC
FD
05
F4
0A
E3
F0
02
0F
12
F4
F2
E6
ED
F5
E7
0A
05
EA
00
FA
04
F3
13
17
F0
03
F5
06
F0
F5
F2
00
05
E5
08
09
01
E2
11
FB
EC
08
D8
EF
ED
0C
0B
F7
F9
F0
02
01
DE
EB
FC
05
0C
F1
E9
14
02
F6
F8
F7
EE
00
FE
FD
F8
F0
06
F0
04
01
16
0D
00
03
EC
02
F8
1C
0E
04
F4
EE
FB
02
F4
02
1B
FE
F0
FF
0B
EF
1C
21
FB
E8
F9
E6
11
F0
FD
FD
0F
E9
FD
E1
14
DD
DC
D9
F2
00
23
EF
F8
FE
F5
13
0A
04
E2
16
FA
0A
F8
EA
FA
FA
08
E8
08
FE
0B
01
14
FA
02
F7
FE
0E
0B
03
EC
20
DA
F2
FC
FF
F4
2C
F9
FA
F4
F0
F1
09
05
0C
F3
ED
16
03
FF
F6
0A
F3
CC
0E
F4
F4
FB
06
D4
04
F4
F9
DD
03
F2
FE
F5
FD
08
F4
0D
ED
0A
09
04
F8
FD
12
0D
F4
F0
05
DF
EC
06
0D
11
12
F6
02
0F
FC
08
0E
03
F1
14
F1
09
0F
EE
0D
03
05
0B
DB
0B
F4
EC
14
EC
0B
1B
0C
01
01
FA
04
08
F6
F7
14
F8
2A
03
F8
1A
04
F5
DD
F4
F9
E7
04
FE
06
FF
FD
EC
01
E9
F1
1E
F4
13
F3
D7
1A
FB
03
F0
F4
F4
FF
FD
E0
FD
FB
F3
E8
09
F3
FA
10
EA
0E
F2
05
01
08
12
00
12
08
E7
0C
EE
2E
FD
06
05
FA
18
F2
FA
03
F9
1D
F0
F7
06
11
FE
00
DE
05
EF
17
E9
F7
F8
FE
E9
0F
0B
F9
13
FD
F4
17
EE
1A
0D
07
02
F4
05
02
00
0C
F8
00
04
00
16
07
06
01
09
F1
F7
F2
06
00
F1
EF
E0
06
01
01
00
00
FD
08
11
06
E6
0F
08
FE
FC
03
0D
FD
05
F2
FA
F4
07
F7
FE
EE
E5
FB
08
EE
01
FB
F5
F2
E3
E4
07
FE
F0
21
FF
00
E8
0A
F6
08
02
E3
0F
1F
03
0A
06
06
10
03
07
08
FC
DC
FF
0A
16
EE
07
ED
08
14
D2
FA
0A
0E
EC
F6
03
12
F5
07
01
EC
0B
04
08
F9
F2
15
F6
0B
FC
03
12
08
F3
0C
F3
10
14
ED
F5
0B
EE
24
D3
F6
F2
EF
17
0A
15
FC
F9
18
16
00
05
08
12
FA
E0
F5
F3
1D
13
DC
04
07
EA
F8
01
EA
F4
F7
E8
03
F1
14
E7
EB
0B
F6
09
FE
EF
D4
ED
E9
FC
EB
F8
FD
15
0C
F4
FC
E9
F1
DD
18
11
19
FF
04
EA
EE
0B
07
F6
F5
DB
0D
FF
0B
F8
FF
12
01
F2
0D
E5
E1
F8
17
0A
F5
F7
15
F7
0E
F1
04
07
FD
E7
12
02
F6
F7
09
FF
F0
01
F1
F9
09
08
F8
01
1C
10
02
21
FF
EF
F6
F7
15
15
1E
F7
EC
01
07
FD
18
E8
EE
F5
1E
F2
F5
0B
1E
10
FF
F8
F4
E5
DE
FA
FB
03
0C
09
F2
02
13
08
D8
FA
EE
0E
05
03
0C
16
1A
F2
F1
05
F4
12
0D
EE
07
E6
07
F3
01
EB
F9
19
0C
F3
02
F6
F5
FC
E1
17
15
F9
F0
04
30
13
FB
FB
09
F5
E1
20
FB
F1
F0
05
11
1D
06
01
FB
FE
E4
07
FA
10
EE
12
1B
EF
04
F0
DB
D2
07
11
1B
F7
0D
F6
FF
14
F8
F6
F9
F8
08
10
01
05
06
FE
FE
FF
F3
1A
04
F8
C9
F1
01
D9
F9
0F
03
03
0E
23
0C
EC
0A
0A
F4
F2
04
00
DF
EB
E9
F0
DB
01
F2
00
F4
0B
F4
F6
EA
F1
EC
04
16
EF
F1
F1
F0
EF
F4
1A
F7
13
FC
17
01
03
0D
01
0A
F6
0F
FB
FD
07
00
02
0D
03
00
F2
F4
F7
0F
12
B9
F4
05
F5
F1
EF
0F
14
F5
11
EE
0B
12
F1
F6
E7
26
E5
07
0D
EF
F6
00
FA
01
FF
F1
ED
0A
15
F6
0D
EC
0B
FD
06
FC
E2
06
EA
F4
10
EC
DA
FC
0A
00
15
F6
04
0F
F2
FC
F5
FE
02
FD
14
05
16
F5
09
F8
F6
FB
E9
FE
F1
01
FA
E6
02
E9
0C
09
00
13
E1
FC
FF
12
06
ED
F4
F1
13
0C
D4
EE
16
15
F9
03
13
F8
EE
13
F6
07
ED
0A
1A
08
0D
01
EF
F9
FF
0B
EE
03
03
F0
0C
DE
06
09
F5
E0
04
13
18
FA
F1
1C
09
FF
1E
F3
D9
02
E0
06
1B
FF
0A
F1
0B
F2
02
03
F0
0A
10
15
13
F1
FA
F5
18
0D
FC
24
FA
14
E7
F5
E6
06
F3
0C
15
E4
0E
11
06
F1
D7
04
ED
00
11
0F
FD
F0
0A
EC
0F
E8
19
F1
FF
F1
F0
E1
FE
29
F2
0A
0F
ED
0A
DA
E9
EE
19
F8
00
EE
F5
ED
07
EE
0F
F5
0F
E7
F1
09
F9
06
FD
DB
F4
0E
05
FE
10
0B
01
05
0E
11
F9
FF
ED
FF
FF
FA
FC
F9
F9
0B
07
EF
EC
FA
05
10
FC
02
09
0D
0A
0D
01
08
0B
F0
CD
FB
F5
E3
E5
0C
F7
09
EF
F7
F6
FD
0E
F7
F5
07
0F
F5
02
09
F8
0C
EA
0A
07
F1
F1
FA
FA
F3
0E
FE
FC
0B
FE
E9
FA
FA
10
17
F7
FF
E9
13
07
F1
F8
FF
F2
0D
EF
09
FA
F5
0D
1D
18
19
F3
F6
F8
E9
0F
FD
F1
08
07
08
09
18
06
F6
F7
F8
E5
03
11
06
FF
F4
02
FA
19
F9
EB
EA
08
DA
04
F0
15
E5
07
F4
FB
06
F6
F8
F7
FB
F2
03
F0
04
FE
EF
F5
F4
08
02
0A
F0
FB
03
06
E6
08
13
F5
F9
08
F1
14
0C
15
10
0C
FD
1D
F7
FC
0F
0A
EA
EE
0B
EA
06
08
EE
F3
F6
12
F7
FF
DC
0D
06
F1
E8
1D
0B
F3
16
08
FA
0B
FD
21
FB
FD
0B
ED
01
0E
05
05
01
FE
F5
F9
F0
F4
00
03
0F
08
F8
F4
0F
FA
FB
F0
F9
04
FF
FF
F5
10
12
FB
08
F8
09
E5
F7
E9
FF
09
FC
00
08
03
17
FB
E6
FC
04
0C
EF
01
F0
F5
0D
04
EC
10
09
01
12
E8
03
F2
ED
E5
07
13
DF
0A
EE
11
09
F1
00
DE
F1
F2
04
F9
F0
17
01
0E
17
02
0A
D8
0C
D8
F9
EC
07
FF
1C
FE
F2
FF
07
0B
07
06
F7
0B
D7
F4
F3
14
F6
EC
07
07
ED
F9
09
F0
FA
FA
F1
01
DF
00
24
F8
F0
07
0A
0D
01
1D
EA
EC
13
07
09
09
FE
14
FA
F3
04
0D
F1
FD
FC
FF
0E
D6
D9
DA
EC
14
16
18
16
14
EE
F5
07
E0
EF
06
EF
F8
14
1A
F0
03
FC
F5
F3
FF
E5
EE
D7
18
07
1D
E8
EA
25
F6
08
F8
01
FB
F9
00
06
EF
EE
EB
20
F7
12
1D
24
CF
FA
04
19
22
F9
07
F5
F3
0A
07
E0
08
F7
12
F3
F8
FA
01
FE
FF
FD
0C
04
E8
0A
E2
00
E0
F7
09
EE
14
F8
06
FA
F9
02
07
E9
F2
F6
00
04
FE
FE
13
FD
03
06
F2
FA
DF
0C
0F
E9
FD
F5
08
F7
F7
F6
03
FA
0F
ED
07
DB
02
0C
0B
F1
24
02
1A
07
F9
F1
17
EF
04
E9
FA
02
F2
18
F4
21
06
FB
02
FA
FC
0B
F8
FB
F9
17
F3
0B
F2
FE
12
E3
04
0C
F9
01
F8
27
F4
F1
F0
04
06
17
01
FE
02
EE
09
13
FD
12
FC
00
02
FB
F2
F9
0B
E3
0C
05
10
F6
11
FE
03
E8
03
EE
FD
06
06
EF
05
F3
03
DD
FD
01
EE
07
27
03
00
04
0C
E5
FE
FB
15
22
EC
04
F1
15
E5
05
F1
F7
EC
13
C9
FF
05
F3
F8
0B
FF
18
F2
00
FB
DB
19
FC
09
D1
15
0A
04
F1
D9
E7
08
EC
EB
EB
0F
F6
08
F1
15
FE
F5
20
13
F9
0F
FE
13
06
10
E5
DE
F8
FA
F4
F7
F7
DB
05
0C
F3
FA
07
0F
EC
FF
E7
00
0E
FB
D6
13
25
2A
1D
CE
1E
1A
2A
19
0A
21
F2
DD
FE
EB
EF
EA
1A
07
01
FB
00
EF
F4
F7
01
04
FD
06
01
E2
E6
F4
EE
16
F8
F9
FF
18
F1
0B
F0
D7
E9
F7
FB
15
2B
F0
F8
0B
FB
1F
E2
0A
FE
EF
3A
F8
14
F6
FF
0B
0E
0F
0A
FA
04
0F
F7
0F
F0
1E
00
18
F7
F7
16
14
F8
D2
E7
33
EA
F2
F4
EF
FF
0E
FA
FE
3D
F4
11
EA
19
F1
02
F7
FD
D3
FE
E1
F4
F3
CB
F7
EC
F1
0D
E4
FB
0C
DB
F0
2E
ED
D9
FA
D6
18
0B
0E
E1
C2
0D
FC
28
18
01
03
E7
CC
F4
EF
EB
F4
15
15
FE
00
F8
09
E3
16
FE
02
0C
07
D5
0D
15
08
04
E6
02
E4
FC
FC
0D
13
E2
04
EC
01
FB
20
01
04
01
F3
07
F6
11
FD
E3
FA
19
F5
0F
08
16
06
23
03
E4
FA
DE
02
D3
F7
F9
FA
FD
17
12
17
03
EC
12
FF
F3
E2
03
09
0F
E6
E6
02
0A
0E
11
0C
FE
F7
09
1C
FE
0D
FC
01
E4
DB
FB
D9
03
02
06
F9
14
FC
09
FD
E4
F2
F6
F6
04
FB
EE
EA
0E
F0
F5
04
F1
0A
05
E0
F6
EE
1E
07
02
D1
F2
12
FF
04
FB
FA
F9
02
00
0F
01
00
F4
09
06
0C
E7
E9
05
F1
06
0A
07
0C
FB
EE
20
F5
F6
FE
FE
07
DB
F3
17
04
FC
1E
1C
FB
FE
23
D6
1B
0C
F8
01
FE
14
FF
06
07
0E
E5
FE
FA
08
F8
FC
F0
F3
FE
02
10
FC
11
EC
EF
EE
F5
03
F4
0F
09
FD
02
DD
12
D9
F4
06
F0
FF
FB
FC
04
E1
11
F0
11
12
04
07
04
0B
E1
F4
E3
16
0E
F6
EC
05
F3
F9
1A
FD
FF
16
DE
FB
18
04
FE
05
FB
1A
FD
05
EE
FE
05
FC
FB
F5
00
00
E0
E1
F1
EB
EC
FA
03
FD
F4
F9
01
17
05
FE
14
FD
DC
EE
13
03
FA
F9
01
EC
F4
F4
F1
07
1F
02
16
E6
F8
0E
06
EB
0F
11
F8
F6
FC
F8
F9
F3
0C
F8
07
FA
01
E4
16
02
F1
CD
E4
0C
12
0E
FB
01
0C
EF
0F
02
F0
0C
EC
16
FC
12
ED
FA
F3
02
FD
F5
F1
F8
F7
F6
0B
02
FA
FD
09
ED
F9
01
FB
FD
02
02
FE
1D
F5
09
00
EA
02
EA
ED
E7
11
22
00
DD
F7
0B
FF
02
FE
F8
08
FE
14
03
EA
04
DD
F2
E6
FB
EF
F5
F5
0B
1A
EF
08
DC
0B
05
F6
08
07
03
09
0A
F8
0A
0E
D5
FC
F2
06
E4
F6
03
EA
E6
11
FF
FA
01
16
F9
10
FE
05
09
EE
12
06
FF
FB
21
EF
04
D6
20
08
18
18
F5
FF
0E
19
00
04
FD
01
07
EA
17
F9
EA
1C
EE
13
F5
05
04
DC
15
ED
0A
EA
DC
F6
D7
26
0B
08
07
EF
F7
0D
ED
F2
F2
E7
F7
04
F3
07
00
F3
E4
09
FC
0D
05
EF
F7
00
F5
01
F6
FC
17
13
F4
FD
19
FD
FD
03
F9
F3
04
E5
EF
0C
FC
F6
09
01
00
EA
10
04
F1
DF
05
10
0D
E5
08
F2
11
09
0D
0E
08
05
F0
00
00
08
02
0F
FC
F8
0B
19
F0
1D
08
07
02
F9
04
FB
FA
FA
FF
FB
E7
0A
0F
10
1B
DB
E1
DC
0C
12
27
FD
0C
FD
11
FD
03
D6
0D
09
0A
E9
F0
0B
F3
0B
1F
02
02
EE
0C
10
E9
1B
07
FF
0A
15
E9
F1
03
EF
F3
EA
F5
01
10
08
EE
F5
E1
1C
0E
F1
0F
E2
03
01
07
03
09
02
F6
ED
F5
DC
06
09
20
FA
0C
FF
F6
11
FF
FB
FC
09
FD
19
FC
F3
F6
17
FE
F8
03
0E
10
F6
FF
F4
F1
FF
E5
E8
F6
11
FD
09
09
06
09
12
F8
F5
18
FA
1D
E4
17
06
FB
F5
18
18
02
0B
03
08
07
F6
F9
0B
07
EF
CE
FD
1B
03
FC
F4
16
F7
02
0B
FA
EB
E7
FB
FE
01
0B
F2
F3
F7
EC
FD
F1
0F
F0
FC
F0
FD
F3
E4
E9
FB
EE
FF
F5
DE
F1
EE
FA
18
18
F9
FA
F0
E9
FA
0F
15
EA
DA
22
F7
12
0C
00
21
05
D7
F7
D4
E5
E9
1E
18
00
FF
06
F0
E4
FA
01
0A
FD
02
09
0C
EC
FD
F3
FA
FC
04
F3
EB
0A
0F
EA
F9
14
F9
09
17
06
FC
0C
EE
11
15
0E
EF
E7
04
11
FC
0D
ED
F1
E6
00
F1
05
09
01
0D
F9
FB
EA
14
D8
01
EF
09
16
07
F6
FA
05
FB
FB
15
F5
E8
FE
FA
05
F2
24
F8
1E
FB
F8
07
F0
F4
E3
16
FF
E6
05
EA
ED
0C
21
12
05
F4
07
09
F3
F0
16
EF
F5
02
0A
F4
F0
25
0F
E9
F4
12
2B
0F
0B
11
F7
F9
ED
F8
ED
ED
04
0E
00
07
EC
FB
EE
13
0A
05
E9
D8
02
ED
08
F5
17
FE
FC
FB
0E
E6
0F
08
EF
02
F1
08
FD
05
18
08
EB
0B
09
F2
FB
FF
E8
D0
0B
01
FA
FF
0C
05
F6
F8
FC
06
F0
F3
F0
16
CD
0E
E2
EC
FC
1C
F5
FF
D7
DA
D5
1D
E0
0F
D6
0D
11
E7
04
EE
19
EF
FE
FF
E9
12
F1
0A
F0
FD
F7
CE
F2
F4
FA
FB
F3
F0
23
EB
09
DF
02
F2
19
0E
07
FC
CA
FB
17
F6
19
B5
02
F6
0A
00
F6
FB
F8
06
00
C9
2B
E1
07
0A
0A
F1
00
DB
F8
0F
09
03
F7
FF
FE
09
CB
EC
07
09
FA
F7
13
F2
07
FE
F6
C1
F5
EE
EF
0E
CD
03
1C
09
01
15
08
FE
06
2D
00
17
10
F2
0E
FF
FB
0D
E6
EF
EC
FE
EB
F4
EE
06
04
C7
E7
D0
07
03
33
EF
FD
FE
E9
01
0E
D4
16
FD
1C
F3
EB
F9
FC
EF
09
FC
FA
E2
F7
F9
E0
2A
FF
EF
06
09
18
F4
13
D4
00
F9
EA
07
17
FC
F3
FE
05
0E
08
FB
1D
F3
FC
02
F3
01
F6
0A
0E
FF
0D
DE
EF
F8
12
FE
FC
FE
F8
0E
17
F7
F9
01
15
03
14
F9
08
F6
FB
06
0D
05
E0
E9
03
0E
F4
07
00
06
F4
F0
04
FF
EE
0A
01
0E
07
F5
0C
FA
EC
FB
F3
F9
FE
08
02
15
11
03
05
0F
FE
F2
D9
FD
F0
01
F6
E8
FD
EB
FD
F9
06
FB
ED
FF
EB
04
02
00
08
F9
F0
F7
0A
14
F9
03
00
F2
FE
F5
07
01
F7
0A
0B
FA
F8
ED
FD
E7
0D
07
17
FE
1F
02
FA
FD
FC
EB
EB
E5
E1
F1
06
0E
12
EB
06
FF
F7
F2
EE
07
01
FD
FD
07
F1
02
F0
00
F3
FF
08
F9
02
F7
FE
12
04
11
09
F4
01
FC
11
FE
0D
F0
09
EE
CE
E9
0A
0B
EE
0A
0E
DA
F6
F9
13
FD
F8
EE
05
0D
FA
FC
F6
0D
02
03
F5
FF
08
06
EA
F7
F5
14
F6
05
08
0E
FD
0F
26
0E
EA
FB
0D
0A
10
D9
01
0C
E7
08
07
1A
0B
04
FF
F7
FB
0B
EF
04
E3
EC
F8
EB
E3
03
12
FD
07
15
08
06
E2
13
07
F0
FA
CF
E3
EA
16
ED
E1
F8
0B
F6
13
1A
F6
F6
F1
E2
0C
F1
07
00
FA
0C
FE
10
10
F8
07
FD
03
F8
0C
09
00
0F
F2
00
FE
0A
FA
F4
09
15
0B
14
FC
EA
04
F7
06
09
07
F2
11
F1
10
FB
0E
F7
14
10
02
E3
05
01
F2
05
11
0D
01
FE
12
12
D8
00
08
04
FB
0B
0E
EF
F4
0A
12
00
06
EB
F1
FA
FD
EE
E8
F8
05
10
04
10
0D
FC
ED
FE
F9
0D
F6
FA
E3
EF
00
06
F6
0C
02
01
F4
FD
E8
F5
ED
13
07
F5
09
05
0D
03
00
F1
01
FF
08
EF
EC
07
03
FE
11
02
04
F2
13
EB
F2
FF
01
00
00
00
02
FA
F4
07
08
EF
0F
F1
F6
F6
0C
00
F2
04
14
0C
F6
F7
0C
FE
1F
F7
F6
FC
0D
F1
13
1C
FC
1B
02
FF
FC
01
00
1B
11
FD
FC
DC
0D
0B
E9
0D
21
11
01
01
05
F3
16
01
E3
DB
03
0F
24
DB
17
13
E6
12
FD
F6
17
F7
04
FF
F5
FB
E1
05
0D
E3
07
EC
04
ED
F1
0C
F9
0E
08
FA
F6
F3
FB
EA
F8
EE
05
FB
09
FF
F7
FB
