E6
13
F6
FB
EF
F6
02
FA
08
F0
12
02
FE
FF
E4
ED
05
0B
EC
0E
11
0A
09
DD
02
F7
EB
F6
EF
06
F5
E1
EF
E8
1A
0A
0B
04
F8
FB
16
FB
09
DD
FE
01
09
F4
F2
14
F5
17
00
09
EE
EA
0C
12
0A
00
18
07
F9
F5
06
F6
04
08
F8
00
F4
FD
F1
15
F6
F9
FA
E9
08
EB
1C
EF
E5
F3
1F
04
07
00
EC
02
F7
EF
08
EC
0B
05
F1
EF
F0
0F
FE
14
E4
FD
EA
F4
F4
10
D9
FC
0C
0F
E5
09
17
0A
0A
EF
FA
01
E2
F1
D9
0A
0E
FF
F3
FD
F8
1B
02
DC
18
F4
E2
DA
11
EF
ED
FC
F8
E9
01
05
14
04
F3
0B
15
FF
DD
22
E6
FE
E6
FA
12
ED
1D
C5
F3
FF
FA
E6
FD
0C
F0
F5
0B
07
13
E9
FE
E0
F9
12
15
01
0E
0F
1B
F2
0C
1E
30
16
01
10
0C
F4
ED
09
29
05
21
F1
3E
FB
F3
F4
14
20
0D
DF
23
F7
FA
E8
FC
08
FB
10
02
1A
0B
E1
0B
FD
03
F3
E5
FB
F1
FF
EB
13
F4
F4
EF
03
FE
0B
FB
E4
DD
FC
F9
13
03
E6
D1
13
0D
16
11
04
1A
0B
F0
15
01
10
E7
E3
03
C7
F0
DB
10
EB
FB
E0
16
E0
F6
EA
14
0E
EF
F7
1B
19
E9
01
E1
0C
13
1F
EE
F9
06
FE
21
E8
E7
E7
00
D9
DC
F2
05
05
CF
21
0C
09
00
19
F2
F5
0F
09
17
E9
F2
07
E0
06
F7
06
02
EA
F8
0A
11
EE
FD
0E
0B
F7
1D
0F
FD
0E
EA
FD
F2
01
E6
FF
FF
05
11
F9
1C
D8
FC
CC
08
F8
E2
03
FD
FD
0E
F5
F9
E0
FF
0E
0D
05
E3
EB
DE
15
06
01
24
0B
F9
FF
00
E7
FB
05
0E
E6
02
01
FD
F5
06
F2
F3
CF
12
F4
00
07
F2
F2
E0
0B
07
E9
13
EF
12
1D
F9
F1
E2
1F
FB
F4
F1
F8
FC
FF
0D
F8
10
F2
03
E9
07
E0
DA
02
10
E3
E8
FA
11
05
0A
09
F0
1E
EA
0B
FB
E1
EC
FA
DA
F8
EF
EF
F6
F7
01
03
0C
EF
E5
F9
1A
DD
2C
12
05
E8
FE
F4
0E
EC
D9
10
EF
FD
FD
03
DE
E6
0B
01
12
07
F5
09
01
F8
0C
E8
EB
12
EA
10
16
FE
F0
E4
F5
11
FC
FB
F2
07
01
D5
07
04
EB
FE
DA
F4
0D
24
0E
0E
0D
EF
00
EE
02
0C
FB
0D
EB
F9
E0
01
F5
0E
ED
08
0E
FA
E7
05
00
0D
EA
0E
15
1C
FC
E1
0D
F4
0C
FB
0D
E9
10
E4
F1
1A
0B
F8
E0
03
15
03
EA
ED
1A
18
FA
08
04
00
09
08
19
01
F4
F5
09
1B
2E
03
F1
03
07
F2
EB
D6
05
17
01
F1
1E
FC
F7
19
0B
16
17
FF
02
FF
FE
EE
F7
F3
04
0D
C9
13
01
10
01
F0
E4
E4
FE
F6
FB
02
1F
0D
16
EC
EB
FA
F2
EA
D8
09
FF
F0
06
FB
1A
08
06
08
05
07
07
EA
EC
FA
02
F3
14
15
F7
EB
1B
FB
D5
F1
09
FC
02
0C
DF
1C
EC
0F
1B
1E
09
ED
04
0A
00
FE
1D
D9
CF
DE
FF
E5
E8
07
09
E7
E7
11
FE
FC
FC
F4
0D
ED
ED
F7
F8
E2
02
02
F9
01
04
F0
18
11
0C
06
F6
03
19
F9
06
04
0E
FD
F6
10
08
F4
F0
14
DC
15
20
14
14
09
F7
FA
36
EA
0C
FD
1E
EE
01
EF
06
05
D8
F7
F6
F4
27
1D
0D
FF
E4
29
0D
EB
F6
08
0D
03
EE
E9
04
00
F3
15
CC
02
00
EE
18
14
05
FA
0B
17
09
E7
F4
E4
E7
14
02
F2
F4
04
FA
E8
EE
F7
F9
FD
FE
00
02
0D
EA
E7
14
EC
0D
FB
05
1C
03
D2
F2
F9
04
04
14
F8
10
06
0D
18
FB
FD
F7
0D
11
0B
FD
F9
0D
EC
09
F7
1E
02
23
16
01
06
25
1E
F6
00
27
06
02
F7
12
0A
0A
1D
FA
0D
0B
12
F0
05
EA
FD
F4
EB
0B
06
F2
1A
EE
F8
15
EB
F0
ED
0D
04
F3
FE
F5
0C
1E
0C
02
08
F3
E6
DE
F0
FF
11
FA
E3
0A
D0
1C
01
EA
0F
06
FF
F3
EB
D0
F5
04
04
15
11
EC
F8
DF
DF
01
11
08
1A
E6
F5
FA
F3
FF
F3
17
EE
F1
30
FF
EB
FB
04
E5
F6
09
FF
12
FE
0B
EF
0E
F9
F1
F2
1B
FA
18
C9
15
01
07
06
E8
08
1B
E8
F0
ED
F4
FF
13
1D
0C
16
F0
EA
FC
F3
F5
FF
F2
F1
ED
10
01
09
06
0D
FE
00
1E
FF
02
04
E1
06
FA
16
DA
06
04
0B
EC
0F
12
02
FC
FC
12
E6
EB
17
FE
E1
F7
10
0B
0F
FA
14
16
ED
EC
14
0D
01
ED
FA
0A
2D
E0
00
1F
04
FB
E3
16
08
12
E8
02
F6
F3
F9
0D
00
F3
00
16
14
1E
0D
0C
10
10
0E
14
F8
F6
0A
F1
FE
22
FF
F8
0F
00
E9
F7
12
0C
EB
EF
0A
03
F6
13
FF
15
EF
1D
06
28
10
D6
11
15
16
0F
F5
EA
EA
E1
00
03
03
0F
04
EB
00
0B
EC
DE
EE
FA
0F
DC
EF
F3
1B
F8
14
07
00
F2
2A
ED
DA
1E
D7
12
F3
EB
FA
F7
18
02
08
E5
DB
F0
D7
DB
20
EF
08
ED
26
0F
13
FE
03
1A
F5
D6
19
EE
E5
0B
FB
D0
1A
12
00
22
10
00
EB
EE
13
EA
00
08
0B
00
0E
1E
F9
0C
E6
04
FC
27
19
F7
0D
01
D4
ED
E7
14
FE
FE
19
0D
D5
F0
15
F9
F8
0E
0B
00
EC
0B
09
F1
1A
FA
10
EC
07
FE
EC
1A
F4
07
11
10
12
0F
09
FE
E2
F0
D7
0D
1D
02
FA
11
00
07
12
DE
05
0A
FA
F2
E5
D1
F7
E8
03
E4
F7
F9
0F
09
09
F0
E6
FC
19
05
FB
F3
FB
18
0B
D6
09
0F
E1
0F
F4
13
FF
29
1B
FA
07
10
1C
EF
1F
0C
CD
00
0D
F5
0F
0E
0B
FD
09
DF
08
0B
1F
E4
FF
21
F8
03
10
0B
E6
F5
F5
FF
17
06
F3
0A
F9
F0
F6
EE
1D
EB
18
39
0D
0D
1B
15
0B
F1
19
1D
DA
EB
EE
FE
F1
18
FC
FC
14
F6
F9
28
10
02
EA
CE
F5
09
04
00
17
FD
08
17
EB
F3
E2
FB
EC
1F
19
02
0A
FF
09
E0
E3
E6
03
E5
DF
06
EC
DF
2D
F4
07
F0
0F
F1
00
EB
E1
EC
FF
0D
0F
FE
06
2C
08
E7
EC
DB
15
0D
15
F7
EC
15
E9
E3
F2
1B
04
03
09
EC
18
F3
18
15
F8
F7
E6
1C
F1
EE
06
1A
1D
07
10
0A
16
FA
0A
11
EF
0C
EE
0A
13
E8
04
04
32
0B
03
13
0D
0E
ED
09
16
0A
FA
04
08
05
FA
15
EF
0E
F4
0B
E9
DF
F3
ED
05
EE
07
F6
00
FF
03
0E
0B
E0
F6
01
FB
F1
02
01
F6
E9
F6
06
09
F1
EA
EB
F6
E2
06
F7
FC
F4
F7
E7
08
F7
0E
0A
0E
D3
E7
D3
FD
12
18
F6
0C
11
E2
03
E2
DD
00
F6
09
0D
09
FE
01
FF
F2
13
0F
EC
EE
11
1A
EA
01
11
17
00
DD
2A
06
10
EC
FD
F9
EF
D5
F0
E5
05
1E
FB
F1
02
F4
03
0F
FD
07
04
24
F2
00
E8
FB
EE
F0
FC
FE
3B
12
09
14
0F
F0
EF
0C
F2
F4
1D
EA
EF
06
16
F3
10
14
04
03
16
F6
E7
0D
F6
F9
F7
FF
15
0F
0A
21
29
24
02
03
12
0C
0C
0D
0B
E7
0B
3E
FF
0D
F3
11
00
1C
FB
23
F0
0F
0F
DA
FD
E7
FA
15
0F
FA
E4
EE
19
0F
CC
E4
08
0D
06
05
F2
FF
F7
23
14
09
03
E7
08
24
08
0C
0F
E9
F3
FF
03
F7
01
14
13
1A
0C
EF
00
F0
EA
16
12
F3
06
FA
0E
08
F6
03
18
18
F9
09
EA
E7
08
D6
11
01
EC
11
1B
08
FB
F7
12
0F
F7
01
F7
E5
F7
0F
1D
10
F9
F1
E5
12
F5
05
21
04
00
F3
15
FA
0C
08
EE
DA
F5
14
09
18
01
E0
07
10
FD
EA
08
01
02
ED
E0
01
F7
03
E1
15
F2
0A
ED
16
07
03
DA
1D
01
EF
FE
01
12
DE
03
05
EA
0F
0C
10
03
E9
DF
06
04
0A
05
F8
E8
E9
F7
FE
13
D5
DD
09
15
EA
07
F8
08
22
E7
E1
14
15
11
DC
11
F1
FE
F2
07
EC
03
00
16
F6
12
F7
FF
10
02
12
FA
F6
F8
F5
0C
05
24
EE
FF
F5
FB
0B
DA
E7
EC
EE
13
10
F3
FC
E8
14
E0
10
EB
EF
F6
DC
1B
13
0C
FD
FE
00
26
F5
04
F6
F5
FE
F8
11
E7
09
E3
05
18
EF
11
09
17
0E
05
08
D7
0F
15
06
22
F4
01
F3
2F
00
F9
F1
01
FF
ED
F7
FB
FF
FD
17
EC
FA
07
EF
FE
02
F6
F6
FD
FA
FC
F3
0F
D0
F0
D8
EF
03
0B
FD
11
1D
F4
E0
18
08
09
ED
0C
16
FD
16
12
F4
00
FB
11
FE
F8
01
FD
09
EF
F8
F3
25
FD
FF
FF
DE
26
03
ED
10
0F
05
01
09
FA
EA
19
14
15
00
14
F7
FE
F4
13
FB
15
18
E3
19
0C
10
10
E4
0E
08
06
1F
0D
E1
DE
F4
E8
0A
23
00
F7
00
14
0B
FA
E8
29
10
EA
F7
F7
F6
DC
04
05
06
0D
0D
F1
FF
DF
05
01
08
FE
20
FA
19
04
EE
00
F3
25
06
12
03
FB
E5
E3
08
FA
EF
14
0D
0F
EB
FE
FD
FF
F9
0D
07
F8
F6
0D
03
01
F5
04
F3
FB
09
12
01
17
F4
FE
02
EF
03
F2
FD
10
DF
04
F5
EC
15
09
F4
04
07
19
15
F0
13
01
F9
07
D5
10
0F
0B
13
F2
F7
FB
05
FA
F9
F9
02
DF
1B
07
08
1A
F8
F8
EC
17
17
01
1B
01
00
F8
F8
E5
17
0B
F9
24
1A
12
0F
09
1B
F5
F7
FF
FD
11
29
F9
08
12
FE
3D
06
2C
04
EE
FE
08
02
F8
16
0F
0D
F5
F6
02
E3
25
01
FA
19
F3
0E
13
02
09
11
EE
EC
0F
E5
FE
ED
F8
EC
CD
17
14
0C
05
F1
F1
06
EB
F0
04
1C
11
EA
0C
EF
E9
E7
FF
F4
D9
08
0B
1C
11
09
F7
21
05
06
CD
0E
F5
FE
00
FB
1A
12
19
12
F4
01
ED
0F
E9
01
18
F6
0F
EA
07
06
FD
FC
D8
FB
1E
15
05
14
FD
F2
11
13
D1
ED
F6
E3
FB
0B
1C
15
0D
0A
14
02
F4
01
F9
04
01
E0
F1
0B
F9
25
0D
0E
01
10
14
DD
FC
EB
F6
07
08
FD
1F
10
EE
22
09
15
30
04
F3
EA
17
06
13
F0
0A
F5
ED
2C
15
EF
05
04
E9
EE
E1
E6
F7
13
01
18
1E
F4
DF
E0
E3
F4
19
29
0B
FC
05
11
0B
2B
F3
FF
F4
FB
EC
0C
F6
E8
D6
F1
FA
E9
02
02
F4
F7
DD
FA
FD
13
FC
08
01
F9
06
F0
08
F7
02
0A
01
FC
F8
1F
1F
12
FE
23
0D
12
15
E7
F6
27
0F
03
11
1B
F9
F6
EE
F8
DF
1D
15
DD
F1
F8
0E
F2
F4
E2
F7
0A
E8
FE
00
ED
08
09
F4
E3
1A
FC
16
F0
05
1D
09
F2
0B
10
DD
FE
FF
04
08
00
14
FC
1A
EF
EB
10
FC
0B
F3
E8
02
FD
C0
D1
13
FA
08
F3
1A
DF
CF
F0
01
08
10
15
F5
0C
E7
13
15
07
ED
04
1C
F7
FE
00
E9
DB
FD
00
FA
FF
12
09
0E
F4
F6
19
1A
11
E6
19
12
FE
0F
F4
1E
01
E4
FD
19
FE
23
0B
00
01
EC
E6
E5
0B
EA
00
05
28
E8
E8
08
20
D9
12
0A
F4
1D
F2
0B
0C
0B
06
01
FE
07
C7
10
DB
2C
0A
02
F8
00
21
F5
E1
07
0B
0A
07
D8
1C
16
F9
16
05
EB
14
E8
F4
10
0A
02
FD
21
F5
14
20
EC
FC
0B
F8
00
02
BB
07
27
07
03
06
1A
1B
F4
E6
0A
FB
04
FE
0C
F3
FA
1B
08
F9
06
E4
1D
0F
F9
08
02
03
1D
D3
10
0D
FF
ED
0F
DB
04
F6
1C
04
1A
FB
20
C8
F0
EC
FA
F4
D1
FA
F4
F4
13
FF
D1
F2
E1
F2
E8
08
D9
0A
05
0C
DB
02
FB
F9
E4
F9
02
15
F7
1F
03
EC
19
0C
00
F8
0D
15
0C
0B
26
FE
25
F4
13
ED
E7
0A
14
14
F0
FF
0D
05
F7
ED
2A
04
FA
0D
D6
11
0A
F8
1B
D5
0E
F1
FA
FD
03
FF
FA
F4
F7
E6
EE
FC
1B
21
FE
F1
0F
F9
F9
ED
0A
FE
17
17
18
FE
FE
FE
0A
FF
04
0E
09
FE
F8
00
F3
FD
2A
1D
05
1C
0D
0C
0B
E3
10
09
E8
F6
1D
F9
11
EC
08
E8
F9
FE
03
12
03
F2
1E
23
E5
10
FD
11
22
12
DF
F8
1B
2E
1F
E0
02
0C
0C
13
EA
E0
FF
14
F4
F9
04
12
09
04
1C
F0
11
FA
FE
FA
0C
03
FC
19
FD
28
FE
F6
EA
EA
EE
F1
EC
CA
07
02
F5
11
29
1A
02
11
FD
30
01
F8
18
F3
15
22
17
04
08
1C
0B
0D
22
02
E3
F6
F3
02
15
01
02
06
ED
E7
14
04
1A
FF
EC
E6
0E
F8
10
26
F2
12
EA
2D
2F
F8
F9
27
1F
0F
EB
F9
20
03
F6
0D
06
E1
19
F4
0F
01
F9
13
F3
F9
EB
06
E1
F7
F9
09
DF
E8
CD
0C
E3
23
F5
E8
EC
11
F7
0C
15
05
10
0E
16
F0
C9
16
1A
12
FC
FB
04
31
FA
0B
18
11
15
07
03
CF
00
F6
FD
F3
09
0F
F9
04
EB
DC
02
11
1E
07
1D
FE
0C
25
19
1C
E7
1C
FF
FB
08
EF
04
25
09
1D
F2
F6
FC
09
FE
16
0A
12
03
00
0B
10
12
E4
12
0D
23
EC
EF
19
EF
1B
FC
D1
F1
F6
03
05
EF
0D
EB
FB
1E
06
FA
1E
0D
F9
DF
EE
0E
F8
0A
2C
FB
1B
03
0C
01
D4
2A
F6
FF
04
15
1A
F9
F3
E3
0D
09
02
08
F1
E4
03
FC
1C
D0
1E
06
1D
09
EE
02
13
DF
D5
12
FE
F9
03
FE
06
FF
2D
F8
FB
F2
F0
19
02
F6
02
1B
00
F2
27
1D
EE
DC
EF
0E
11
FD
F6
FB
05
FA
FF
FF
F8
06
FA
ED
10
EA
E7
0F
08
00
F4
06
06
EC
F4
06
05
E9
08
03
F1
F6
F5
EB
09
FA
F4
09
E4
F0
EB
EE
FA
03
FD
FF
F6
FE
FE
FC
EB
F1
F6
EF
EC
03
ED
FF
05
05
EE
EF
EA
07
FB
FF
E9
0A
EA
05
10
E5
EB
07
04
F0
F4
F6
F0
0D
0E
FB
F5
FB
F7
F2
EF
FE
F7
F7
0E
07
03
F1
0B
F6
EF
05
F2
F6
10
F7
EB
0D
F3
0D
FE
15
08
01
04
02
0A
05
F6
E6
F4
09
F4
F3
EA
FF
E3
09
F7
12
EE
FB
DA
CC
16
F5
08
F7
E3
D4
FA
08
18
11
EC
F8
04
0A
FA
15
FE
F4
03
F8
00
ED
F7
F6
1F
16
19
F4
ED
06
00
1C
21
01
E2
FD
00
05
DF
09
03
03
F4
02
FE
03
F9
1A
F5
FF
FE
F1
E5
0D
16
10
06
12
E5
03
00
0B
F5
E5
E2
00
F5
08
FF
F0
08
09
E3
04
10
FD
E6
ED
02
15
E5
13
0C
E6
10
C1
04
01
1C
05
E9
0C
05
D7
E4
FB
F2
F6
16
18
05
12
15
EF
07
F8
EC
0E
12
E6
0C
FF
E0
0D
E6
17
16
03
F7
04
F5
01
25
F8
F3
13
F0
EE
02
E5
EA
FF
0C
03
14
20
F3
EE
FD
F2
13
1D
13
F8
03
F6
F3
1B
FA
FB
03
13
0E
0A
02
0C
11
E4
E3
EC
F5
02
F0
00
E6
F2
E9
19
FD
03
F1
08
D6
E4
F2
15
05
F6
F2
04
04
01
11
07
15
0C
02
EE
27
1F
F2
E9
F2
FA
05
02
22
F8
F2
0F
04
F5
21
07
FA
19
12
17
DC
08
08
FB
08
EC
12
FF
F6
ED
FE
09
F0
0F
F7
0F
FD
08
1C
FD
F5
FA
00
F9
E9
E1
FF
F6
FB
09
E0
0A
C8
13
00
11
FD
0D
E6
E9
D3
ED
0B
02
FC
F6
0A
F0
1D
19
F8
F2
12
0D
0E
EB
EE
FE
11
00
15
11
E4
08
EB
F3
0E
10
F0
14
11
00
02
F1
13
FA
FA
00
13
F6
0D
0E
1A
F8
F9
04
F0
F7
FB
DC
10
E7
F8
FB
13
0B
0A
20
FC
24
F9
EA
11
04
13
0F
0A
EA
0B
0E
F1
F0
C7
E4
0B
01
0D
F9
08
F0
DE
03
EA
07
EC
F7
FB
01
04
05
FB
07
07
F1
0B
F1
E6
12
F5
02
EF
01
EC
F8
FA
F8
15
EA
E4
F6
0F
03
F5
1B
E0
05
21
0C
E3
03
10
08
FE
02
F9
11
FC
E3
35
19
F9
07
EA
F1
10
12
EA
26
0F
0B
DF
F2
E1
19
18
0B
E4
11
02
08
01
03
01
F2
03
10
02
08
0B
FA
EA
10
E2
EF
DD
FF
FE
FC
F9
EF
18
07
F9
04
ED
E5
E3
06
F6
FC
18
C5
14
11
E4
EC
0B
D3
0A
F3
F0
13
F6
09
F0
E9
FA
F4
08
09
1D
0A
1D
09
04
F7
E7
F9
E2
03
04
FA
01
E9
12
18
22
06
FB
FD
FE
11
08
0D
19
F6
FE
F6
DF
00
0D
04
01
1A
F1
02
FB
1A
F0
19
DA
FC
01
F6
1F
E5
EC
E8
0E
2F
0D
11
FA
F7
08
05
F7
10
EF
F4
D4
F2
E3
FB
1D
EE
ED
1D
09
21
07
FE
FA
05
06
1F
EC
00
2E
F3
F5
20
1A
FB
03
0F
15
FF
0E
FE
0F
EF
F9
0C
19
FD
FC
F0
0C
01
09
E5
F7
0B
01
1A
02
11
E3
0A
07
FE
E4
07
F0
F4
21
0C
1E
E4
03
FE
EB
FB
0E
01
F4
11
02
10
FE
15
03
F1
12
0B
FB
03
C7
EA
EF
20
07
21
0B
0C
06
22
08
1C
0B
04
01
0C
F9
FC
F9
FA
0D
E7
16
DB
0A
F1
1B
F6
1B
05
01
01
F0
EE
FE
13
0F
F1
E4
F8
0B
18
FB
F5
FE
F8
0B
EE
05
EC
05
D7
F1
00
FA
0F
FD
19
F7
00
F6
F6
03
0A
FF
0D
1B
F5
ED
0D
EE
FB
15
2F
F6
F5
04
E9
05
FA
0A
01
F3
DF
F6
E4
01
F6
F7
0A
20
DD
09
0D
EA
F9
01
1F
0F
04
EE
14
05
0B
00
EF
19
09
28
1F
0F
03
05
25
08
EB
0A
0B
1F
FA
17
FC
F1
01
F8
02
FE
09
F8
06
F6
03
16
E8
FA
04
F2
08
1E
0B
F0
0D
02
19
FF
0B
05
FC
E2
21
FD
14
05
F5
01
0F
FD
11
EE
FD
0A
00
04
ED
11
F8
FF
F0
FC
F7
F1
E4
1E
ED
F3
EE
19
15
13
F6
05
08
F6
F2
01
D9
24
FE
03
1B
DD
F1
EA
05
FF
01
02
01
E7
EB
0E
0E
FE
EF
0B
F5
0B
0E
23
F9
07
11
1E
0D
F9
23
DA
14
06
F5
E6
EA
25
F5
01
0B
12
0E
01
0D
0D
0E
29
1A
05
F1
07
05
0B
F0
09
1A
F7
E0
FC
13
FA
04
08
0A
05
14
EB
ED
F7
F9
EC
FB
DC
FF
19
F7
FC
25
14
EF
0A
0F
0A
E7
16
12
11
FE
EC
10
11
18
03
F0
1C
0E
EF
F7
07
F1
F2
16
FB
1A
FD
E9
13
F6
E0
00
0D
14
F0
0C
1F
F7
FB
10
FD
E5
1D
00
FB
0A
F1
13
07
04
0C
10
F1
06
08
FE
15
04
E7
D9
F0
FE
02
0D
FF
04
FB
1C
F0
E7
E6
15
10
FE
19
01
F3
E6
13
1E
D9
01
F8
0D
03
FE
0B
06
12
FB
19
E2
FD
F9
2C
E3
EE
0E
E8
08
15
FA
F3
FF
12
08
01
15
FD
11
EF
F6
ED
ED
1C
EE
EC
E3
07
08
FD
F8
08
EA
F9
DA
F0
10
FF
E9
F5
F7
11
FF
F4
F2
18
F3
F3
15
1D
F5
FC
F2
13
FC
15
DE
FD
F1
F5
06
E8
08
2A
15
F4
D8
0E
04
06
F7
11
16
15
F3
17
19
FD
F2
F4
0E
ED
18
0A
0E
07
1E
D4
F7
FB
19
FB
18
02
14
15
1E
F9
F4
D1
ED
EE
E4
FA
0B
FF
F7
F0
10
23
FC
0E
DE
FE
DD
0F
F9
F7
00
FE
F8
06
1B
D8
0B
F4
01
FB
0F
ED
21
FC
1B
FA
F0
15
EE
FE
FF
E6
12
FA
FD
03
ED
08
1C
D5
13
16
ED
F8
06
0A
0C
1C
13
E1
EF
05
F1
1D
F7
F4
14
14
10
03
03
F4
15
01
0D
EA
2C
F0
05
EE
0B
F9
ED
0D
07
F9
FF
15
FC
F2
1B
DF
FA
F8
FE
FC
F0
17
E7
F9
18
0F
1F
F8
0A
F6
EB
EF
FA
EE
F0
04
16
23
20
0C
14
07
01
FF
EC
F9
F3
0C
0B
1A
02
E0
03
0E
12
EC
0F
2B
CA
0F
D0
E3
FA
16
0A
F7
F6
EA
16
F2
DF
FA
1A
FB
F7
EC
0E
F9
23
E1
03
10
17
16
F5
1A
EC
F0
0B
F5
08
1C
DC
0F
04
17
DC
EF
06
06
FB
EF
FC
13
06
08
0B
EB
18
15
17
F6
13
28
0C
02
0C
C6
F4
10
F9
F9
D4
11
FD
08
F7
FE
EA
1A
06
E8
F5
FD
03
0D
15
24
FC
F2
F9
FA
00
D9
25
11
F6
05
16
18
0A
F5
F4
EF
1F
EF
F4
E5
00
FF
05
F9
E5
16
E4
EC
F2
03
0A
F9
DB
DE
01
02
EC
23
05
EA
DE
0C
F6
12
EC
E4
1B
F8
09
F5
FB
EC
1E
1B
0E
18
F1
06
F7
E7
EF
0A
E8
F9
FD
0C
F1
E1
E6
04
F2
04
05
FA
EF
F8
FA
00
07
F6
0D
0E
14
01
03
E2
FA
FD
FE
FC
18
05
DF
09
1C
00
FD
F7
EF
EC
10
F8
F6
FE
F2
F1
08
F1
0E
14
F4
06
E7
E3
07
0E
F2
FF
E9
0A
03
EC
EA
FD
07
F2
07
12
FE
00
1B
EB
E4
F5
09
ED
ED
0F
E2
E4
07
FA
F0
11
E5
EB
F7
17
08
0C
E8
F5
FE
F6
FE
FA
E5
0C
07
F1
FA
F5
09
F2
0A
F1
03
F6
F5
F7
F1
F4
F3
03
EA
EC
12
F9
E6
06
F4
EC
FB
F9
04
27
FC
EB
EA
14
F4
ED
EA
04
F9
05
FE
01
0A
0C
E8
E2
FE
ED
13
F9
0A
F3
09
FE
16
F3
F0
0B
F7
DA
08
10
23
0A
F7
F0
FB
0E
E3
F1
0D
12
E8
03
F3
F6
13
10
F8
FE
E8
F7
F6
2A
04
11
F4
FB
17
FF
FE
05
E9
EE
F0
F3
F8
F3
FF
FF
D5
F6
FC
10
F5
01
04
FF
08
F5
FE
0D
54
F8
13
FF
EC
FA
ED
F4
2E
E3
0F
F4
34
F5
F8
03
EE
F6
E2
00
DF
F0
F0
1D
FD
FD
DD
13
10
14
1F
14
0E
D0
EE
FE
08
18
F7
04
0F
D1
FA
23
EE
17
F0
1B
D5
0F
03
13
EF
10
04
06
04
EB
07
06
0A
E6
03
FF
FE
11
E7
18
01
19
F6
E3
11
ED
16
15
F1
18
EF
EF
0B
ED
02
10
1A
DB
05
FC
02
14
EA
F7
FE
13
04
EA
08
E3
03
08
07
EF
18
F9
F3
0B
F9
0A
DC
DD
FD
17
E3
06
DE
19
E4
00
FF
1B
26
E5
07
DE
F5
06
ED
0C
11
07
F0
FA
19
0D
01
E5
04
24
F5
1D
0E
15
23
1A
EB
1D
FE
E9
D3
FA
FB
02
E2
07
02
FF
E2
21
0B
19
E5
F3
F6
FB
FE
FB
17
06
21
07
0B
12
FF
DB
0C
E7
1A
13
0B
F3
FC
00
FC
1C
0B
FD
FC
E6
06
E9
14
00
FE
E8
10
02
D9
0C
F8
11
DD
F8
0C
09
F9
1C
04
02
15
21
ED
17
13
19
18
E3
22
F2
D0
EF
05
18
03
D9
E2
E0
E1
F5
FB
E6
0A
13
0B
09
0B
EA
FA
E8
00
E2
13
F2
18
0D
0D
EB
EC
0E
E8
F4
06
05
12
E4
05
0D
17
16
20
F7
02
F4
EA
0A
EB
F7
FC
16
0D
F9
EE
06
02
F5
DC
02
F6
09
E3
F3
FB
E3
14
DD
FE
FC
09
F4
3A
12
E5
02
EC
F6
F2
00
03
F4
ED
03
0B
1B
03
16
F8
F4
0E
06
07
18
F3
E6
EA
00
21
0D
F7
18
F7
FE
07
0F
F3
03
16
13
EF
FA
13
0C
EC
1A
F1
F4
16
0D
28
12
FA
0D
07
FD
16
F2
1A
10
2E
FC
F6
1C
EC
04
1F
FA
FB
0B
2E
08
F7
FC
26
F8
14
03
FA
0C
04
0B
22
DB
F1
FE
23
0B
2A
1D
03
FA
15
14
D1
EB
FB
2C
F9
E0
FE
F8
EF
0C
0D
04
F1
F0
DE
F7
F9
EA
03
F7
EE
E1
05
ED
01
FE
00
05
06
EB
E4
10
08
F2
03
07
FA
F3
F2
06
FC
F1
E4
EF
FE
08
FE
DF
10
FF
05
DA
00
FD
04
F2
FD
FA
F7
00
F1
12
E8
02
F7
E6
DD
F9
FC
07
10
E7
EF
F7
F4
EE
FE
05
07
F1
F8
0D
E5
08
FA
F3
F1
F5
07
F2
03
F9
EB
E5
EE
EA
03
F1
0E
F6
17
08
03
EA
07
03
EA
FD
FB
F7
0A
EA
FF
FF
09
EE
EE
0D
01
09
E5
F2
FF
09
F8
F1
11
E3
DB
0B
FD
FD
F4
FF
15
F8
E6
1D
F8
04
FE
EE
07
20
F5
E7
13
FD
25
14
07
16
01
E8
F0
0D
E1
17
EE
EA
EE
EE
05
0C
F2
F2
13
F2
FE
F7
06
10
05
FB
FD
F2
21
14
0E
1A
F0
11
FF
11
11
F9
11
E8
E9
EF
0E
07
1B
04
F9
EF
1A
EB
08
EE
03
FB
F9
EC
0D
F7
E1
0D
05
21
13
1A
F5
13
F6
00
1C
1D
00
2D
1D
F5
07
20
F1
14
F3
F9
13
14
0D
E0
1E
FA
08
F7
EF
ED
06
0F
10
FE
EB
0B
F8
F6
FD
F9
F1
F6
F4
25
02
E9
E5
0E
FC
F6
FE
FA
ED
17
00
E0
00
18
EF
F4
EB
0F
FD
18
0E
F6
DC
08
14
10
07
F1
EE
27
1C
04
0E
09
1A
F2
FD
E1
F3
F9
F1
04
F1
21
07
03
11
DE
01
03
0D
DA
F3
F4
F8
00
FB
EB
0F
ED
FF
01
22
03
15
03
F9
FC
17
F5
EF
FC
0C
E5
04
30
0C
22
08
E6
03
FB
08
00
06
13
07
11
D7
18
E4
EB
EC
03
F9
2C
FA
EE
12
FD
F9
16
13
FD
11
04
16
08
DC
FE
E6
FF
0D
E9
04
E1
15
0F
12
0A
EE
0D
EC
FA
10
06
F9
E9
D8
0A
FE
D7
0A
0E
F6
E5
11
04
F0
F1
0C
FE
E6
FA
1D
F6
0A
F0
16
1B
0B
F5
EB
0F
F7
EC
F7
EF
F7
F8
EF
1E
1D
1C
F4
03
10
E5
11
03
0D
DF
E7
0B
09
F4
09
11
E8
F9
F7
04
F2
12
1C
1A
F6
01
1E
05
EA
0F
18
EA
2D
14
F4
2E
E7
FD
26
10
03
F0
07
06
22
15
D5
FD
00
EA
0A
0F
F5
17
0C
DF
06
F1
DC
F3
14
19
F9
FE
F5
09
F5
F0
F2
05
F9
EF
0C
E8
16
EC
F2
E4
08
FC
E6
05
EC
07
16
FA
0A
27
F3
0D
04
F1
F9
F8
07
05
09
0F
0D
FB
F9
13
FD
D9
EC
EB
00
18
03
D4
FA
1B
07
E3
EB
0F
13
E6
17
E8
18
E9
03
EA
F7
DD
E7
F6
03
F8
DE
E6
09
07
EC
F5
0E
1D
EE
EA
0F
E5
05
08
F4
16
FF
E5
F8
D7
0C
15
1F
E7
E5
0B
17
FD
1E
11
EE
F8
0D
F6
0A
DC
FA
F0
F3
F3
01
0D
C9
EA
F4
0C
0C
11
05
1F
04
16
04
0D
FB
E8
12
05
08
EC
FF
FB
F5
FE
08
09
EC
E5
1D
F8
F6
0E
EF
21
E1
0F
FC
FD
FA
03
18
E4
FC
F8
17
03
14
F2
FE
01
17
20
0C
0E
F0
EF
DF
0F
F0
1D
00
F3
FB
F4
F2
EA
E2
EF
0A
F7
FB
10
03
01
0A
FE
F9
F0
15
FC
06
FC
0B
06
09
07
F9
09
0D
EC
00
0F
29
12
E9
02
EF
F7
00
E8
EF
EB
FB
FC
22
25
F6
F3
02
14
01
F7
05
EF
02
F7
1E
ED
07
FF
F3
FE
0B
0D
F9
14
F3
23
2C
F3
17
F5
0D
FB
17
E0
0F
12
03
1D
07
ED
F6
09
EB
F5
0B
03
17
01
FC
FF
0E
31
06
11
0F
E9
ED
F8
0B
FB
01
1B
13
03
CC
F5
06
01
01
F2
1A
E4
10
F9
D4
F7
1B
FD
02
04
08
E4
0C
19
18
05
0A
FC
FB
24
DA
EC
01
E8
FE
FD
11
EC
D9
0C
FB
0A
0B
0D
E7
0B
FB
0D
17
E9
F0
FF
FC
EE
FE
12
FE
F9
F8
F6
19
F8
09
08
F3
D4
0F
17
17
10
16
0D
FD
F3
EA
00
08
18
FD
DD
0B
F4
08
06
F6
10
DC
17
11
03
EE
FD
0B
E4
ED
13
01
28
FE
ED
F1
09
F5
FB
26
DF
EA
08
FA
09
FD
0F
EC
FF
FC
11
0B
02
F2
0B
F5
0F
13
F8
07
11
ED
E8
F2
0E
EF
F1
FC
0A
FC
F3
E8
01
F9
13
18
F0
07
1E
F8
F3
0E
EE
F5
15
1C
F1
0E
06
F1
F3
EC
EC
0F
FE
E7
F6
F4
E0
ED
E4
EB
F2
00
E9
F3
F0
F2
08
E9
EB
09
01
03
ED
F1
0E
01
10
ED
F2
F6
FA
FB
EE
06
07
F6
09
F4
E6
F6
F0
F0
02
0E
2A
0C
F9
EE
F2
0B
15
F3
FB
F7
FE
EC
FE
04
15
EC
02
E8
DF
F1
F4
F6
FB
09
00
E3
12
EC
02
F7
05
07
F7
15
E1
01
0E
18
D1
02
00
25
05
02
FB
FF
06
E8
F1
07
F9
00
09
F8
FD
09
F7
F2
10
E5
EB
F9
00
11
08
F7
00
12
D5
EE
FD
FC
03
EA
19
15
ED
11
09
06
FC
F3
F2
F9
FA
13
E9
1D
01
F8
01
EF
03
F7
EF
0D
FC
FC
0E
08
EB
06
EE
FA
0E
FA
FB
09
0F
01
02
19
13
1A
13
15
10
FA
EC
E7
FA
F9
12
10
01
2C
0E
F4
04
F0
13
EF
1D
08
02
21
06
F9
E0
D4
34
1A
16
17
F3
E8
02
08
F9
E0
E6
17
14
E5
03
0C
F3
F2
E2
19
E3
DD
DE
14
0B
1C
F4
25
E3
05
FA
FC
14
12
0C
05
14
05
01
15
0F
F8
EA
04
02
02
13
09
FD
2E
00
F6
12
07
EF
10
EB
05
12
1B
F9
EF
20
0D
D4
E9
0C
13
E2
F1
F5
FD
09
14
02
0B
FC
17
E4
E8
16
15
FC
24
1E
0B
14
01
F7
F8
F4
F1
FE
E4
07
11
09
0F
1F
12
EA
09
ED
F8
E7
04
F2
13
0C
10
F9
FF
E6
1C
F9
E0
FA
12
04
E7
03
05
08
E0
09
03
EE
02
F4
FA
1E
F0
DB
1E
EC
00
15
E2
EB
FD
03
0F
F7
02
1F
04
F3
E0
07
1E
F1
FC
F4
F9
0F
F0
1B
1D
F7
F6
E2
03
DA
E5
1B
FE
E6
0D
FD
01
06
F7
FE
FC
FD
F0
E4
1B
20
F5
05
EF
F5
03
0A
F6
0E
19
0D
09
EA
11
F9
F7
DC
D9
D6
F1
04
F7
F0
F6
24
12
FF
FF
FC
E4
D9
02
FA
18
DC
1A
DB
E1
08
F4
0A
F6
16
E9
19
FC
0A
EF
DE
CE
DF
F6
0D
1D
0E
F0
08
14
FF
F4
F1
09
07
09
EE
FB
D3
F4
1C
11
FD
15
F2
EB
D1
02
F5
05
D7
07
E9
EA
E0
F9
13
16
F1
F8
F8
FC
0C
11
EC
10
09
E1
F4
FA
F5
02
FB
FA
F2
F4
E8
1C
2E
EB
F9
08
17
0B
EB
06
FD
19
08
F7
05
04
02
00
ED
00
0A
12
DE
F8
04
F2
11
D6
0C
00
0B
D7
FF
E4
18
10
12
FE
F8
ED
F8
14
FB
CC
08
EE
04
0A
F9
1C
03
03
05
F6
FB
10
01
FD
0D
01
F1
07
14
EB
F9
12
E9
FA
E4
E3
DC
FF
08
FB
E4
0B
F1
EE
03
21
FE
00
FA
FE
23
EE
0D
09
1C
FD
F4
F2
1A
0B
E0
0E
F0
02
EE
E1
19
03
FB
02
07
0F
16
17
FC
0E
0C
E7
1D
18
FB
F8
F1
0F
F4
05
F7
F6
08
EB
19
0F
15
E1
07
10
01
11
FA
0D
F4
F9
11
19
F9
0C
13
03
F1
03
F2
F0
0A
EA
06
FA
F3
FD
02
00
ED
FD
FA
01
F4
E2
09
E2
F3
17
00
F3
11
E2
09
0F
D3
0A
19
DD
19
F2
F6
00
ED
05
08
F1
0B
E1
11
EC
0C
0E
03
08
FA
F0
0E
03
F4
14
F9
E8
1A
1C
F9
0C
D7
24
08
04
12
07
1F
FA
0C
14
DF
02
03
EC
19
FB
25
15
F8
E9
17
EF
13
0D
FE
0E
0E
F7
EB
F0
D4
FC
00
18
06
F7
02
FF
02
F5
D3
13
E5
F7
FD
F6
02
04
F6
ED
0A
F0
19
23
E9
08
07
08
0A
E9
18
14
FF
18
FE
E2
E8
1A
14
F2
08
F1
0E
00
04
EE
06
0A
F1
EF
18
01
FD
0C
15
E3
F2
F3
05
39
E0
14
E7
F0
E7
F0
11
FA
0A
F5
15
01
1C
F5
01
03
01
1A
FB
FB
EE
23
05
15
1A
18
12
F6
06
19
FE
03
12
F5
EA
FB
D5
27
00
01
0D
FE
F0
FC
EC
21
D5
FA
F3
0F
15
F7
FE
FE
EA
F2
EB
FC
18
FA
32
12
EF
EA
FD
1C
11
0C
F9
13
08
F4
19
0E
F6
17
EE
13
13
F7
FE
20
F8
EF
0B
FB
FF
F8
16
09
E5
10
00
F1
FA
0B
07
02
ED
EF
1A
FA
F7
0F
F3
07
15
E8
EB
0E
0A
1B
F7
1B
F3
15
10
08
E3
F7
07
01
07
FF
05
11
F1
21
EA
F7
02
00
19
EB
1F
FE
02
0D
ED
11
0E
09
D6
05
F2
00
05
26
0F
F6
F4
FA
24
EE
11
13
E8
13
25
D8
13
09
02
FF
E4
1F
CB
11
12
F6
EE
0E
F8
0F
F9
0F
0A
03
FC
FF
1F
07
FF
C8
FC
02
07
0A
15
EC
E5
FE
FD
12
EB
F8
F0
13
F3
E5
FF
1D
18
FC
05
1D
FD
11
FF
F4
02
07
F0
0C
13
26
FA
B6
F7
00
ED
2A
E6
1E
08
1E
F0
3C
EA
FE
FA
25
00
1C
0E
33
E7
09
FF
0C
0E
15
F0
0A
07
09
D2
1A
E5
F9
F6
EB
EF
09
1C
ED
FA
F6
FB
10
04
E9
0A
11
E9
FC
1F
F3
01
08
16
E9
E7
0D
15
F1
E4
04
F1
16
E6
EB
F5
ED
E1
F3
1A
13
01
00
15
FE
F6
F1
05
E9
F6
F8
08
12
E3
02
12
1C
0C
00
FF
F1
FE
E6
DB
14
07
07
ED
F0
03
04
01
18
FA
E4
11
E4
F6
FE
FC
FA
02
FB
D8
EF
15
09
F1
02
E0
20
EE
E1
F5
16
F3
16
DC
05
14
F1
0E
1E
F7
E3
F8
E5
1B
F5
F6
1F
F9
0A
F0
E2
FF
F4
F8
0C
1A
FD
FE
10
14
10
EF
EE
E8
0D
06
01
EB
03
F3
0A
F7
E8
0C
10
E8
F4
00
F6
E0
FB
08
1D
03
1B
13
0B
07
0D
FF
00
E6
19
1A
E8
25
E9
FF
E7
04
16
F0
05
D1
F1
F1
F2
F7
01
14
15
01
F8
11
EB
10
FA
20
F6
F0
16
1E
ED
E6
F8
F8
EA
12
0F
EB
10
0F
0D
0D
DA
09
08
1F
07
12
F8
EA
0C
13
16
05
08
ED
00
FC
E8
FC
02
EC
0A
10
F5
E8
EC
F8
0C
DD
F5
FF
F8
F3
E4
F3
17
FD
15
FE
08
F6
0E
F3
06
05
05
F7
2E
03
14
0A
10
F7
00
0F
0B
FC
09
20
04
05
FF
F8
EC
12
F3
13
F9
ED
F6
FB
02
FB
0A
E1
E9
1E
F3
DE
20
22
0D
10
17
0E
08
1C
16
F1
10
09
16
EF
F8
F4
15
25
13
F0
F6
1A
FB
00
F9
04
E4
00
F3
06
11
0E
FE
F4
12
E8
08
F6
14
E6
F2
0E
ED
09
FD
14
F3
00
F9
ED
F0
EE
0C
F8
22
0C
1C
06
DE
07
0B
01
01
11
08
FE
F2
0E
26
0C
00
EC
F9
14
ED
09
FB
06
06
0B
F9
18
E8
23
26
F0
F8
1A
26
FB
2A
1D
01
02
14
24
E6
ED
F5
26
08
F7
14
05
F4
02
E6
05
FB
17
01
FE
F3
F3
05
01
CA
06
F7
E3
17
1D
0B
FC
0A
15
09
1A
F1
0B
0A
F7
F6
DE
08
03
0D
E9
FE
E4
FC
14
17
0D
EA
33
EC
F7
16
DC
0F
F4
05
EF
0C
C0
DE
0B
EF
FC
F0
02
16
03
16
01
EB
2A
E8
FF
FD
12
DC
F2
E8
11
0C
EE
08
F1
E0
06
08
F4
DC
F6
FB
08
12
F9
F7
00
02
EA
FB
08
18
01
1D
F0
0A
F9
E5
07
E3
02
09
ED
0A
FF
F4
16
F9
F6
E5
D6
F0
EB
09
E7
03
FD
05
03
E9
F3
F4
18
09
1F
FA
DE
03
0F
EA
ED
11
06
13
EC
E4
FA
E0
FC
29
04
EA
FF
EC
10
FF
F9
11
DF
14
FF
DB
02
0E
03
E4
0A
0B
F1
F2
F0
FB
06
FE
E2
1E
FF
FD
04
F4
07
0B
08
0A
0A
27
19
F1
0D
F4
E8
E1
16
08
F3
FC
FC
00
15
FE
EC
17
0D
08
0E
04
13
0C
D9
F5
06
08
0F
FF
F2
FC
F7
3D
11
18
FE
08
0F
02
0D
FA
D2
E2
E7
29
09
F2
16
1C
00
FC
FD
08
D6
FF
0F
FE
FB
04
2E
07
DB
F3
01
0B
FE
01
09
00
0E
16
FF
F1
EC
F5
EC
07
2D
FC
02
08
F6
02
E7
DC
14
00
1A
01
10
00
E9
EC
F8
0A
01
1F
17
F5
00
EA
F7
17
09
02
FD
F6
22
FA
F5
FF
F8
05
F7
08
01
16
09
1F
F5
F1
E5
18
F4
E8
10
06
F4
E4
F0
11
0B
D3
0F
1B
EC
03
13
F0
18
1A
12
F8
1E
21
09
ED
05
06
F7
F9
12
0D
02
16
17
D7
20
EB
F3
0E
1F
08
E5
F5
D6
F4
FD
F0
F6
F0
F9
11
01
EC
06
24
19
03
DC
FD
F1
0C
FE
FD
EE
FE
E4
06
F5
F0
F6
D7
07
FF
DC
01
EE
13
1B
F1
DD
13
FB
E6
0B
E1
01
EF
0E
0B
01
0A
17
15
EF
06
12
E7
06
F9
FA
16
05
11
15
07
0B
F6
D3
12
04
EE
DE
FE
0B
EE
F1
FF
F6
EE
00
F7
13
E8
F4
E2
E4
F5
EC
06
E6
ED
11
EE
F3
00
F4
16
F6
EF
E4
E3
0B
07
E9
E1
F6
F8
F5
03
07
FF
12
0D
FE
F7
EE
10
00
06
02
ED
E6
2D
04
F9
01
03
02
C7
E3
FE
FF
0A
00
0F
08
11
28
F4
F4
0A
FF
E8
FA
FE
04
16
ED
01
EA
F5
00
02
08
F6
F0
FF
F1
FE
EB
23
EE
F6
01
F0
11
F8
F4
0E
0C
12
EF
03
FB
05
F4
FD
F8
00
E6
09
0E
0E
1C
FA
1D
0D
D4
1D
ED
E2
10
0F
08
CD
FD
E7
1A
F0
20
FB
14
09
12
EA
20
04
17
03
0D
12
10
E1
16
1E
11
05
E4
DA
FB
F6
E3
E3
17
EE
16
ED
18
FF
EA
EE
12
18
18
3C
EB
F2
F1
F7
EA
CB
1B
ED
00
EF
FA
24
FD
02
03
F7
17
02
FF
F2
ED
22
1D
D2
0F
13
28
F7
F6
0D
12
E7
F8
19
F9
FE
0A
0B
18
06
F1
F0
01
FE
06
19
FD
D5
F3
01
0D
01
10
11
E2
F3
EE
F0
06
18
14
EF
DC
1B
11
10
F0
0A
F0
ED
0F
FB
FC
FE
0D
42
02
11
08
0B
06
14
19
04
0E
DC
F5
EF
0B
01
F6
08
06
F5
F8
10
09
04
F1
0B
16
F2
F4
EC
08
E7
08
ED
00
14
0C
D3
F9
0A
FE
F5
06
F1
04
06
07
1A
1E
11
0E
0A
DE
FD
0B
13
EB
1D
10
03
15
09
E9
14
1D
FC
0B
F7
F9
07
0E
DF
D0
FB
0A
E7
24
01
16
F5
04
21
E3
09
10
04
0A
EA
17
D4
0E
12
E1
13
D5
05
F5
02
F4
0A
EE
E4
E5
03
FF
12
EB
17
FE
0F
04
14
1E
F4
11
07
10
04
0A
1F
E3
E6
01
09
DF
F9
FE
07
1A
E4
11
15
03
F6
00
F4
EF
F8
EA
05
0A
00
EF
10
F9
0D
23
05
FF
F5
03
F7
F8
FC
EB
00
29
E5
FB
00
17
08
0A
ED
17
F4
F1
0F
10
F4
F6
09
00
F5
03
12
F1
E4
0E
F1
FC
04
24
ED
FC
FB
0E
08
E6
F2
FF
22
00
10
15
E9
10
E6
F9
F8
0A
EC
EC
E2
0D
DA
1A
10
FE
2D
0C
EF
1B
04
12
FC
FE
F5
EC
F5
F5
E1
22
EE
09
1F
E4
D0
09
01
0E
F5
03
F7
D8
04
ED
0C
06
F9
0B
FC
F4
FD
FC
FE
FD
07
08
FF
DB
0C
0E
F1
00
E1
2E
EF
14
06
08
07
E5
D5
F7
DA
E8
F2
02
F8
EC
FA
F5
1E
36
D1
F6
28
F9
E9
EB
D5
D6
FA
0F
21
15
15
F5
17
18
13
0E
F7
0B
04
E4
FF
FC
38
0B
EE
E3
EA
00
F3
F8
01
FF
FB
F4
E4
FE
12
00
F3
07
02
02
ED
05
FD
05
FC
07
02
D8
FA
F8
0D
17
F4
06
F8
0A
EA
06
08
F5
F6
ED
01
DB
FB
F9
FF
FD
FC
ED
07
FB
FB
0C
FB
1D
F4
DF
FB
1E
DA
22
22
DF
09
00
13
FA
EA
04
FC
DF
E8
EB
E9
EC
EE
FB
F4
19
0B
DE
05
05
0C
FA
00
F1
12
FF
0E
F9
01
EA
FD
04
EC
E5
E1
FF
14
F1
FA
E7
D9
17
0F
E0
13
FC
E5
EC
00
D4
26
FE
08
DC
34
F4
04
F6
F4
DC
FC
0B
05
FE
F1
E3
1A
17
E8
05
E5
ED
FC
2B
DD
0C
02
E5
10
D9
1D
E2
0C
F9
0C
FB
17
13
FC
D7
EC
01
17
0D
EE
0C
07
1A
00
F0
05
FE
06
1B
ED
E4
03
10
FF
1A
0C
EE
10
20
EE
F1
0A
0A
34
FF
F4
FF
F0
07
0D
E5
F7
1A
FE
1A
0C
18
F1
E7
0A
F9
01
FE
0F
13
EA
FE
04
0E
0B
0D
F3
03
0E
14
D6
0B
0E
17
04
F8
16
04
26
F4
E7
DD
E1
14
D8
FB
0F
13
11
EE
1C
F5
F6
E1
F2
E9
E6
1A
09
13
EE
0D
01
EE
FE
F1
F5
ED
EB
E5
12
13
FB
ED
FC
EF
0E
F0
E4
25
FE
0A
1C
EE
F9
F1
D9
DA
1D
DC
DA
12
E7
01
05
FB
0A
0F
02
1C
F1
ED
EA
F4
F7
F2
ED
07
FC
06
FE
E3
F9
30
F2
F6
0A
EC
F1
05
18
0D
06
FE
08
FF
16
F3
FF
F7
F1
0E
F1
D7
EC
05
EC
F5
F9
F2
CC
02
08
EF
01
FE
EA
FB
F1
0B
FA
16
EA
04
02
07
0D
F5
E7
08
0B
F9
F9
07
FF
07
F9
1C
E5
08
14
10
F2
0A
0C
EC
F9
FF
03
1E
17
DE
11
F9
FD
0B
F3
EA
00
09
F4
F4
03
10
F8
EF
12
14
09
F3
04
F4
1E
DD
EF
0E
DA
F0
FA
FF
03
F9
13
00
F0
05
03
03
05
18
13
0B
0A
E9
16
E5
13
FC
15
1A
02
1B
11
29
F7
FB
FB
24
11
17
F3
13
F9
0B
F7
13
23
02
EF
15
F1
E3
00
03
01
11
02
16
03
FF
F7
FC
0C
EF
0E
0E
12
22
EA
E8
E3
12
20
1C
0F
12
0C
13
DD
0D
1C
14
EF
01
E2
15
0A
FA
F4
0B
F6
2A
EE
11
F2
08
D2
F1
FD
13
FC
25
02
FA
ED
EF
EE
FC
1D
F8
FA
FF
F9
15
05
F9
F4
00
E0
D4
06
08
0D
FB
0B
17
FC
DB
18
09
06
1C
0E
03
F7
08
E8
0F
19
21
EC
07
F4
11
E7
F4
15
FF
F5
EA
F7
FD
FE
EA
F0
F6
EF
02
28
11
04
10
18
05
F4
16
15
F1
03
F2
06
04
1E
EB
F1
F8
FC
0A
2C
01
E9
ED
EF
FE
12
F1
10
F5
14
04
13
03
0A
0F
EE
0B
08
E7
1C
E9
08
06
F2
07
EA
0D
0B
F3
15
F2
F8
0B
12
DB
16
D2
02
1B
06
E4
0A
13
0F
13
E6
DE
F8
F8
F9
F6
F4
01
F9
0C
0F
FB
0C
04
E6
09
FF
13
D4
19
14
1A
03
E0
0D
0B
21
EF
10
0B
FC
DF
0E
EC
09
FC
FE
12
07
FE
EE
1C
DB
ED
F4
18
EE
EF
E4
0C
FD
0E
F6
D9
F0
F0
07
09
E9
F6
14
0C
F2
EE
02
09
ED
FA
F1
0D
06
F4
0D
EC
00
16
BF
F7
0B
F8
17
D5
16
0B
FD
16
2C
EE
EF
19
0A
1F
1A
00
FA
F1
FB
1A
13
04
16
14
0B
0D
04
F0
15
E9
F0
17
18
F5
14
1D
F8
04
1B
E8
1F
18
FB
04
EF
1E
10
2E
09
0D
F3
11
04
1F
1C
14
07
EC
07
F6
1B
00
0A
0D
FF
EC
F7
11
D2
F3
17
FD
F9
22
FB
EF
E7
FC
F5
F5
19
FD
F3
E9
0A
00
FE
05
11
FD
10
2D
09
1E
E9
FB
17
0E
03
28
17
FB
07
01
F5
0F
FE
10
F7
13
0C
DF
0F
F8
F3
FD
F3
1D
02
0E
E8
1A
13
13
FD
1E
E2
FC
2A
D1
FF
DF
E5
EB
01
02
04
0E
F5
07
E2
1C
EC
14
2C
F6
1E
C5
F1
07
03
03
01
E5
E9
FC
0C
EA
F6
F6
16
0D
F0
D9
20
05
F7
0D
13
08
F2
14
00
14
08
F4
16
12
F4
1A
F9
D1
EE
13
FE
F8
FA
0C
18
E9
11
FF
05
01
F3
FC
1E
16
F6
12
16
F2
F6
E3
15
0A
06
F9
E7
F2
F5
F0
16
F9
EA
EF
15
05
F0
F3
15
F7
E2
FD
19
F7
DB
F8
FC
00
F5
E4
0E
F2
F6
18
0D
F1
19
01
E3
11
0A
1A
23
0E
FC
FB
11
E7
0F
00
0A
FF
10
13
10
E6
E2
0A
F4
EC
E6
0D
DE
04
F7
12
F1
0A
01
DE
FE
02
F4
EE
14
0F
03
16
06
EE
E0
EF
17
EF
0A
ED
F3
15
F5
16
F6
FF
0A
0E
0A
EE
06
EF
F5
E1
FB
FE
DD
E2
1E
06
0B
E1
F0
05
0C
F1
08
06
FF
F3
0A
E9
15
06
11
17
EC
0C
E6
16
EF
FC
14
1F
06
DC
0C
17
C9
E6
15
E1
02
FF
F6
F9
EA
FF
29
FB
DD
F4
EA
F1
F5
FE
09
E2
EB
FC
01
14
F2
13
1B
FF
D4
06
E6
FD
F0
F7
E8
F5
FA
01
F2
00
DA
11
03
0E
01
1E
06
FA
FF
F3
06
1D
F8
FE
EE
0F
D7
EC
03
F3
06
23
E7
F1
F5
08
0A
CC
EB
03
17
F8
C4
12
F6
03
22
0D
00
0C
FC
F8
DD
09
FE
F3
0A
F9
FE
12
05
02
FD
0D
01
0A
0C
0C
16
09
0C
06
F8
15
03
E0
F5
F7
0A
FF
EF
13
FD
15
FE
11
0C
FA
0D
0B
E3
00
0D
F0
09
02
10
02
F5
F4
0B
05
0A
D8
02
FF
17
F3
EE
15
D4
EA
1C
F9
EE
EF
1A
11
FF
24
F3
FB
0E
E2
E3
ED
EA
0D
11
13
DF
F4
1A
01
0A
15
03
F3
01
02
FC
FC
E4
28
11
14
D1
12
DC
E4
11
0B
F0
EE
14
FD
FF
CD
06
0F
FE
02
03
0F
0E
F4
F5
10
0E
03
F9
FB
03
ED
08
0C
FD
09
06
FF
10
02
DB
FB
F1
12
FA
10
1C
08
E7
02
09
17
F4
05
0A
0A
07
14
F7
01
F1
E7
EE
0B
EC
06
FB
1E
F9
E9
FF
0E
07
0A
07
0D
03
0C
07
F2
FC
0F
FE
E3
0F
F6
01
F1
DA
0E
04
FE
07
00
F9
E3
D5
FA
E0
F7
F0
1B
F7
DB
D1
FA
09
17
F2
FD
F5
FA
D8
02
E3
06
19
DA
10
EB
02
23
F8
12
D3
FE
F7
F3
01
FE
FB
ED
09
EB
F9
FA
01
00
E9
0F
19
F3
09
E6
1E
FC
0A
F4
F4
13
FE
0F
04
21
0F
F7
0F
00
F2
03
E7
0F
16
FC
09
EB
FF
1A
0A
FC
01
FD
0E
F0
09
F9
19
06
04
D2
07
ED
02
F4
FE
12
17
09
EF
EB
07
CC
FD
FB
FB
E9
12
0F
FF
11
0E
CE
13
F5
F4
FF
01
EE
FB
0D
E7
F6
19
F6
DB
E6
F9
07
EA
2E
F0
0E
E8
D7
EE
08
FA
F0
E2
FD
13
11
F8
0A
FA
FD
01
0D
FC
0D
F9
12
FF
17
EB
1B
0E
E9
FD
CB
07
FD
C3
F5
11
06
09
E9
FC
EA
08
F3
F0
F6
21
EC
F0
07
FC
0A
DB
22
EF
1A
F8
FC
F4
FA
0A
02
F1
0C
F1
E5
12
20
07
F9
06
F5
F2
10
F8
04
ED
21
17
F8
F8
16
17
F9
0F
DC
ED
0F
16
FD
FA
06
05
E5
FA
15
00
F1
FC
EB
03
F3
FE
F2
10
13
06
FD
08
07
13
04
FE
02
E6
EA
FF
FD
0E
02
03
04
05
00
03
F0
1C
1F
1E
0D
F3
EF
1D
03
E7
0E
09
08
E7
16
0D
14
12
06
EE
01
D3
15
E7
14
08
F6
0F
FE
11
17
E8
25
04
02
27
14
DE
F2
0C
E2
EC
ED
FC
12
E8
E5
FE
FE
08
02
EB
E3
FA
03
05
E7
E2
02
FF
07
FF
0F
0B
E8
0C
FA
0C
EC
09
F7
F2
EE
02
09
E2
F5
EA
EE
EB
08
02
FD
FB
0C
10
E1
14
03
E8
FC
F4
06
F9
00
EA
ED
F9
E6
F0
FD
EB
03
F9
F7
0A
F8
EE
F9
FB
FE
F4
09
03
DD
FD
08
EA
E1
0E
00
F4
FC
E9
02
06
0C
13
F1
02
FF
FA
F9
FA
FF
E6
03
F6
EA
EE
0B
07
F4
EF
E4
15
0A
F3
EB
E8
FB
E7
0B
F4
F7
F1
EA
FF
F4
FE
08
E2
12
14
EC
E9
F5
0A
17
FD
FE
F3
13
12
FE
FD
16
0E
04
08
19
F2
FC
FD
E2
10
1C
05
FA
F7
E5
F5
F4
0F
FB
F1
02
04
0C
F8
0C
07
00
FE
F5
1C
1D
05
08
F9
0B
FB
F7
2A
0D
11
01
E5
0C
DF
03
27
F5
EA
DA
17
0A
E1
F6
E7
ED
EF
F5
F7
0D
F7
01
1E
E4
24
FA
F8
0F
FE
F5
23
01
0A
FB
33
FE
08
03
1A
14
06
01
ED
01
EC
06
21
02
16
FF
14
0C
03
1D
08
12
12
F4
05
F6
E9
1F
EB
FE
EC
26
DD
F0
0A
0C
03
E2
F7
F7
F1
0F
07
0F
12
C9
ED
EF
10
17
02
FA
F2
17
F9
12
02
F7
FD
06
FB
EE
D6
08
E5
07
F6
01
F3
04
E2
1B
FD
E8
11
E7
06
12
FF
1E
E4
03
10
DB
11
FB
1D
0A
F2
02
ED
E1
15
ED
EE
10
D9
0A
FC
05
FD
CF
FF
EE
0F
FC
05
0B
05
02
FB
DE
0B
03
E4
EE
1B
F5
31
13
00
12
F7
EB
11
13
0A
09
F4
05
FB
1B
14
F8
11
02
02
06
17
03
15
0B
02
EA
19
F3
F9
0C
0E
EC
03
F5
