E6
E2
D1
F9
01
D8
0D
DE
FA
0F
29
F7
FF
14
05
FD
E3
F3
F3
FF
E8
D6
29
1D
FD
09
0D
E1
F8
F6
0C
09
04
FF
1B
23
EF
F4
0E
E2
02
F1
F4
02
EE
08
1D
17
EA
E3
E8
03
F4
FE
24
03
FA
E9
FB
F9
FB
09
00
06
16
E7
01
E6
02
DD
FC
F8
05
0F
04
00
F6
22
F5
1E
21
EC
E2
DD
13
F1
13
FF
D5
09
03
F0
14
13
1B
EC
F2
09
F8
FA
08
0E
EA
04
F4
11
1A
FE
F6
F7
E6
FF
15
FE
06
F8
08
12
FA
E1
0A
EC
D0
07
F5
F0
FF
E9
0D
FC
F8
01
08
12
02
EE
1C
23
08
12
24
E7
08
ED
17
1F
0E
F5
ED
F8
16
F9
02
0C
EF
EF
F9
FB
1F
14
FF
0D
10
FC
EC
ED
12
F0
F6
D9
0D
00
07
FF
EE
FF
16
FE
FA
15
13
03
E8
FC
FA
13
17
08
10
0A
02
0C
FB
12
17
F6
EA
F6
22
06
0A
08
F0
03
E8
FB
EE
02
DC
DE
15
E5
EC
E6
F6
FC
FA
EC
08
02
11
EE
04
F5
EE
0D
1D
F6
01
FA
16
F0
01
19
F5
F8
ED
02
0E
12
F4
0C
1C
08
0A
00
0E
0A
F0
FC
14
0A
FB
0A
16
E7
04
F0
E9
11
ED
03
07
E9
0F
E7
E9
F3
EF
02
06
00
0A
F8
11
25
05
EE
16
FB
E4
DF
08
F6
05
01
15
10
F9
F9
FE
FF
02
F7
F8
0E
FA
05
0E
FF
09
02
F9
F4
FD
0D
12
EA
11
15
03
FB
FE
DE
FF
F6
EA
F9
04
0A
05
E5
F0
14
00
04
14
F4
0E
0C
03
F4
07
12
EC
0C
EF
0E
11
FB
EB
06
04
FA
EC
1A
10
E3
EC
08
F7
0F
14
09
13
14
02
1B
FD
19
FA
FB
03
09
F6
00
1C
03
14
15
EE
17
FD
04
08
E2
F6
F9
E6
FC
10
EC
EF
0E
FD
F7
E0
FA
15
09
07
FB
13
F1
1B
02
F3
03
F1
D7
F5
FE
21
EC
FD
10
E4
09
E0
E6
07
16
0A
FC
F9
F4
FC
E8
E9
03
F6
FF
04
05
FE
FB
00
E3
14
F5
1C
F2
EE
24
FE
D0
0D
11
F0
FC
FD
D5
30
1C
FF
DA
F7
E0
0F
0D
0B
16
EB
FD
FE
16
0C
27
18
21
09
EA
1D
F6
06
07
21
31
0F
05
E6
1E
F2
1C
1F
D5
E8
E4
13
FB
F3
0F
EC
07
00
0A
E3
EC
05
D9
25
F3
D4
09
EC
12
EE
F8
FB
13
0A
E5
F5
E2
02
F3
1A
0E
DA
1A
F3
0A
0D
D6
EF
1B
11
08
13
F0
0F
EE
0A
1A
21
0E
01
E7
FF
CC
04
0A
03
04
04
E8
ED
11
FF
F5
F1
FC
F7
0B
E3
03
F8
FE
F9
16
E1
06
EC
07
17
F0
EB
FD
FA
27
13
04
0B
0A
05
EA
F5
FF
02
0B
09
E2
FC
1D
FE
04
06
FF
07
F4
06
DD
03
FE
DB
FE
0A
F7
FA
FD
0B
E6
F4
08
15
D0
01
19
1F
04
1A
0C
D5
D8
EB
EC
F5
EF
F5
F1
F8
1C
F8
16
F5
C8
F5
01
01
FA
F7
EF
E6
1A
E1
EB
04
19
F3
F7
04
FA
E9
FA
0F
11
FF
F7
14
DB
D1
F4
0C
00
25
F1
07
E1
01
ED
EC
DC
08
18
10
0D
07
E2
0A
F4
08
13
F6
1A
EF
09
ED
0F
22
FE
17
F7
08
F8
F0
02
0D
06
CC
1C
ED
EE
0C
03
EA
0F
DD
EF
FE
0F
ED
EB
14
FA
18
FF
06
F5
01
13
1B
1A
0C
04
F9
F6
12
EC
E6
EA
0F
E5
FB
EE
FE
ED
D8
0A
FC
0F
FC
15
E5
1E
02
F2
14
01
D8
16
0D
E9
CA
11
07
01
F6
06
04
DA
02
0C
1C
1E
0D
D4
1B
F9
F5
FE
08
04
EF
08
FD
F1
F0
1B
15
01
24
08
02
01
FA
E5
CD
09
01
E9
09
03
FD
E5
2C
10
20
FD
F3
FB
FA
08
25
00
E0
F1
F9
F2
EC
ED
FA
F0
04
14
D1
F3
E3
E1
EE
17
0A
27
FD
E9
11
E1
03
EC
F5
1A
DF
0D
13
E6
FF
1E
06
06
2D
EE
F0
F1
0A
1A
D8
F9
EE
DD
FB
19
00
D1
E1
F3
0C
21
1A
02
FE
0F
12
02
01
FD
0E
05
00
EA
0A
0B
00
EC
11
F3
15
0B
FF
FE
15
FC
EC
03
15
08
ED
F7
F8
11
05
02
FC
08
FB
ED
FD
0B
F2
F4
FA
F6
14
05
07
00
FE
F3
FA
ED
0B
01
0C
00
05
0B
02
FE
09
EB
00
F3
F7
13
FC
13
FF
F0
EA
10
FA
0C
F9
EF
0B
14
0A
EE
FB
0A
FD
0F
F8
EB
F3
07
02
DC
10
F5
0E
07
EE
0F
2D
FB
0D
18
17
FF
EA
FD
F9
ED
EF
0B
FC
FF
22
EF
10
E3
F3
FD
21
FB
F9
1E
DC
1C
03
F5
04
ED
23
FB
DD
ED
20
E0
D7
0D
03
F8
02
0E
F3
15
D7
E0
03
F0
02
F5
E6
DE
E3
EC
02
1B
F1
01
17
FE
F8
FB
F1
0E
17
1A
0D
13
FE
F9
09
F7
FC
E3
13
0F
FE
18
E7
06
0D
07
18
06
E0
D0
F5
F3
00
03
07
11
0D
F8
05
F3
0B
FA
17
04
EA
D4
13
0D
0C
1A
FA
0B
FF
EE
ED
08
05
EA
EE
FE
FE
01
F5
00
0A
04
18
0B
F2
18
F2
E2
07
0E
EC
FC
FF
ED
19
20
17
E4
08
F1
FE
FE
D4
2D
0D
17
D9
DA
FC
03
FF
FE
DD
FE
06
0F
F4
FA
12
12
FF
F4
E3
F2
EF
EA
14
FF
00
1A
0F
18
DD
F7
F8
1D
07
EC
04
E8
F8
F4
04
25
E7
FA
F0
E6
E3
F0
0D
F0
19
EC
08
1C
FA
04
17
FB
FC
FE
E7
18
0E
F1
E4
FB
0B
D1
E2
EB
E9
F0
19
EC
E4
E1
1A
22
1D
FA
F6
DD
EB
06
0E
0C
17
13
DA
F0
DB
E0
EC
F8
E2
12
FF
00
FA
03
FE
C9
E4
E2
03
F3
00
EC
05
F3
1F
12
0E
15
2A
01
08
F4
F8
CD
E9
02
00
F7
08
09
0F
08
EE
E9
03
19
E7
0D
F7
E3
1C
DC
EF
F9
F0
17
09
00
13
EF
F6
F9
FC
01
F5
02
19
FD
EA
02
FB
21
1F
F3
E8
0D
0B
E0
02
13
23
19
12
EF
F4
FC
1D
FA
18
0D
F7
FA
1E
05
10
F2
0A
05
FD
ED
ED
DA
C7
CF
EE
FA
FA
EB
04
00
0B
F8
06
14
22
E0
F6
17
EE
FD
02
E6
1C
1D
08
18
02
D3
10
DA
16
02
FC
07
D5
0F
F8
05
1B
06
F4
05
FD
F4
E5
F8
F8
1B
0F
00
E3
03
E0
EE
25
D5
CB
1A
25
10
FC
FC
E7
FB
EE
FD
E1
1B
06
D7
DC
FF
09
0B
11
0C
06
02
02
03
02
E7
16
EF
05
11
F0
12
02
02
0B
D0
FB
22
FD
F7
10
13
E7
18
0D
14
E1
C0
BB
EE
0B
F2
00
11
E5
ED
08
FC
DB
19
25
08
13
04
FA
FE
D5
21
3A
06
25
EB
11
07
17
13
13
25
DD
0F
F9
E1
15
FA
11
13
E9
17
0A
29
DC
E6
F6
D5
13
04
F8
EC
DA
03
06
21
D2
18
0B
FD
DB
E7
F1
E2
0E
10
0B
EF
DB
F4
0C
F3
17
F5
E3
10
09
E6
EC
1A
E1
08
03
0C
E6
D1
07
FC
0D
F6
F4
EC
EA
0B
FE
01
0A
FF
14
FD
16
17
00
01
0F
07
12
EB
14
0F
04
05
03
03
F8
05
DE
F7
13
19
F8
F3
12
01
FF
0E
15
04
14
0B
01
F3
D5
12
0A
01
12
F9
1C
EF
F3
E9
E1
0D
FB
0F
0C
02
04
17
EC
ED
10
00
FB
14
09
04
16
00
DF
1C
FD
0C
14
09
01
05
F7
13
27
1B
22
FC
06
F8
FF
02
02
F6
F1
0B
EF
F8
ED
DC
07
0A
03
0B
E5
E4
07
FD
F0
09
14
CC
07
02
14
02
16
03
E9
0F
F6
00
E7
08
09
EA
00
E1
F0
01
05
FC
EA
17
E7
13
0E
10
17
11
F0
01
F1
16
F1
FF
08
02
0E
FC
EB
07
0D
15
E7
04
08
EB
08
F1
F9
EF
15
ED
F5
F1
13
FA
07
21
02
09
06
04
0C
FC
F9
1F
1B
05
0A
08
F8
EF
F6
0C
13
12
02
10
16
18
F1
0F
F2
F5
11
FB
0B
1F
F1
FB
17
15
EE
15
04
1C
1A
FF
1A
01
11
0D
F5
FE
06
0D
01
00
03
0B
FD
FF
05
0A
12
FC
E5
07
19
FA
11
F8
FB
F2
EB
F7
F4
15
12
EE
0B
EE
EF
00
11
0C
04
F1
01
08
03
FE
E3
FE
EC
0A
03
F6
11
E5
F6
FC
0F
EA
06
06
0D
E8
EF
FF
EC
08
01
0E
0C
0D
FE
06
ED
FF
1C
04
F8
02
EF
F7
0E
FE
16
16
F1
EC
01
EF
F8
01
02
F5
08
EE
05
F0
F7
FC
F9
05
0C
0C
FA
09
12
FF
F2
F2
0A
E9
E0
F2
F9
EB
E4
11
E8
13
1F
06
D5
F0
DC
16
F3
06
18
F3
06
F1
F6
16
F4
FA
14
0A
FC
EC
1B
E2
0A
F9
0A
06
0E
E2
10
DB
F6
F2
E8
F6
FE
FB
01
01
E8
06
F4
F3
F8
07
13
FE
F8
F6
F0
F1
0B
10
10
0E
F4
10
F4
EC
F5
0C
FB
05
08
DF
22
01
F1
0C
10
EB
20
0F
FC
17
09
01
16
E0
E0
1B
E7
EC
02
EA
E4
1A
F0
EA
11
FD
FB
EB
1E
1A
1A
0F
F3
0A
06
15
20
F0
E3
E8
05
21
E7
DA
0C
FB
14
FE
04
0C
F2
03
F0
DC
E6
F9
17
01
F2
E8
25
E0
FC
0F
0D
FE
0F
F1
05
10
0A
FF
00
0B
0E
11
0A
F5
F6
07
0A
03
E8
0E
FB
F3
08
16
1C
FF
07
0B
FD
F9
DD
05
E0
0B
01
FB
14
F8
F6
00
FF
1D
E5
16
F1
16
09
F0
F4
DF
1B
F9
02
12
05
FE
F3
1D
35
0E
01
FD
16
F0
1C
EF
01
ED
06
E7
00
07
0D
08
FA
13
20
F2
0E
F1
E3
07
0C
16
FE
EA
F9
05
D1
09
F7
F9
E9
01
0C
E2
EE
F5
ED
1A
0F
03
0F
EC
EF
FC
06
09
08
1A
F9
E8
E2
12
02
14
F6
07
F5
D5
02
DF
F3
08
21
07
05
12
FE
12
12
04
DF
CF
F4
F9
15
03
E9
F4
EE
19
19
2F
01
14
12
10
13
FC
03
13
04
1A
03
FA
E1
14
1D
FD
0C
1A
EF
07
05
1E
11
17
0E
F2
0F
E9
F1
16
F6
11
EC
0A
12
F3
E4
E1
01
00
02
05
19
09
E7
1E
FF
0C
E7
0A
06
0C
10
02
F7
04
EA
E9
0E
F1
F2
DF
F9
0B
F8
10
1E
F3
F2
F4
01
1C
E0
F0
E6
ED
01
00
08
03
FD
F8
F9
0D
F0
05
11
FF
E1
13
E2
F9
EB
13
F4
F3
17
10
F6
D9
0E
E4
F1
F9
FA
F1
EC
FC
0E
EB
0A
F6
F1
EF
DE
DF
F8
17
EF
EE
E5
22
DB
F0
1C
18
21
FC
FC
16
F3
06
02
FC
F5
FA
1C
F7
EB
F3
14
13
ED
09
F4
01
0D
00
03
0A
FB
06
07
00
17
11
E3
01
0A
0A
02
0B
03
F8
F2
F2
07
11
EE
F5
FE
E9
EF
06
FA
0A
07
0B
ED
F2
EE
07
0A
EC
F0
10
FC
00
FC
FC
10
0E
F7
FC
03
F8
F2
F8
08
14
0A
15
03
F0
03
EE
FB
05
F1
13
EC
FE
F5
F6
0A
F8
09
01
F2
0C
05
FD
F6
0B
0E
EF
08
FC
04
11
00
0E
10
16
F1
FA
EC
FB
F4
EA
F4
08
FB
FE
06
10
F1
00
13
12
EA
FA
FE
01
EC
F5
05
08
FD
F3
06
F3
03
06
EA
F1
F0
EB
EF
F9
0A
09
14
F4
09
0C
EB
18
FC
08
F7
F4
03
FF
01
EF
FB
06
FF
09
F9
FE
ED
0B
07
12
F5
12
E9
15
17
FD
10
EC
FA
06
EF
15
EF
12
0E
02
FA
08
F3
1E
0B
FA
02
0E
03
11
FE
0C
19
10
04
17
ED
12
F6
ED
1D
0D
F1
F7
13
0F
10
F7
F1
0B
FE
09
0A
FC
0B
FC
EE
EE
16
00
DF
D4
FC
F8
12
F9
E1
E7
F0
FA
FF
12
01
15
0D
DB
1F
06
05
18
12
1F
FF
06
EA
0A
F4
07
19
16
15
03
F4
0E
F8
09
F7
FB
06
FF
F7
1D
FA
0C
E8
1A
00
F9
E6
0A
F4
08
00
FE
02
EF
29
15
FE
17
E7
E4
F5
F7
13
0E
10
08
0F
FD
11
11
1D
EB
FC
FE
E6
00
1B
F1
EE
27
1B
18
0F
F7
F3
FD
0C
0F
F4
1D
D4
32
1F
E3
14
25
E9
02
17
12
F4
14
EB
E4
FD
1B
F4
E9
11
FE
FD
F2
06
E0
05
F0
04
F7
E5
EE
F5
DD
1B
F9
E7
DF
EE
E6
16
0C
F5
11
03
F6
16
F8
EF
E9
0B
F5
0C
18
14
12
EB
F6
F8
EB
12
05
F1
11
18
FF
F7
18
18
16
03
FC
03
E4
05
1C
0B
03
F0
1B
E8
09
05
F0
FA
18
FC
12
07
02
15
13
FE
0E
F5
E7
FD
EF
17
D0
FC
ED
F7
16
E7
EE
F3
F6
11
F5
0A
09
ED
F2
F5
D6
E1
22
19
F1
05
1C
F7
F5
14
E6
F5
EF
0F
03
F6
01
03
E7
FC
0C
F3
FE
04
0D
09
1F
03
EE
EA
F7
E4
EE
03
F4
F4
15
05
F3
FF
1C
16
EF
0C
04
F5
D4
1D
FD
01
F7
14
1B
F5
FB
00
EF
FF
12
01
F0
E4
03
00
06
F8
DC
FE
09
ED
E4
F2
E5
F4
1C
E9
E3
17
F7
0A
F9
21
EE
F4
08
EF
E6
E9
E2
00
EC
F9
FA
1E
04
FF
0C
FD
18
12
FD
F2
FF
05
E7
FA
FE
1A
23
FA
16
F6
FE
26
10
F8
FD
F0
F2
14
17
DF
F0
FE
0B
F8
FE
F2
0E
EB
FA
00
02
F9
F2
05
1D
02
F8
18
EA
C8
1C
F8
F6
FC
E4
EA
F9
00
1B
0F
01
07
03
ED
13
15
DB
0A
15
EC
0A
07
19
17
02
0F
E5
E8
FE
01
1F
0D
0F
FD
F3
0D
FC
17
EE
07
18
F7
09
FD
F4
11
13
1B
FE
FF
EC
F4
19
F3
11
0F
EF
0B
0A
1C
18
14
F6
09
0B
11
FD
F4
08
F2
09
0F
1B
F3
04
13
10
01
F7
FB
F1
06
FD
FC
0C
11
1A
14
0A
F7
FA
E6
11
04
0E
FB
10
07
FC
FF
ED
00
0A
0C
FF
14
06
F8
09
FB
07
1A
E6
E1
FB
EA
1B
FE
FF
0C
27
06
0A
04
F9
FF
EF
10
D9
0B
15
08
0A
EC
EF
09
F4
1B
00
0B
F4
18
00
0E
F3
10
13
1C
F7
E7
FC
0E
FE
13
1A
F7
07
FB
08
18
E5
15
F6
FA
0F
F7
1C
02
00
EB
FB
17
0B
17
16
09
10
14
F5
FB
FF
FC
15
F5
F4
FE
06
E6
EF
F7
04
F8
E2
F1
F6
0A
FA
0C
F4
0E
1E
00
F3
10
19
F3
13
24
09
10
F8
DF
08
2B
07
F9
FF
E6
19
E4
ED
FA
15
DF
D4
FB
04
EF
F3
03
28
00
DA
18
E6
06
DF
F2
F2
EC
E3
F4
E4
F0
EB
0F
E2
F2
F4
02
11
07
FF
10
00
0D
F1
09
05
0E
F0
1E
03
0C
1A
06
1A
EA
18
05
F9
16
13
01
D2
16
F5
02
01
0B
12
13
F1
15
09
02
17
10
F7
0A
E8
F2
EA
02
F3
04
0B
F3
ED
06
04
0E
EF
F0
06
FB
11
F2
F2
F5
ED
F7
15
03
0C
FD
08
01
06
07
10
FE
FD
F7
EB
F2
0C
07
F9
F8
03
F4
05
FF
0C
0A
F1
FA
F9
EA
F2
02
11
0E
0A
F4
F7
FB
0C
FE
02
F7
EE
11
E7
EF
FD
F1
07
17
EA
04
F3
04
ED
1F
F8
1C
ED
0D
EE
0E
0D
F9
04
00
E7
12
25
F5
1C
FF
04
E4
0E
F8
1B
EB
00
03
E4
E1
E3
FE
11
07
1D
F4
02
F7
10
19
E9
18
FF
F7
E1
EF
0F
EA
19
1E
00
EA
DA
E8
F7
02
F9
15
FE
20
04
33
F0
FD
15
1C
F0
11
D8
1D
EE
E3
1B
FD
EF
FD
F2
FC
15
E7
ED
F9
EE
0C
04
F8
1D
EE
FC
FC
04
EA
F1
14
01
F0
04
E8
08
FA
FD
EC
11
F4
1C
1D
09
10
FC
EE
1C
13
08
19
FB
F8
F8
F1
F5
15
0C
EF
23
F6
14
F3
05
06
F3
F7
13
E2
18
F8
11
04
E5
1C
F6
F5
13
EC
E6
F6
E4
EC
FB
F6
07
FA
ED
07
04
F4
10
F9
11
FE
E4
10
F5
14
FE
EE
02
0F
EB
F8
E2
FB
C5
F9
FF
E1
0A
E7
30
F8
D4
F6
32
FB
D6
F6
FF
15
09
FB
F7
0F
FE
26
D1
FA
21
0E
EB
18
1D
0B
FF
F2
FC
01
C6
EC
0A
E3
00
E6
DA
10
F9
F8
E6
EF
05
F3
08
02
1B
2E
08
D3
08
E5
DB
F0
00
F7
06
22
0B
1D
0F
10
ED
DF
20
30
29
EA
0C
2D
F0
1F
11
0B
F4
DC
08
0C
1B
16
F3
06
0D
0D
00
14
FF
F6
ED
EE
0B
EE
11
F8
FF
09
F7
EC
FE
F9
F8
F2
F1
03
01
0A
F3
0B
EE
EE
F0
16
F2
0D
F4
10
F7
11
FE
EA
00
05
F1
EF
17
0A
0A
0E
F7
02
FE
EB
EB
13
F4
FE
14
16
F3
16
FE
FA
F6
0D
FB
04
0C
FB
EE
F2
F7
F0
FD
09
16
06
0C
EC
FE
ED
02
07
FD
FB
FF
FE
F8
F4
FE
EC
EB
0A
E7
1D
03
F0
01
F5
DE
F4
21
0C
00
08
00
12
F6
FD
E2
02
0E
E4
ED
05
FC
FB
13
EA
10
F8
F0
ED
E8
00
FD
FB
04
1E
E8
F7
FC
EE
00
13
E6
F9
19
E5
19
FD
07
1E
06
DC
E2
F5
D3
D4
FC
0A
06
1E
F1
F6
FB
F6
0E
1E
F9
DC
FA
06
12
0F
FD
00
E8
09
FA
21
10
0C
1D
0D
FB
F1
14
EB
13
FC
EC
0C
26
04
05
F6
E9
02
F3
EA
03
FF
FD
0C
10
11
1D
EC
F7
1A
FC
2C
F9
F6
FB
16
10
21
04
FD
F1
1D
18
FB
FB
F5
12
09
0D
08
0F
F7
0E
12
07
ED
11
0F
1E
FF
12
1D
FE
1F
F9
DA
0A
0A
FB
EF
F6
E9
EA
0C
0D
FB
17
16
FB
FE
11
DD
E6
E8
F2
FB
D9
FB
04
FE
FE
18
0D
FE
11
05
03
07
06
E8
DB
03
FD
2D
05
F6
00
11
F0
02
09
05
F1
FD
15
F0
F9
FE
0E
15
02
0D
F2
F2
21
1C
E9
10
24
15
D5
FD
FD
17
15
FD
F6
EB
ED
E6
0E
F4
FF
F8
04
ED
0D
E3
0B
22
0A
EC
24
02
D9
FB
EF
17
0B
1E
09
FD
0C
F5
E7
FE
FD
E7
03
0D
CF
05
E5
22
FE
39
0E
3B
1B
24
ED
19
CD
D6
FD
1D
2A
2F
EF
FE
05
E4
14
08
21
D7
E4
E9
DE
05
D4
F2
E3
F1
D9
F7
FD
21
07
F4
03
03
DA
1C
EE
2E
01
0B
E1
F6
17
F8
F0
F8
FE
05
FD
05
EE
E2
42
E6
FC
22
34
F1
11
28
F0
17
15
C9
E3
F9
EF
FA
10
1C
06
01
0C
E7
E9
E9
DE
1C
F6
FF
19
0D
ED
12
08
EE
10
15
0E
F1
00
D3
1D
F8
0D
FE
DF
E3
11
01
07
F1
1E
13
FD
EE
11
F1
F1
18
0C
18
FA
14
03
03
EA
01
EC
F1
FD
00
06
EB
07
02
EE
F0
03
F8
F4
EF
04
F7
DE
10
02
01
F4
DF
FF
05
17
11
F0
0E
05
E6
00
E9
EB
06
E1
1D
12
09
F0
00
07
10
FF
03
09
F8
0D
0D
09
09
FB
FF
0F
F0
F5
FA
FA
10
05
F9
EB
FC
09
EC
00
03
FE
00
ED
F6
F1
0B
FD
08
0D
EF
F8
F7
F7
0E
11
10
F7
0A
01
0E
FC
F6
F7
06
10
04
13
13
04
EA
12
0C
F4
08
FE
0F
11
09
FD
09
F4
18
F3
04
07
03
F0
15
0D
FF
07
05
14
05
FF
F4
F5
D9
E0
E4
E5
D2
FF
0F
D5
1B
16
14
F7
F5
05
13
FE
E9
FF
0D
1C
27
FB
EB
03
F5
02
01
FA
FA
F3
E0
F5
F9
08
F1
12
EF
11
FE
00
1A
DE
E5
DD
FE
E8
06
03
12
FE
FD
01
F6
13
F3
01
12
E8
C0
07
01
0B
08
08
DF
FC
00
FF
0D
13
10
09
28
F3
E1
F0
0E
CC
E5
03
08
1E
F2
0B
DC
DA
F1
E8
F2
12
00
F0
15
0A
0F
12
FB
01
01
00
02
12
FF
0D
1F
1E
F1
03
02
F1
F2
05
0F
EE
00
06
ED
F7
0E
E8
0B
DD
07
F1
F0
01
11
E7
F9
FE
F1
EA
07
FC
19
11
ED
F7
E5
18
0F
08
DE
0B
16
EE
CD
0B
F9
FE
13
F0
06
F9
18
E9
17
15
02
09
07
FD
FA
E8
F9
E4
14
07
F2
02
1A
07
F9
FE
E9
15
0B
FA
F0
0F
0B
09
F9
FB
02
09
ED
0C
0F
06
F6
F4
F0
13
03
06
FD
19
0D
E8
0D
FE
14
03
ED
F8
0F
12
11
03
03
F6
F0
FD
F3
19
EF
FD
08
FA
0A
FE
FF
FA
EB
F6
0B
08
09
F1
FD
06
FE
FD
FA
07
FE
0B
05
F6
FB
F7
FF
02
0A
FB
15
FC
0B
03
F5
13
05
10
0B
09
04
0B
F7
F9
F1
04
EF
F7
DA
FA
07
1A
F4
0E
0F
0B
EB
FA
EF
02
00
FA
10
1F
19
15
14
08
07
EA
F4
F3
02
0C
F3
E8
FF
0D
0D
03
15
11
EC
15
10
F0
F7
0D
F0
20
1D
E4
10
14
EF
0A
1F
FF
E7
14
07
07
EA
0D
08
F7
F4
14
07
E2
F6
10
07
FB
00
F4
FB
10
17
E9
05
E3
F8
E7
04
EF
12
F8
19
08
0C
01
E7
EA
D5
12
F7
F4
DB
E3
F9
1E
EC
FE
E6
FA
02
EC
F7
13
F0
2A
F9
1A
06
F6
10
09
03
02
11
DA
DF
F8
FC
EC
EC
ED
EB
E4
05
F4
19
F8
18
11
0F
E6
FC
0A
F5
F6
1A
19
1A
08
04
E5
FF
13
16
0C
01
FD
F9
02
0D
E9
F1
06
F7
DB
00
FE
CF
E8
E0
E7
14
0E
0C
0E
1D
05
F2
F7
EC
19
10
19
DD
F6
04
10
20
0D
03
03
F2
00
08
00
00
F6
0C
15
FF
06
E7
13
1A
F9
16
F7
11
F3
E7
DE
06
D9
0F
11
05
1B
04
F9
23
EF
FC
E4
0D
F2
F0
27
F1
EE
F0
04
E4
FF
FC
F7
16
23
15
F2
F5
19
EA
F5
03
12
FC
F9
2A
11
09
E0
21
FA
03
11
F8
F9
EB
0B
DA
FA
F4
E5
EE
14
0F
12
FA
19
F6
09
03
F9
ED
F9
E9
13
0B
2E
F6
05
1F
F4
15
E8
E3
10
DB
1C
13
E6
F9
F4
0B
E6
FC
0C
FE
09
12
20
02
11
E9
0B
05
F6
0D
0E
02
19
E5
00
20
0E
11
DB
DF
1A
F3
02
F1
EE
0F
F7
FF
F4
0C
0F
EB
00
0D
FB
EE
F9
0C
11
15
FE
10
F1
EF
00
EB
15
1D
F7
13
15
0B
F4
FD
1A
1C
E8
F6
DF
FF
1A
19
F6
FA
F3
F6
08
F7
D8
FC
F5
07
F8
05
04
EF
DD
11
F8
09
09
0B
FB
E7
06
1B
F5
00
19
08
FB
1D
FE
DA
ED
16
F1
18
F7
FB
DC
15
0C
E8
FE
FF
EF
03
02
FE
DB
29
0B
07
FF
03
EA
11
1D
EA
12
09
05
03
FC
06
F2
0A
EC
EE
EF
EA
0F
10
00
13
01
13
11
04
F6
0D
EE
05
F5
FD
0D
EA
F5
03
F6
FB
0E
F2
FD
0E
FE
FC
02
FA
F9
E8
00
F4
07
06
0A
F6
FC
F9
05
ED
F9
07
FF
FD
FC
09
09
03
0D
F4
13
14
F5
03
0E
EB
1A
F7
15
F2
09
10
F8
FB
05
F2
11
F3
ED
01
0A
0C
15
00
0A
EA
FC
0D
1B
03
0B
FE
0E
EF
1D
F3
14
F2
ED
FC
E6
1A
1D
06
0E
05
FF
03
0E
10
20
0A
F2
10
04
1B
03
F2
E8
02
15
13
FC
E9
FB
09
EC
09
0B
F4
F3
EF
EF
00
0C
08
F8
11
FA
08
FD
16
F4
E8
E8
09
EF
F6
F1
E9
0C
F1
F1
06
ED
F7
FC
DD
0A
FC
0E
FE
F9
E5
F2
12
01
19
09
ED
F4
18
FA
F6
09
F1
F4
06
10
FC
F7
F7
0F
08
19
FB
F9
E1
F8
EE
FE
F1
1A
E2
1A
FF
01
FD
06
DF
0D
FF
F7
14
21
0C
07
EF
EB
11
F5
07
0D
E0
F2
20
F5
0A
13
0A
16
FF
02
1F
14
01
E8
10
F4
12
0B
00
00
EC
18
0E
E3
04
FA
13
00
F4
D8
0F
CE
F2
E6
0C
02
0A
0E
F2
F0
1A
0D
FB
18
13
F1
18
0B
16
F9
E8
FE
FB
E9
01
12
20
11
19
0A
EF
F1
08
F8
EF
FB
0D
D9
E5
F7
FA
15
E9
F6
EA
ED
EC
10
0E
0F
E8
0E
F9
E7
ED
F9
0D
03
12
03
E9
09
F4
FB
07
F3
EB
E1
06
E2
EA
01
F4
E1
EE
F1
F1
00
1E
F1
0C
F5
EA
02
FE
13
10
F0
DF
ED
00
0F
F5
1E
18
ED
FD
C9
FF
1A
FC
E9
F3
F1
14
F4
05
01
F9
FE
C8
EC
F4
2C
EA
E5
D6
F9
DD
03
1B
24
1D
11
F8
24
0A
2A
F7
17
1A
E7
07
ED
F9
1D
09
0B
E4
FA
D4
0A
DE
F1
18
E5
02
D8
12
00
2A
16
F4
E4
20
F6
EF
2E
FB
E7
D7
03
EB
0D
DF
E4
F1
FF
E3
F5
13
FD
03
E1
18
1B
0F
EA
FA
ED
F7
15
15
FA
FC
DF
10
E5
E0
13
FA
18
06
0F
F0
08
0F
FB
07
0D
E4
04
FF
0F
F5
FE
00
16
FE
FC
03
04
FE
13
F1
EF
1B
FF
F7
EE
0D
FB
EB
13
E9
F6
F8
03
14
10
07
EF
F8
F9
E8
08
E4
F5
04
08
F8
EF
F4
0A
EC
01
F1
06
0F
0E
F5
17
0F
F4
06
EB
27
15
07
F2
09
0B
08
F7
0D
01
EF
10
14
F3
14
12
10
FB
F9
F6
F0
F4
EC
E8
01
1B
FB
16
F2
F0
FE
15
ED
03
FB
15
FC
F2
EC
11
13
19
F4
F7
04
01
04
EA
EC
0D
F2
E9
0C
0E
04
F2
FF
00
F0
15
EA
ED
FF
F3
F0
EC
17
06
EA
14
19
F9
05
11
F8
F4
F8
F2
FE
F3
F6
FF
FD
03
F5
ED
F9
0C
17
FB
04
F8
11
07
1D
EC
F6
ED
04
F5
EB
15
F9
0F
08
1E
FA
F9
F9
03
FF
10
15
F7
FC
FF
0D
1B
0A
F3
F0
F9
EA
F4
04
18
16
F4
F9
22
F2
0F
00
17
00
1D
13
19
F2
F0
18
F1
0C
09
0C
F0
FD
FC
11
06
03
F5
05
06
0B
01
EC
02
FC
0D
F3
F6
09
EE
01
01
08
F9
EA
EE
F5
1E
E9
E1
00
E2
0B
06
06
07
F9
05
03
05
EF
18
02
EA
F7
01
F4
FE
13
0C
E9
06
05
FB
F9
0E
EE
DD
F1
17
17
FA
FD
FB
EA
E3
0D
EE
EF
03
12
E5
0F
E9
E9
01
E2
0D
11
0A
FE
FA
13
F1
13
EE
12
FC
0B
E6
0D
F8
0A
08
DE
FE
F5
16
0A
EC
FD
18
E2
15
F1
EE
07
F7
DA
10
06
30
F2
EC
09
02
FD
E8
28
FE
28
EE
16
21
F6
E3
DF
07
02
E4
D1
03
F3
01
0A
12
F6
DC
EF
FE
FB
F1
13
19
E7
00
07
17
08
22
28
FE
1A
15
1C
05
29
F0
F3
F8
F1
09
D6
EA
E2
0B
26
02
16
0C
DC
00
D3
ED
12
10
00
07
05
0F
F9
03
2C
00
F3
0D
EB
D4
DA
FB
13
0A
17
D9
F6
16
07
FA
08
02
F9
08
10
EC
10
07
F6
04
DC
19
1B
06
0A
FD
FA
12
F9
D4
EA
E5
F2
10
18
0F
15
EA
07
FD
F9
D9
F2
FF
E3
F2
12
05
EB
03
1A
08
12
FF
F0
01
F5
EA
0C
06
E8
07
FA
E0
05
F8
F2
15
0F
11
10
09
EF
E5
05
13
F2
FF
01
16
1D
F1
FC
EA
0E
0D
04
F8
0A
0A
04
01
E0
DA
19
F9
0D
1B
D6
1A
02
F6
E7
00
1B
0C
07
FD
01
19
F4
03
EB
2A
05
03
04
E7
07
EF
2F
05
04
F2
18
25
07
FE
03
D0
FA
07
08
F9
F6
F4
E9
FC
F2
EF
FD
11
00
FA
1A
02
B6
20
08
22
E8
FE
1B
EE
E1
04
10
D5
0C
EA
CC
F7
E9
BF
02
19
01
1C
04
E7
FE
EE
E1
FC
08
10
06
F8
01
01
EC
E8
11
F4
EA
00
0D
F3
13
10
08
FC
FC
FE
F4
F2
06
F6
10
00
04
F8
F9
F9
F6
FF
0C
F4
0F
11
12
05
08
EF
0D
F1
EE
FC
01
16
02
EE
08
03
09
F9
0B
F3
14
ED
F7
EE
ED
0C
11
EC
EC
F3
16
F1
F9
F7
FA
FE
02
FC
ED
F7
0E
01
14
F9
FE
F6
02
F9
F6
05
F8
0C
F7
EF
F4
04
09
F0
15
07
CE
FF
F6
15
0C
10
1A
D8
F8
23
13
1E
E1
FF
E5
0B
01
FB
04
0C
F5
01
10
0E
1F
F6
FE
E9
07
05
07
F8
03
17
1E
FF
EF
FE
E9
F7
14
F7
D7
FD
F2
EF
00
E1
00
1C
0C
17
03
00
1E
0B
0D
DA
00
04
08
0C
EF
0B
E8
E3
F2
EE
07
19
E6
FB
E7
FD
00
F4
06
EF
F5
F0
F7
ED
16
11
F5
03
F9
FA
FD
E4
F8
FB
1F
0B
FF
23
F7
04
EB
F5
11
13
ED
19
04
02
F1
ED
F8
05
00
EE
EF
18
FD
0D
FB
F5
05
E5
F7
12
EB
EF
02
DC
FF
02
08
1A
ED
F5
FC
06
EE
0D
13
F4
11
16
23
E8
F1
0E
EF
EF
FE
F8
1A
11
13
EF
00
F6
EA
FE
ED
CF
F4
ED
02
F6
09
18
1E
F4
0F
10
09
0E
F7
0C
FE
0E
F8
1E
1F
00
D1
E5
F9
15
07
E5
07
0B
E5
FD
E9
01
06
18
0A
16
1B
F0
18
03
16
E5
F9
EF
EA
F8
00
FE
09
0D
0B
D9
E4
00
F1
FA
2A
16
E8
DE
08
08
F0
16
05
F2
05
F2
12
0B
01
0E
12
17
13
0A
1B
1A
F9
DB
FF
F4
EF
FF
FD
09
EA
F7
1B
11
02
FF
F5
12
04
0B
FF
08
00
08
EC
15
12
01
F2
10
09
1A
04
E2
15
0A
E3
FC
05
E7
08
0A
F6
18
EB
F3
F9
D9
F2
08
EC
FC
0F
D7
E8
F9
01
FC
FC
D6
18
ED
0E
F7
E6
F3
FC
07
F1
0E
18
F6
E4
F4
FF
02
FF
0D
FE
0E
F1
D5
13
1A
FF
11
E3
E6
FD
09
F5
EE
F1
29
F8
01
2E
0C
23
13
EA
0F
00
E0
15
EE
26
06
17
05
FE
EC
E1
FD
DF
F9
F0
00
0C
20
06
F0
FA
EB
FE
0E
EB
0A
E4
F8
F3
E2
1A
FA
0D
0C
18
0C
EF
F8
03
FC
17
F1
10
FD
00
0F
1E
16
02
0B
E0
04
1A
EF
DA
EC
F5
F8
0E
F3
EA
12
10
16
FD
23
D4
FF
D5
F9
0E
03
F7
0F
15
05
0A
03
03
06
16
1D
EA
09
17
F6
0F
DA
F5
1F
17
14
23
E6
F2
11
E8
F3
F4
F5
02
FC
F6
0C
0A
0E
15
07
EF
F5
F5
F3
0B
E0
10
F3
F7
E5
EA
15
EB
F6
ED
0E
E4
04
12
FA
04
F3
08
DC
EC
01
06
13
12
E4
FB
08
03
EC
F9
03
FB
22
F5
0B
1E
0E
06
24
FA
07
02
DD
0D
FC
F6
21
11
0C
F1
F6
01
0C
E1
FE
FD
01
0A
F5
04
0D
01
FD
0D
E5
E8
22
CD
E3
F6
08
EE
24
FC
01
01
0E
04
1E
FA
F4
09
FF
F9
E1
2E
F1
E1
04
2D
1F
FB
19
F1
08
E8
F7
FE
01
EE
07
1E
05
0A
01
08
0C
F8
E3
F6
E7
F7
FA
01
0E
F1
EA
14
FD
E2
FC
E6
F3
E0
EA
03
FD
F7
05
F9
F1
EE
EF
03
03
06
16
00
E2
08
FB
21
14
F6
E1
1B
F2
12
0B
08
12
0C
0D
F0
FF
27
F9
18
09
F3
FE
E7
D4
EE
EF
ED
FF
0A
F5
FC
F5
0D
30
14
E7
FC
F8
0E
EB
16
F0
F8
F4
06
15
F0
14
10
11
F4
D9
1E
0B
E3
08
F8
F5
EA
14
0B
E8
04
16
FC
FB
FD
FB
F7
2E
04
08
01
0B
FA
3E
FD
E5
07
19
25
F0
03
F0
17
F1
29
09
F5
DE
01
11
15
EA
D9
DF
E3
09
0D
F0
1F
EA
C5
E5
DF
EF
D9
F7
F0
1F
ED
D5
DC
FB
F6
07
05
0C
F4
E5
22
09
01
06
15
F6
ED
E2
0A
E8
3C
F1
F5
08
DC
F5
21
07
E3
ED
FC
1E
FD
D6
FA
E3
13
2C
2A
11
F0
0E
F0
F0
05
EA
1E
05
E9
FB
0E
F9
F2
F9
1E
EA
03
D7
EB
02
24
18
FE
F4
00
13
E7
00
0A
F8
23
02
0E
08
F2
11
14
F7
F6
0B
F0
FB
04
EF
0F
F6
DD
E6
1C
F2
21
22
2E
0B
25
08
10
EE
FC
24
F8
09
F1
EB
EA
0E
E8
FE
F6
06
09
E9
17
00
EB
36
04
0B
16
12
03
EE
D1
E7
F7
E2
1B
0E
00
E1
E4
02
08
F3
0B
1A
EB
06
F6
FC
0F
0D
F3
01
02
01
F8
E8
F8
D1
F6
05
05
1B
F5
08
FB
09
E9
04
11
0B
E4
F5
FE
19
16
F4
E2
FC
FD
0A
EC
03
13
08
E7
17
F6
F3
ED
FA
24
12
14
E2
EF
0E
FE
1E
EC
F2
FB
08
ED
E1
EE
14
00
D1
EC
0E
EA
20
0A
EF
FF
0F
E8
E3
F7
E8
03
0E
24
FB
EB
F4
F7
DD
D6
04
00
F3
04
1D
E2
F6
03
E0
11
0A
F8
ED
27
28
0C
2E
E8
F1
F5
E3
F2
13
E4
01
01
0B
02
FB
23
E5
E4
10
17
13
04
F9
1A
E6
FD
FD
F3
D4
F2
0E
1E
FF
FB
F3
18
0A
FA
F7
F8
0E
08
0F
05
F6
16
0C
29
F6
E5
17
04
1C
0F
19
DF
00
F5
ED
DB
D7
F0
00
FA
DE
1C
14
1D
2C
05
0E
27
F5
EB
02
FB
E9
12
07
E7
23
E5
F6
0F
E8
DB
1F
EC
E4
FB
04
FA
0F
EC
1A
F6
0E
0D
18
20
00
07
F5
E3
0B
1F
EB
F5
03
26
1E
02
0F
F6
FA
0B
FF
CC
17
01
1B
25
E3
0C
26
12
FF
06
F8
ED
D3
E5
28
E1
04
02
0F
EE
0A
E5
0A
FA
EA
D1
EE
1C
F4
F8
0B
EF
20
0F
12
17
FD
06
FF
00
FA
EC
F6
0C
10
09
00
17
E3
03
E8
02
E0
11
03
F7
10
05
0A
0B
02
F7
23
FF
02
0C
FF
FA
01
06
09
FA
E5
13
FB
10
11
14
17
FA
FB
14
FC
08
00
FD
F7
00
F8
DD
0C
F9
F2
F7
F5
18
F9
FB
F9
FF
F8
07
12
0B
1F
EB
FF
01
0D
FA
08
1F
FC
0F
03
E5
0D
FD
05
01
F6
02
F2
0B
11
1F
06
0C
FD
E3
F7
0B
FB
11
08
FB
02
F7
FC
F2
FD
02
EA
D3
11
0A
F9
04
14
14
05
F0
04
DE
0B
FB
EE
F6
08
03
EE
01
17
FB
09
01
E4
EE
F3
0C
1B
1C
E5
F5
00
F7
FC
F9
03
FF
0A
00
E9
14
16
0D
0C
08
1A
01
10
F2
11
09
FA
1E
E9
FE
E4
F3
DF
0E
E8
F1
10
F7
F1
EC
00
19
09
0D
EA
05
00
F9
0B
1B
20
F9
0C
0C
1C
EF
E6
22
0B
0A
E3
20
07
FB
15
07
F9
11
FF
19
EA
0B
EA
00
00
F0
F8
F7
10
EE
0F
F7
D9
04
11
15
F3
0E
1B
FF
EC
00
F7
12
07
EA
FE
17
EB
F1
04
F5
13
E7
00
02
13
00
13
17
F0
0D
02
F5
EE
1F
23
EA
FE
1E
08
12
ED
DE
07
02
F1
0B
08
18
14
24
1C
F9
D9
E4
0C
15
D0
FE
ED
F8
0E
F3
0A
DD
11
1C
1E
01
E5
E5
08
E4
FA
2E
03
1C
06
07
0D
05
16
06
01
F8
02
0A
E2
E3
15
33
F5
F8
F9
02
3D
0D
FF
EE
F5
08
D5
FA
26
E7
DD
1C
FA
04
10
DA
DF
F2
E2
F3
06
23
1B
04
F7
FD
F4
FC
F4
0A
10
EE
12
0A
EA
E7
01
EF
0B
1A
15
F6
12
F9
13
05
1E
F7
02
F2
F1
F0
07
09
1E
F0
F9
FF
16
EB
F5
00
E8
08
F1
1D
13
06
F6
EF
0D
07
02
F4
FA
F9
09
F2
10
E7
F6
F3
14
EA
11
02
12
12
06
0A
D6
E7
F4
08
0D
E9
F1
0E
E6
11
F4
FD
FD
EF
0C
01
F5
07
FA
F2
0E
F7
F0
0A
01
FA
DE
FF
EB
0B
02
11
FA
12
0D
EE
0A
02
EA
10
06
F7
15
0F
F0
13
FE
0D
0D
E7
F4
EC
E4
F7
FE
FF
00
F7
0E
00
07
22
0A
02
FD
F6
19
F1
18
1C
0F
F3
08
09
1F
E4
ED
FB
18
16
0D
18
F1
ED
FA
D9
E7
0B
1C
08
FB
F5
E2
03
1A
F5
13
1D
13
0A
31
00
E8
01
EC
19
14
1D
09
0F
05
09
F6
3E
ED
09
E8
0F
0A
F8
F4
15
E0
0E
1D
0E
E5
04
C7
F6
E4
EA
F9
E6
D1
F9
EC
17
0D
1B
E2
FC
F6
2D
11
15
DC
F7
F3
09
13
FE
DC
03
D3
05
E3
FF
F9
F3
09
08
FE
17
FE
18
04
17
0F
17
DD
F9
14
06
1A
07
0A
0E
01
FA
11
03
F1
FB
13
EC
FC
E6
D9
0B
DC
FA
06
DC
0A
E0
E2
FF
E0
17
29
09
14
DF
1D
F7
FF
16
09
07
13
F5
E4
09
07
F9
23
15
ED
F3
F2
08
54
26
13
26
17
1D
D7
D5
FA
1E
EA
F4
1A
E4
1A
03
0A
39
F7
0C
0A
17
FB
18
08
D7
F7
3C
06
F4
21
0F
E1
F9
EF
F2
13
E2
F4
01
0A
D8
F8
E7
02
33
00
02
08
FF
10
16
15
0D
0D
EF
FA
E3
06
0D
01
0E
10
1B
02
1D
F2
1F
14
F0
EE
03
0C
21
0B
F0
F0
01
DA
10
EE
0C
03
0C
F8
E5
F2
F8
08
F5
18
FD
F0
ED
00
E6
13
07
DB
05
19
E0
07
0E
F0
FD
06
01
0F
20
EE
EB
07
F1
15
E0
14
07
01
07
04
1C
EC
1E
15
02
0A
0E
FF
FE
12
F7
FB
FF
EF
17
20
0B
FE
F3
F2
E6
F7
F3
F7
05
EA
F5
F4
15
0B
03
F4
C9
02
F1
E6
07
01
E9
F4
1F
14
FE
E4
0B
0A
E8
13
07
18
14
03
07
E4
00
F3
07
08
F6
15
11
E1
F6
DD
14
01
15
E2
15
06
1D
02
EB
10
F2
1A
0F
15
13
D8
FF
E2
EA
16
EC
E6
06
03
E3
FA
09
FA
08
F7
EF
10
05
FD
FF
14
12
00
1B
E5
03
FC
11
03
08
F7
F7
01
DD
0C
EC
F9
16
13
0B
10
FA
0D
FA
21
0F
06
19
FA
1A
F9
F5
FF
DE
0D
03
EA
20
EB
EA
F3
FF
18
F0
10
09
08
FB
19
E7
07
F0
FF
FE
0B
F0
0D
F3
00
F1
1E
10
F5
FC
FB
07
15
0D
14
14
0D
FA
F3
06
FD
08
F9
03
EB
08
02
11
FD
02
14
F0
1E
F8
D1
E5
F4
00
E1
D7
F7
FF
F9
F1
0B
19
04
1A
DF
F6
C1
19
F9
F4
0C
04
F5
01
0B
02
DB
FE
EC
F5
0D
FA
07
F1
EC
0A
01
F3
FD
F0
FA
0F
F4
10
F2
F0
FF
0A
F4
08
F9
0A
FA
0E
06
F7
11
F4
17
E5
0F
F9
0A
0B
0B
2C
DE
FF
01
19
01
E7
FA
1A
11
EC
1A
F9
03
FF
09
05
FF
14
F7
DF
F7
1C
15
0F
F6
FD
04
F8
06
0C
12
12
D5
EF
04
12
08
08
1E
EE
E6
F3
FF
E0
DE
F6
FA
06
EB
0C
03
14
03
0F
0D
FE
DD
02
EC
1F
0A
01
F6
E7
05
07
F8
F6
18
F9
D2
1F
02
EA
0E
F6
18
EC
13
1C
FA
F3
0D
F6
04
F3
02
DA
0D
16
FF
14
13
0B
0B
1C
DE
FE
F7
EA
02
07
E8
06
E7
FB
F2
15
DC
11
01
0E
01
00
09
FC
12
05
01
17
F0
09
E4
14
EA
E6
F7
03
01
FE
ED
ED
EC
04
EA
F3
F9
F5
C9
0B
0B
0E
E7
12
F6
FD
00
F0
11
09
0C
0E
E8
E5
E2
08
ED
CB
0A
09
13
00
11
E5
F4
15
04
1E
F7
06
FC
10
FC
0D
E6
06
0A
05
E1
D8
E6
EE
FA
FD
04
00
03
EC
08
23
0A
06
04
29
E0
F2
FE
F8
04
FB
FE
F2
1C
DC
DE
1D
03
05
25
13
F0
0E
02
FA
F4
0C
0E
0B
FD
F9
2C
17
EA
0D
F4
2A
FA
EA
16
0D
ED
11
F1
D2
1A
F3
23
07
E7
E5
E6
1B
DE
00
0E
D4
EE
08
0B
F2
F0
C5
12
1D
FC
EB
0D
14
03
01
09
F1
0B
FC
0B
F7
36
F4
E1
F2
E4
DF
F7
F0
ED
22
05
F9
F1
F4
07
0D
1C
04
F9
F6
05
08
03
0A
FE
0B
F5
1E
10
12
EC
E5
2E
11
E8
22
FB
13
FA
0C
F4
F9
08
0C
F9
09
E9
01
05
FA
21
1A
FD
06
26
E3
29
F5
2D
ED
FD
F5
F7
26
1C
14
F6
F8
15
F1
F1
F8
E4
02
F9
12
F6
ED
F4
EF
FD
CC
01
F3
EA
EB
06
2A
F7
2D
0E
0F
16
F4
06
08
0B
E2
C7
15
F0
31
03
10
E9
08
EA
1D
EB
00
01
D9
23
EC
23
0C
E3
07
F4
DB
F7
14
EE
DF
0C
14
06
F9
12
ED
19
F1
08
0A
EA
E5
FE
05
F0
02
09
D6
04
00
0B
03
0B
FE
F5
10
2A
0B
E9
07
0A
FE
28
23
12
06
EA
01
05
F0
03
08
12
04
0C
0B
FA
ED
F9
F4
0A
0F
07
01
0D
12
F9
F7
10
0C
11
FA
FE
F7
0C
FB
07
09
FB
EF
0B
01
FC
0F
05
07
0F
F0
06
F1
0A
0D
12
06
0C
F3
F6
EE
10
F8
FC
07
F1
F5
F7
F9
10
05
F8
09
F2
F4
F9
EF
13
12
04
08
F6
F2
EE
12
F0
03
01
EE
11
F8
FF
EE
EE
EC
FB
0F
F3
F8
07
0D
FD
06
16
DA
0F
07
0E
DA
03
F3
0D
FE
25
0A
DB
0B
FA
0B
06
EB
05
08
EC
04
0E
19
12
F8
0E
2B
EA
F1
F4
FA
05
FE
EA
E0
FD
F1
11
23
10
F2
01
E7
0A
14
0B
15
02
F6
14
F7
1A
ED
16
FD
01
FA
EB
F1
E4
DC
E1
0A
11
DB
17
03
DE
0F
14
12
17
01
0B
06
1B
FE
E5
E2
F5
C9
1E
F2
DA
1E
09
F0
D3
FD
DA
2F
F1
3D
0D
E8
2C
26
FE
18
FF
0D
D7
EC
F7
F7
01
09
0E
0D
DE
CA
DE
FA
34
19
12
23
FF
1E
F9
DC
05
2C
DC
0B
2C
04
EF
EB
E1
01
00
EB
10
2E
26
0A
1C
F0
03
24
1D
E4
FF
34
F2
0C
F2
16
18
01
FE
D7
D1
D3
EB
D3
07
21
14
14
FB
03
09
13
EE
1A
06
D7
09
0F
E7
E7
1D
00
FF
06
0E
FE
0A
FE
FA
11
2D
F3
E4
12
FB
E7
F4
28
01
03
FE
0F
0C
F5
F5
0D
E4
0B
FF
FA
16
F3
1F
F3
17
15
0E
F2
DE
F9
11
1C
19
EF
EF
03
FB
FF
00
F6
02
FD
10
0E
FC
F4
E9
EC
08
D2
F5
E5
02
EC
12
FE
1B
15
F4
02
F8
E4
F1
FD
01
01
01
EE
04
12
F0
F1
D3
FA
01
F9
DF
2C
01
00
02
25
0C
15
F8
0D
FB
FF
01
F9
11
1F
0D
FE
DD
D0
F6
09
F8
01
05
2A
09
08
13
14
04
17
11
F3
F4
13
CE
12
EC
F5
EB
09
EE
14
2A
F4
FC
F0
C7
02
03
F1
38
04
E6
F9
D2
02
14
E9
F4
03
DC
F7
0E
E7
EF
16
11
FD
FF
FD
F8
10
EF
F8
0B
F3
E6
00
FD
15
EF
F1
05
04
10
ED
F8
F4
03
07
FB
FE
F2
F6
04
E2
02
0F
0D
0B
0F
E3
12
F2
03
E5
0D
1D
EE
F7
FD
19
16
F5
03
FB
04
0C
DF
E9
0C
01
1F
1C
E8
0A
1D
16
FD
F9
E3
03
15
FC
0B
F6
1A
FF
F1
1B
1D
FC
EE
F3
E4
F3
E9
14
E4
FF
02
EA
EB
0E
0C
01
06
15
EC
EB
FC
EB
12
0F
FE
01
01
EE
14
08
00
13
FC
03
F2
15
F6
ED
05
03
10
03
0E
06
F9
FA
EC
0A
EE
04
17
03
EE
EF
11
F9
04
0D
EE
F7
F0
10
F6
FA
0E
03
FE
ED
0D
10
01
F9
08
11
FE
F7
09
04
EE
F4
09
03
FD
06
F8
0C
14
06
11
01
FD
08
15
14
02
F4
13
F5
E8
F0
05
EB
0F
FA
19
E1
18
FA
01
FF
08
FE
DD
09
21
ED
19
CF
F0
08
16
FE
FB
04
FE
05
29
12
F7
16
E4
F1
F6
24
16
FA
0D
ED
04
FE
0D
FB
FD
FE
13
F9
0D
E4
03
01
02
FA
06
F7
02
F6
D6
01
FF
17
E9
24
E3
DC
13
1E
13
E4
04
EA
0F
23
0B
FE
CB
F6
0A
0C
06
F4
F4
F9
EB
E4
D8
F0
12
F7
05
EC
F6
E4
12
ED
FE
08
FC
F4
F5
E7
FD
00
19
01
18
09
07
FA
15
25
1A
FB
00
0A
1B
03
E2
F5
20
15
01
06
16
F5
FB
17
0B
EC
EF
FF
1D
E3
08
1A
0D
F6
01
00
14
E5
FF
EC
0A
02
14
ED
EA
FC
EE
17
FC
0A
1B
F6
03
E7
F0
FB
07
0F
F3
03
17
10
F4
E0
12
E4
F7
ED
02
18
FB
FF
0C
EE
DE
F7
20
02
EB
E3
E1
0A
28
F6
02
04
05
F0
07
01
03
08
05
19
FE
F7
F8
F6
00
1D
F7
14
09
0F
08
09
E8
E0
E4
FE
1D
E6
0E
DC
FA
FB
ED
FB
EB
0F
24
D6
0F
06
00
FF
1D
FC
00
0B
0D
DE
25
13
E8
F6
16
F1
EE
ED
FD
FE
EB
1D
03
D9
EF
FF
EA
FE
F6
0D
FC
02
F3
0D
11
19
03
FB
FA
F8
F6
1A
07
14
FE
FD
F6
02
12
0F
F1
E9
F1
EB
F1
E2
F8
F6
09
F5
DF
0E
02
D1
E5
10
DC
F5
12
0F
ED
04
08
1C
F0
FF
F0
FB
11
10
03
0B
E6
F0
FE
24
0F
F2
FC
FB
F3
05
01
11
02
0F
1F
16
06
F5
14
09
C3
11
E8
08
15
FC
03
0E
10
F6
F4
04
FC
08
FB
0F
E2
0F
05
FF
19
16
07
FC
0B
14
F6
F3
02
0A
15
F7
0B
12
12
0A
07
FD
06
EA
F5
F7
F0
15
F4
EB
F2
FE
FE
F0
05
12
13
15
02
F9
08
08
0E
EE
0E
04
F3
FC
ED
EB
FB
19
08
ED
0B
0E
F8
FE
EE
F9
FA
13
18
0D
EE
08
FD
EB
F5
17
FB
12
0B
0C
FE
0D
16
FB
27
F3
12
E5
18
FE
03
CC
EA
FD
04
0F
08
16
0A
F0
EA
09
1B
05
EF
0F
F1
18
0B
0B
05
F9
1B
16
FB
F1
F0
23
EA
FB
FF
EB
E6
F2
08
03
01
EC
21
E0
14
FB
03
23
09
E9
0A
09
F5
09
04
03
11
22
F7
08
01
F1
FE
FD
ED
E6
FB
F0
E0
0A
FF
F9
11
E8
E7
12
02
0F
0B
05
FE
02
1D
FE
E6
DB
0B
06
E2
E4
0F
17
EE
0D
FD
F0
07
FF
EA
0F
00
F6
07
FD
E6
22
FB
1F
0B
2C
D8
F2
EC
F4
1D
1A
0A
2C
09
0B
FF
05
EC
1D
28
02
06
FA
FF
E4
F4
05
D6
0A
F7
20
26
E7
2E
DC
28
1D
F9
E6
FF
E3
F1
0B
EF
DE
04
D9
EF
CC
CD
FA
06
25
0B
F4
EA
E5
FB
E3
F0
1F
0D
F5
EB
F0
D6
2C
DD
08
0C
EC
00
F5
1F
05
D8
0D
EE
F9
F2
E6
F8
08
12
06
03
FA
F0
E3
0B
DF
1E
F3
FD
EB
EB
F9
F8
F8
0D
F9
FF
07
FE
E8
F9
12
F4
0B
14
15
05
11
E8
04
08
03
07
FD
F4
D2
07
F2
FB
1A
F5
F3
EE
F8
EF
20
17
EB
06
01
09
04
F4
05
19
09
E4
EB
E4
0D
FF
0C
17
D7
09
08
00
0D
10
FA
F3
F6
10
1D
1C
05
F1
04
27
F4
EC
1C
F5
FB
C7
17
09
EE
F4
FA
1B
03
FD
1D
F7
E0
F1
F6
E9
EF
FB
ED
ED
DF
E0
04
F1
F1
F9
1A
F2
E9
0C
05
F7
FD
DB
F1
F4
0F
0E
FF
F4
17
ED
EA
FC
F8
1E
05
EF
03
0F
00
E9
02
F7
F6
F3
17
DD
DE
F5
16
E4
1E
FE
DB
0F
E7
F6
06
03
07
25
02
EE
09
16
F7
EC
EB
1D
09
0E
FD
02
FD
EA
FC
1A
0E
01
1A
0E
EA
DD
FE
FC
FE
11
FD
04
0C
F5
F6
F1
F1
D4
E7
09
EE
E8
18
00
FC
10
FF
14
05
F3
0C
0A
13
DF
22
E4
E8
EB
00
1D
F9
10
F7
0A
17
FE
E9
FC
27
F1
E9
F9
0A
FC
15
11
EC
29
0C
E1
20
E1
EC
09
05
E9
EF
06
E3
22
F2
F9
ED
CA
DC
EE
F4
12
F5
EF
FE
EF
F1
F7
E8
FB
FB
18
EC
13
E9
16
F8
E3
F9
E1
E8
FE
09
09
F4
34
03
07
03
1A
12
05
1F
E8
F8
05
03
01
FE
FF
28
D0
00
FE
05
E5
09
F8
F6
2E
0D
ED
F8
02
0F
EA
14
EA
1F
0C
0A
F9
06
FC
EB
0D
02
F7
EF
0F
DB
0D
F2
DF
FE
12
25
09
0B
16
2A
07
02
DC
F3
E6
FA
01
11
20
01
E0
08
0F
F7
F1
12
10
D3
0D
EF
DB
F1
15
16
08
EB
F5
F6
1A
05
09
21
1C
F6
26
F3
F4
EC
F4
E9
0B
FD
E8
F7
FB
10
12
E5
12
F4
FA
F4
09
13
F3
C4
03
19
08
DE
FF
EB
0E
EF
13
01
FB
FA
EB
08
10
08
F4
15
09
FF
06
02
03
01
15
10
05
04
02
11
EF
EA
0C
00
EC
08
07
F8
FC
15
ED
EC
06
F9
14
FA
F9
0C
0B
F6
0F
EC
09
F5
FB
FB
16
08
EE
FE
F9
06
0F
01
00
12
02
F3
FE
EE
FA
F6
0A
15
00
ED
13
F4
FF
01
0D
08
15
12
0F
F3
F3
F2
F4
FE
EC
FA
03
24
F2
F2
F6
F3
0B
ED
13
0D
FE
F7
04
F6
FB
FA
30
DD
EB
FA
F5
1E
0E
FF
FF
F9
F8
0D
21
02
13
FA
21
0E
F7
E6
1F
FB
EE
0D
FD
F4
12
F2
EC
0B
26
09
17
E0
FB
00
0C
19
F6
08
F6
F3
E6
F4
01
FE
FE
0D
E7
E9
F3
FC
FB
03
F9
F9
F3
F2
F5
F6
0E
09
F0
0C
FE
EC
03
01
E6
0B
07
EA
08
E6
0F
26
FF
15
01
23
0A
F6
E5
19
04
FE
14
0D
11
07
11
E3
E0
E9
FA
19
0B
FE
FA
F3
FC
F9
E7
06
14
02
06
04
FD
25
0A
E4
E5
03
DF
00
F3
09
D3
FA
D7
FE
F4
16
E0
13
05
18
09
E4
04
12
24
10
07
2B
ED
10
15
0C
11
14
16
03
F4
E6
F6
E2
08
26
F5
