FE
01
FF
00
FF
FF
00
00
00
FF
01
00
00
00
FE
FF
00
01
FF
01
01
01
01
FE
00
FF
FF
FF
FF
00
FF
FE
FF
FF
02
01
01
00
FF
00
01
00
01
FE
00
00
01
FF
FF
01
FF
01
00
01
FF
FF
01
01
01
00
01
00
00
FF
00
FF
00
00
FF
00
FF
00
FF
01
FF
00
00
FF
00
FF
02
FF
FE
FF
02
00
00
00
FF
00
FF
FF
01
FF
01
00
FF
FF
FF
01
00
01
FE
00
FF
FF
FF
01
FE
00
01
01
FE
01
01
01
01
FF
00
00
FE
FF
FE
01
01
00
FF
00
00
02
00
FE
01
FF
FE
FE
01
FF
FF
00
FF
FF
00
00
01
00
FF
01
01
00
FE
02
FE
00
FE
00
01
FF
02
FC
FF
00
00
FE
00
01
FF
FF
01
00
01
FF
00
FE
00
01
01
00
01
01
02
FF
01
02
03
01
00
01
01
FF
FF
01
03
00
02
FF
04
00
FF
FF
01
02
01
FE
02
FF
00
FF
00
00
00
01
00
02
01
FE
01
00
00
FF
FE
00
FF
00
FF
01
FF
FF
FF
00
00
01
00
FE
FE
00
00
01
00
FE
FD
01
01
01
01
00
02
01
FF
01
00
01
FE
FE
00
FC
FF
FE
01
FF
00
FE
01
FE
FF
FF
01
01
FF
FF
02
02
FF
00
FE
01
01
02
FF
00
00
00
02
FF
FE
FE
00
FE
FE
FF
00
00
FD
02
01
01
00
02
FF
FF
01
01
01
FF
FF
00
FE
00
FF
00
00
FF
00
01
01
FF
00
01
01
FF
02
01
00
01
FF
00
FF
00
FE
00
00
00
01
00
02
FE
00
FD
00
FF
FE
00
00
00
01
FF
00
FE
00
01
01
00
FE
FF
FE
01
00
00
02
01
00
00
00
FE
00
00
01
FE
00
00
00
FF
00
FF
FF
FD
01
FF
00
00
FF
FF
FE
01
00
FF
01
FF
01
02
00
FF
FE
02
00
FF
FF
00
00
00
01
00
01
FF
00
FF
00
FE
FE
00
01
FE
FE
00
01
00
01
01
FF
02
FF
01
00
FE
FF
00
FE
00
FF
FF
FF
FF
00
00
01
FF
FE
00
02
FE
03
01
00
FF
00
FF
01
FF
FE
01
FF
00
00
00
FE
FE
01
00
01
00
FF
01
00
00
01
FF
FF
01
FF
01
01
00
FF
FE
FF
01
00
00
FF
00
00
FD
00
00
FF
00
FE
FF
01
02
01
01
01
FF
00
FF
00
01
00
01
FF
00
FE
00
FF
01
FF
00
01
00
FE
00
00
01
FF
01
01
02
00
FE
01
FF
01
00
01
FF
01
FE
FF
02
01
00
FE
00
01
00
FF
FF
02
02
00
01
00
00
01
01
02
00
FF
FF
01
02
03
00
FF
00
00
FF
FF
FD
00
01
00
FF
02
00
FF
02
01
01
01
00
00
00
00
FF
FF
FF
00
01
FD
01
00
01
00
FF
FE
FE
00
FF
00
00
02
01
01
FF
FF
00
FF
FF
FE
01
00
FF
00
00
02
00
00
01
00
00
00
FF
FF
00
00
FF
01
01
FF
FF
02
00
FD
FF
01
00
00
01
FE
02
FF
01
02
02
01
FF
00
01
00
00
02
FE
FD
FE
00
FE
FE
00
01
FE
FE
01
00
00
00
FF
01
FF
FF
FF
FF
FE
00
00
00
00
00
FF
02
01
01
00
FF
00
02
00
00
00
01
00
FF
01
00
FF
FF
01
FE
01
02
01
01
01
FF
00
03
FF
01
00
02
FF
00
FF
00
00
FD
FF
FF
FF
02
02
01
00
FE
03
01
FF
FF
00
01
00
FF
FF
00
00
FF
01
FD
00
00
FF
01
01
00
00
01
01
01
FE
FF
FE
FE
01
00
FF
FF
00
00
FE
FF
FF
00
00
00
00
00
01
FF
FE
01
FF
01
00
00
02
00
FD
FF
00
00
00
01
00
01
00
01
02
00
00
FF
01
01
01
00
00
01
FF
01
FF
02
00
02
01
00
00
02
02
FF
00
02
00
00
FF
01
01
01
02
00
01
01
01
FF
00
FF
00
FF
FF
01
00
FF
02
FF
00
01
FF
FF
FF
01
00
FF
00
FF
01
02
01
00
01
FF
FE
FE
FF
00
01
00
FE
01
FD
02
00
FF
01
00
00
FF
FF
FD
FF
00
00
01
01
FF
FF
FE
FE
00
01
01
02
FE
FF
00
FF
00
FF
01
FF
FF
03
00
FF
00
00
FE
FF
01
00
01
00
01
FF
01
00
FF
FF
02
00
01
FD
01
00
00
00
FF
00
02
FF
FF
FF
FF
00
01
02
01
01
FF
FF
00
FF
FF
00
FF
FF
FF
01
00
01
00
01
00
00
02
00
00
00
FE
00
00
01
FE
00
00
01
FF
01
01
00
00
00
01
FE
FF
01
00
FE
FF
01
01
01
00
01
01
FF
FF
01
01
00
FF
00
01
03
FE
00
02
00
00
FE
01
01
01
FF
00
FF
FF
00
01
00
FF
00
01
01
02
01
01
01
01
01
01
00
FF
01
FF
00
02
00
FF
01
00
FF
FF
01
01
FF
FF
01
00
FF
01
00
01
FF
02
00
03
01
FD
01
01
01
01
FF
FF
FF
FE
00
00
00
01
00
FF
00
01
FF
FE
FF
00
01
FE
FF
FF
02
FF
01
00
00
FF
03
FF
FE
02
FD
01
FF
FF
00
FF
02
00
01
FE
FE
FF
FD
FE
02
FF
01
FF
02
01
01
00
00
02
FF
FD
02
FF
FE
01
00
FD
02
01
00
02
01
00
FF
FF
01
FF
00
00
01
00
01
02
00
01
FE
00
00
02
02
FF
01
00
FD
FF
FE
01
00
00
02
01
FD
FF
01
00
00
01
01
00
FF
01
01
FF
02
00
01
FF
00
00
FF
02
FF
00
01
01
01
01
01
00
FE
FF
FD
01
02
00
00
01
00
00
01
FE
00
01
00
FF
FE
FD
FF
FF
00
FE
FF
00
01
01
01
FF
FE
00
02
00
00
FF
00
01
01
FD
01
01
FE
01
FF
01
00
03
02
00
00
01
02
FF
02
01
FD
00
01
FF
01
01
01
00
01
FE
01
01
02
FE
00
02
00
00
01
01
FE
FF
FF
00
01
00
FF
01
00
FF
FF
FF
02
FF
01
04
01
01
02
01
01
FF
02
02
FE
FF
FF
00
FF
02
00
00
01
FF
00
02
01
00
FF
FD
FF
01
00
00
01
00
01
01
FF
FF
FE
00
FF
02
02
00
01
00
01
FE
FE
FE
00
FE
FE
00
FF
FE
03
FF
00
FF
01
FF
00
FF
FE
FF
00
01
01
00
00
03
01
FE
FF
FE
01
01
01
FF
FF
01
FF
FE
FF
02
00
00
01
FF
01
FF
02
01
FF
FF
FE
02
FF
FF
00
02
02
00
01
01
01
00
01
01
FF
01
FF
01
01
FE
00
00
03
01
00
01
01
01
FF
01
01
01
00
00
00
00
00
01
FF
01
FF
01
FF
FE
FF
FF
00
FF
00
FF
00
00
00
01
01
FE
FF
00
00
FF
00
00
FF
FF
FF
00
01
FF
FF
FF
FF
FE
00
FF
00
FF
FF
FE
00
FF
01
01
01
FD
FE
FD
00
01
02
FF
01
01
FE
00
FE
FE
00
FF
01
01
01
00
00
00
FF
01
01
FF
FF
01
02
FF
00
01
01
00
FE
03
00
01
FF
00
00
FF
FD
FF
FE
00
02
00
FF
00
FF
00
01
00
00
00
02
FF
00
FE
00
FF
FF
00
00
04
01
01
01
01
FF
FF
01
FF
FF
02
FF
FF
00
01
FF
01
01
00
00
01
FF
FE
01
FF
00
FF
00
01
01
01
02
03
02
00
00
01
01
01
01
01
FE
01
04
00
01
FF
01
00
02
00
02
FF
01
01
FE
00
FE
00
01
01
00
FE
FF
02
01
FD
FE
01
01
00
00
FF
00
FF
02
01
01
00
FE
00
02
01
01
01
FF
FF
00
00
FF
00
01
01
02
01
FF
00
FF
FF
01
01
FF
00
00
01
01
FF
00
01
02
00
01
FF
FE
01
FD
01
00
FF
01
02
00
00
FF
01
01
FF
00
FF
FE
FF
01
02
01
00
FF
FE
01
FF
00
02
00
00
FF
01
00
01
01
FF
FE
FF
01
01
02
00
FE
00
01
00
FF
01
00
00
FF
FE
00
FF
00
FE
01
FF
01
FF
01
00
00
FE
02
00
FF
00
00
01
FE
00
00
FF
01
01
01
00
FF
FE
00
00
01
00
00
FF
FF
FF
00
01
FD
FE
01
01
FF
00
FF
01
02
FE
FE
01
01
01
FE
01
FF
00
FF
00
FF
00
00
01
FF
01
FF
00
01
00
01
00
FF
00
FF
01
00
02
FF
00
FF
00
01
FE
FE
FF
FF
01
01
FF
00
FE
01
FE
01
FF
FF
FF
FE
02
01
01
00
00
00
02
FF
00
FF
FF
00
00
01
FE
01
FE
00
01
FF
01
01
01
01
00
00
FD
01
01
00
02
FF
00
FF
03
00
00
FF
00
00
FF
FF
00
00
00
01
FF
00
00
FF
00
00
FF
FF
00
00
00
FF
01
FD
FF
FD
FF
00
01
00
01
02
FF
FE
02
00
01
FF
01
01
00
01
01
FF
00
00
01
00
FF
00
00
01
FF
FF
FF
02
00
00
00
FE
02
00
FF
01
01
00
00
01
00
FF
02
01
01
00
01
FF
00
FF
01
00
01
01
FE
02
01
01
01
FE
01
00
00
02
01
FE
FE
FF
FF
01
02
00
FF
00
01
01
00
FE
03
01
FF
FF
FF
FF
FE
00
00
00
01
01
FF
00
FE
00
00
00
00
02
00
02
00
FF
00
FF
02
00
01
00
00
FE
FE
00
00
FF
01
01
01
FF
00
00
00
00
01
00
00
FF
01
00
00
FF
00
FF
00
01
01
00
01
FF
00
00
FF
00
FF
00
01
FE
00
FF
FF
01
01
FF
00
00
02
01
FF
01
00
00
00
FD
01
01
01
01
FF
FF
00
00
00
00
00
00
FE
02
00
01
02
FF
00
FF
01
01
00
02
00
00
00
00
FE
01
01
00
02
02
01
01
01
02
FF
FF
00
00
01
03
00
00
01
00
04
00
03
00
FF
00
01
00
FF
01
01
01
FF
FF
00
FE
02
00
00
02
FF
01
01
00
01
01
FF
FF
01
FE
00
FF
FF
FF
FD
01
01
01
00
FF
FF
00
FF
FF
00
02
01
FF
01
FF
FF
FE
00
FF
FE
01
01
02
01
01
FF
02
00
00
FD
01
FF
00
00
00
02
01
02
01
FF
00
FF
01
FF
00
01
FF
01
FF
00
00
00
00
FD
00
02
01
00
01
00
FF
01
01
FD
FF
FF
FE
00
01
02
01
01
01
01
00
FF
00
00
00
00
FE
FF
01
00
02
01
01
00
01
01
FE
00
FF
FF
00
00
00
02
01
FF
02
01
01
03
00
FF
FF
01
00
01
FF
01
FF
FF
03
01
FF
00
00
FF
FF
FE
FE
FF
01
00
01
02
FF
FE
FE
FE
FF
02
03
01
00
00
01
01
03
FF
00
FF
00
FF
01
FF
FF
FD
FF
00
FF
00
00
FF
FF
FE
00
00
01
00
01
00
00
00
FF
00
FF
00
01
00
00
FF
02
02
01
00
02
01
01
01
FE
FF
02
01
00
01
02
00
FF
FF
00
FE
02
01
FE
FF
FF
01
FF
FF
FE
FF
01
FE
00
00
FF
01
01
FF
FE
02
00
01
FF
00
02
01
FF
01
01
FE
00
00
00
00
00
01
00
02
FF
FF
01
00
01
FF
FF
00
00
FC
FD
01
00
00
FF
02
FE
FD
FF
00
00
01
01
FF
01
FE
01
01
00
FF
00
02
FF
00
00
FF
FE
00
00
00
00
01
01
01
FF
FF
02
02
01
FE
02
01
00
01
FF
02
00
FE
00
02
00
02
01
00
00
FF
FE
FE
01
FF
00
00
02
FE
FF
00
02
FE
01
01
FF
02
FF
01
01
01
00
00
00
00
FC
01
FE
03
01
00
FF
00
02
FF
FE
00
01
01
00
FD
02
01
00
01
00
FF
01
FE
FF
01
01
00
00
02
FF
01
02
FF
00
01
00
00
00
FC
00
02
00
00
00
02
02
FF
FE
01
00
00
00
01
FF
00
02
00
00
00
FE
02
01
00
00
00
00
02
FD
01
01
00
FF
01
FE
00
FF
02
00
02
00
02
FD
FF
FF
00
FF
FD
00
FF
FF
01
00
FD
FF
FE
FF
FE
00
FE
01
00
01
FE
00
00
00
FE
00
00
01
FF
02
00
FF
02
01
00
FF
01
01
01
01
02
00
02
FF
01
FF
FE
01
01
01
FF
00
01
00
FF
FF
03
00
00
01
FD
01
01
00
02
FD
01
FF
00
00
00
00
00
FF
FF
FE
FF
00
02
02
00
FF
01
00
00
FF
01
00
01
01
02
00
00
00
01
00
00
01
01
00
FF
00
FF
00
03
02
00
02
01
01
01
FE
01
01
FF
FF
02
00
01
FF
01
FF
00
00
00
01
00
FF
02
02
FE
01
00
01
02
01
FE
00
02
03
02
FE
00
01
01
01
FF
FE
00
01
FF
00
00
01
01
00
02
FF
01
00
00
00
01
00
00
02
00
03
00
FF
FF
FF
FF
FF
FF
FD
00
00
FF
01
03
02
00
01
00
03
00
00
02
FF
01
02
01
00
01
02
01
01
02
00
FE
FF
FF
00
01
00
00
00
FF
FE
01
00
02
00
FF
FE
01
FF
01
02
FF
01
FF
03
03
00
00
02
02
01
FF
00
02
00
FF
01
00
FE
02
FF
01
00
00
01
FF
00
FF
00
FE
FF
00
01
FE
FE
FD
01
FE
02
FF
FF
FF
01
FF
01
01
00
01
01
01
FF
FD
01
02
01
00
00
00
03
00
01
01
01
01
00
00
FD
00
FF
00
FF
01
01
00
00
FF
FE
00
01
02
00
02
00
01
02
02
02
FE
02
00
00
00
FF
00
02
01
02
FF
FF
00
01
00
01
01
01
00
00
01
01
01
FE
01
01
02
FF
FF
02
FF
02
00
FD
FF
FF
00
00
FF
01
FF
00
02
00
00
02
01
00
FE
FF
01
00
01
03
00
02
00
01
00
FD
03
FF
00
00
01
02
00
FF
FE
01
01
00
00
FF
FE
00
00
02
FD
02
00
02
01
FF
00
01
FE
FD
01
00
00
00
00
00
00
03
FF
00
FF
FF
02
00
FF
00
02
00
FF
02
02
FF
FE
FF
01
01
00
FF
00
00
00
00
00
FF
00
00
FF
01
FF
FE
01
01
00
FF
00
00
FF
FF
00
00
FF
00
00
FF
FF
FF
FF
01
00
FF
01
FE
FF
FF
FF
00
00
00
00
FF
00
00
00
FF
FF
FF
FF
FF
00
FF
00
00
00
FF
FF
FF
00
00
00
FF
01
FF
00
01
FE
FF
00
00
FF
FF
FF
FF
01
01
00
FF
00
FF
FF
FF
00
FF
FF
01
00
00
FF
01
FF
FF
00
FF
FF
01
FF
FF
01
FF
01
00
01
01
00
00
00
01
00
FF
FE
FF
01
FF
FF
FF
00
FE
01
FF
01
FF
00
FE
FD
01
FF
01
FF
FE
FD
00
00
02
01
FF
00
00
01
00
01
00
FF
00
FF
00
FF
FF
FF
02
01
02
FF
FF
00
00
02
02
00
FE
00
00
00
FE
01
00
00
FF
00
00
00
00
02
FF
00
00
FF
FE
01
01
01
00
01
FE
00
00
01
FF
FE
FE
00
FF
00
00
FF
00
01
FE
00
01
00
FE
FF
00
01
FE
01
01
FE
01
FC
00
00
02
00
FF
01
00
FD
FE
00
FF
FF
01
01
00
01
01
FF
00
00
FF
01
01
FE
01
00
FE
01
FE
01
01
00
FF
00
FF
00
02
00
FF
01
FF
FF
00
FE
FF
00
01
00
01
02
FF
FF
00
FF
01
02
01
FF
00
FF
FF
02
00
00
00
01
01
01
00
01
01
FE
FE
FF
FF
00
FF
00
FE
FF
FF
02
00
00
FF
00
FD
FE
FF
01
00
FF
FF
00
00
00
01
00
01
01
00
FF
02
02
FF
FF
FF
00
00
00
02
00
FF
01
00
FF
02
00
00
02
01
01
FE
01
00
00
01
FF
01
00
FF
FF
00
01
FF
01
FF
01
00
00
02
00
FF
00
00
00
FF
FE
00
FF
00
01
FE
01
FD
01
00
01
00
01
FE
FF
FD
FF
01
00
00
FF
01
FF
02
02
FF
FF
01
01
01
FF
FF
00
01
00
01
01
FE
01
FF
FF
01
01
FF
01
01
00
00
FF
01
00
00
00
01
FF
01
01
02
FF
00
00
FF
FF
00
FE
01
FE
00
00
01
01
01
02
00
02
00
FF
01
00
01
01
01
FF
01
01
FF
FF
FC
FE
01
00
01
00
01
FF
FE
00
FF
00
FF
FF
00
00
00
00
00
00
00
FF
01
FF
FE
01
FF
00
FF
00
FF
FF
00
FF
01
FF
FE
FF
01
00
FF
02
FE
00
02
01
FE
00
01
01
00
00
00
01
00
FE
03
02
00
00
FF
FF
01
01
FF
02
01
01
FE
FF
FE
02
02
01
FE
01
00
00
00
00
00
FF
00
01
00
00
01
00
FF
01
FE
FF
FE
00
00
00
00
FF
01
00
00
00
FF
FE
FE
00
FF
00
01
FC
01
01
FE
FF
01
FD
01
FF
FF
01
FF
01
FF
FF
00
FF
01
01
02
01
02
01
00
FF
FE
00
FE
00
00
00
00
FF
01
01
02
00
00
00
00
01
00
01
02
FF
00
FF
FE
00
01
00
00
02
FF
00
00
02
FF
02
FE
00
00
FF
02
FE
FF
FE
01
03
01
01
00
FF
01
00
FF
01
FF
FF
FD
FF
FE
00
02
FF
FF
02
01
02
00
00
00
00
00
02
FF
00
03
FF
FF
02
02
00
00
01
01
00
01
00
01
FF
00
01
02
00
00
FF
01
00
01
FE
FF
01
00
02
00
01
FE
01
00
00
FE
00
FF
FF
02
01
02
FE
00
00
FF
00
01
00
FF
01
00
01
00
01
00
FF
01
01
00
00
FC
FF
FF
02
00
02
01
01
00
02
01
02
01
00
00
01
00
00
00
00
01
FE
01
FE
01
FF
02
FF
02
00
00
00
FF
FF
00
01
01
FF
FE
00
01
01
00
FF
00
FF
01
FF
00
FF
00
FD
FF
00
00
01
00
02
FF
00
FF
FF
00
01
00
01
02
FF
FF
01
FF
00
01
03
FF
FF
00
FF
00
00
01
00
FF
FE
FF
FE
00
FF
FF
01
02
FE
01
01
FF
00
00
02
01
00
FF
01
00
01
00
FF
02
01
03
02
01
00
00
02
00
FF
01
01
02
00
01
00
FF
00
FF
00
00
01
00
00
FF
00
01
FE
00
00
FF
01
02
01
FF
01
00
02
00
01
00
00
FE
02
00
01
00
FF
00
01
00
01
FF
00
01
00
00
FF
01
FF
00
FF
00
FF
FF
FE
02
FF
FF
FF
02
01
01
FF
00
00
FF
FF
00
FE
02
00
00
02
FE
FF
FF
00
00
00
00
00
FE
FF
01
01
00
FF
01
FF
01
01
02
00
00
01
02
01
00
02
FE
01
00
FF
FE
FF
02
FF
00
01
01
01
00
01
01
01
03
02
00
FF
00
00
01
FF
01
02
FF
FE
00
01
00
00
00
01
00
01
FF
FF
FF
00
FF
00
FE
00
02
FF
00
02
01
FF
01
01
01
FE
01
01
01
00
FF
01
01
01
00
FF
02
01
FF
FF
00
FF
FF
01
00
02
00
FF
01
FF
FE
00
01
01
FF
01
02
FF
00
01
00
FE
02
00
00
01
FF
01
00
00
01
01
FF
00
01
00
01
00
FE
FE
FF
00
00
01
00
00
00
02
FF
FE
FE
01
01
00
02
00
FF
FE
01
02
FE
00
FF
01
00
00
01
00
01
00
02
FE
00
00
03
FE
FF
01
FE
00
01
00
FF
00
01
01
00
01
00
01
FF
FF
FF
FF
02
FF
FF
FE
00
01
00
FF
00
FF
00
FE
FF
01
00
FF
FF
FF
01
00
FF
FF
02
FF
FF
01
02
FF
00
FF
01
00
01
FE
00
FF
FF
00
FE
00
03
01
FF
FD
01
00
00
FF
01
01
01
FF
01
02
00
FF
FF
01
FF
01
01
01
00
02
FD
FF
00
02
00
02
00
01
01
02
00
FF
FD
FF
FF
FE
00
01
00
FF
FF
01
02
00
01
FE
00
FE
01
00
FF
00
00
FF
00
02
FE
01
FF
00
00
01
FF
02
00
02
00
FF
01
FF
00
00
FE
01
00
00
00
FF
00
02
FD
01
01
FF
00
00
01
01
02
01
FE
FF
00
FF
02
FF
FF
01
01
01
00
00
FF
01
00
01
FF
03
FF
00
FF
01
00
FF
01
00
00
00
01
00
FF
02
FE
00
00
00
00
FF
01
FE
00
01
01
02
00
01
FF
FF
FF
00
FF
FF
00
01
02
02
01
01
00
00
00
FF
00
FF
01
01
02
00
FE
00
01
01
FF
01
03
FD
01
FD
FE
00
01
01
FF
FF
FF
01
FF
FE
00
02
00
FF
FF
01
00
02
FE
00
01
01
01
FF
02
FF
FF
01
FF
00
02
FE
01
00
01
FE
FF
00
00
00
FF
00
01
00
01
01
FF
02
01
01
FF
01
02
01
00
01
FC
FF
01
00
00
FD
01
00
01
FF
00
FF
02
00
FF
FF
00
00
01
01
02
00
FF
00
00
00
FE
02
01
FF
00
01
02
01
FF
FF
FF
02
FF
FF
FE
00
00
00
00
FE
01
FE
FF
FF
00
01
00
FE
FE
00
00
FF
02
00
FF
FE
01
FF
01
FF
FE
02
00
01
FF
00
FF
02
02
01
01
FF
00
FF
FE
FF
01
FE
00
00
01
FF
FE
FE
00
FF
00
00
00
FF
FF
00
00
00
FF
01
01
01
00
00
FE
00
00
00
00
01
00
FE
01
02
00
00
FF
FF
FF
01
00
FF
00
FF
FF
01
FF
01
01
FF
00
FE
FE
00
01
FF
00
FF
01
00
FF
FF
00
00
FF
00
01
00
00
02
FF
FE
FF
01
FF
FF
01
FE
FE
00
00
FF
01
FE
FF
FF
01
00
01
FF
FF
00
FF
00
00
FE
01
00
FF
00
FF
01
FF
01
FF
00
FF
FF
FF
FF
FF
FF
00
FF
FF
01
00
FE
00
FF
FF
00
00
00
02
00
FF
FF
01
FF
FF
FF
00
00
00
00
00
01
01
FE
FE
00
FF
01
00
01
FF
01
00
01
FF
FF
01
FF
FE
00
01
02
01
FF
FF
00
01
FE
FF
01
01
FF
00
FF
FF
01
01
00
00
FE
FF
FF
03
00
01
FF
00
01
00
00
00
FF
FF
FF
FF
00
FF
00
00
FD
FF
00
01
FF
00
00
00
01
FF
00
01
05
FF
01
00
FF
00
FF
FF
03
FE
01
FF
03
FF
00
00
FF
FF
FE
00
FE
FF
FF
02
00
00
FE
01
01
01
02
01
01
FD
FF
00
00
01
FF
00
01
FD
00
02
FF
01
FF
02
FD
01
00
01
FF
01
00
00
00
FF
00
00
01
FE
00
00
00
01
FE
01
00
02
FF
FE
01
FF
01
01
FF
02
FF
FF
01
FF
00
01
02
FE
00
00
00
01
FF
FF
00
01
00
FF
01
FE
00
00
00
FF
01
00
FF
01
00
01
FE
FE
00
01
FE
00
FE
02
FE
00
00
02
02
FE
00
FE
FF
00
FF
01
01
00
FF
00
02
01
00
FE
00
02
FF
02
01
01
02
02
FF
02
00
FF
FD
00
00
00
FE
00
00
00
FE
02
01
02
FE
FF
FF
00
00
00
01
00
02
00
01
01
00
FE
01
FE
02
01
01
FF
00
00
00
02
01
00
00
FE
00
FF
01
00
00
FF
01
00
FE
01
00
01
FE
00
01
01
00
02
00
00
01
02
FF
01
01
02
02
FE
02
FF
FD
FF
00
01
00
FE
FE
FE
FE
FF
00
FE
01
01
01
01
01
FF
00
FF
00
FE
01
FF
02
01
01
FF
FF
01
FE
FF
00
00
01
FE
00
01
01
01
02
FF
00
FF
FF
01
FF
FF
00
01
01
00
FF
00
00
FF
FE
00
FF
01
FE
FF
00
FE
01
FE
00
00
01
FF
04
01
FE
00
FF
FF
FF
00
00
FF
FF
00
01
02
00
01
00
FF
01
00
00
01
FF
FE
FF
00
02
01
FF
01
FF
00
00
01
FF
00
01
01
FF
00
01
01
FF
02
FF
FF
01
01
03
01
00
01
00
00
01
FF
02
01
03
00
FF
02
FF
00
02
00
00
01
03
00
FF
00
02
FF
01
00
00
01
00
01
02
FE
FF
00
02
01
03
02
00
00
01
01
FD
FF
00
03
00
FE
00
FF
FF
01
01
00
FF
FF
FE
FF
00
FF
00
FF
FF
FE
00
FF
00
00
00
00
00
FF
FE
01
01
FF
00
00
00
FF
FF
00
00
FF
FE
FF
00
00
00
FE
01
00
00
FE
00
00
00
FF
00
00
FF
00
FF
01
FF
00
FF
FE
FE
00
00
00
01
FE
FF
FF
FF
FF
00
00
00
FF
FF
01
FE
00
00
FF
FF
FF
00
FF
00
00
FF
FE
FF
FF
00
FF
01
FF
01
01
00
FF
00
00
FF
00
00
FF
01
FF
00
00
01
FF
FF
01
00
01
FE
FF
00
01
00
FF
01
FE
FE
01
00
00
FF
00
01
FF
FE
02
00
00
00
FF
00
02
FF
FE
01
00
02
01
00
01
00
FF
FF
01
FE
01
FF
FF
FF
FF
00
01
FF
FF
01
FF
00
FF
00
01
00
00
00
FF
02
01
01
02
FF
01
00
01
01
00
01
FF
FF
FF
01
00
02
00
00
FF
02
FF
00
FF
00
00
00
FF
01
FF
FE
01
00
02
01
02
FF
01
FF
00
02
02
00
03
02
FF
00
02
FF
01
FF
00
01
01
01
FE
02
00
00
FF
FF
FF
00
01
01
00
FF
01
00
FF
00
00
FF
FF
FF
02
00
FF
FE
01
00
FF
00
00
FF
01
00
FE
00
02
FF
FF
FF
01
00
02
01
FF
FE
01
01
01
00
FF
FF
02
02
00
01
01
02
FF
00
FE
FF
00
FF
00
FF
02
00
00
01
FE
00
00
01
FE
FF
FF
00
00
00
FF
01
FF
00
00
02
00
01
00
00
00
01
FF
FF
00
01
FE
00
03
01
02
01
FE
00
00
00
00
00
01
00
01
FD
02
FE
FF
FF
00
00
03
00
FF
01
00
00
01
01
00
01
00
01
00
FE
00
FE
00
01
FF
00
FE
01
01
01
01
FF
01
FF
00
01
00
00
FF
FE
01
00
FD
01
01
FF
FE
01
00
FF
FF
01
00
FE
00
02
FF
01
FF
01
02
01
FF
FF
01
FF
FF
FF
FF
FF
FF
FF
02
02
02
FF
00
01
FE
01
00
01
FE
FE
01
01
FF
01
01
FE
00
FF
00
FF
01
02
02
FF
00
02
00
FF
01
01
FF
03
01
FF
03
FE
00
02
01
00
FF
00
00
02
01
FD
00
00
FF
01
01
FF
01
01
FE
00
FF
FE
FF
01
02
00
00
FF
01
FF
FF
FF
00
00
FF
01
FE
01
FF
FF
FE
01
00
FE
00
FF
00
01
00
01
02
FF
01
00
FF
00
00
00
00
01
01
01
00
00
01
00
FE
FF
FF
00
02
00
FD
00
02
00
FE
FF
01
01
FE
01
FE
02
FF
00
FF
FF
FE
FE
FF
00
00
FE
FE
01
00
FF
FF
01
02
FF
FF
01
FE
00
00
FF
01
00
FE
FF
FD
01
01
02
FE
FE
01
01
00
02
01
FF
00
01
FF
01
FE
00
FF
FF
FF
00
01
FD
FF
FF
01
01
01
00
02
00
01
00
01
00
FE
01
00
00
FF
00
00
FF
00
01
01
FF
FE
02
00
FF
01
FF
02
FE
01
00
00
00
00
02
FE
00
00
01
00
01
FF
00
00
01
02
01
01
FF
FF
FE
01
FF
02
00
FF
00
FF
FF
FF
FE
FF
01
FF
00
01
00
00
01
00
00
FF
01
00
00
00
01
00
01
00
00
01
01
FF
00
01
03
01
FF
00
FF
FF
00
FF
FF
FF
00
00
02
02
FF
FF
00
01
00
FF
00
FF
00
FF
02
FF
00
00
FF
00
01
01
00
01
FF
02
03
FF
01
FF
01
00
01
FE
01
01
00
02
00
FF
FF
01
FF
FF
01
00
01
00
00
00
01
03
00
01
01
FF
FF
00
01
00
00
02
01
00
FD
FF
00
00
00
FF
02
FE
01
00
FD
FF
02
00
00
00
00
FE
01
02
01
00
01
00
00
02
FE
FF
00
FE
00
00
01
FF
FE
01
00
01
01
01
FE
01
00
01
01
FF
FF
00
00
FF
00
01
00
00
00
FF
02
FF
01
00
FF
FD
01
01
01
01
01
01
00
FF
FF
00
00
01
00
FE
01
FF
01
00
FF
01
FE
01
01
00
FF
00
01
FE
FF
01
00
03
00
FF
FF
01
FF
00
02
FE
FF
01
00
01
00
01
FF
00
00
01
01
00
FF
01
FF
01
01
00
00
01
FF
FE
FF
01
FF
FF
00
01
00
FF
FF
00
00
01
02
FF
00
02
00
FF
01
FF
FF
01
02
FF
01
00
FF
FF
FF
FF
01
00
FE
FF
FF
FE
FF
FE
FF
FF
00
FF
FF
FF
FF
00
FF
FF
01
00
00
FF
FF
01
00
01
FF
FF
FF
00
00
FF
00
00
FF
01
FF
FE
FF
FF
FF
00
01
03
01
00
FF
FF
01
01
FF
00
FF
00
FF
00
00
01
FF
00
FF
FE
FF
FF
FF
00
01
00
FE
01
FF
00
FF
00
00
FF
01
FE
00
01
01
FD
00
00
02
00
00
00
00
00
FE
FF
00
00
00
01
FF
00
01
FF
FF
01
FE
FF
00
00
01
01
FF
00
01
FD
FF
00
00
00
FF
02
01
FF
01
01
00
00
FF
FF
00
00
01
FF
02
00
00
00
FF
00
FF
FF
01
00
00
01
00
FF
00
FF
00
01
00
00
01
01
00
00
02
01
02
01
01
01
00
FF
FE
00
00
01
01
00
03
01
FF
00
FF
01
FF
02
00
00
02
00
00
FE
FD
03
02
01
01
FF
FE
00
01
00
FE
FE
01
01
FE
00
01
FF
FF
FE
02
FE
FE
FE
01
01
02
FF
02
FE
00
00
00
01
01
01
00
01
00
00
01
01
FF
FF
00
00
00
01
01
00
03
00
FF
01
00
FF
01
FF
00
01
02
00
FF
02
01
FD
FF
01
01
FE
FF
FF
00
01
01
00
01
00
01
FE
FF
01
01
00
02
02
01
01
00
FF
00
FF
FF
00
FE
00
01
01
01
02
01
FF
01
FF
00
FE
00
FF
01
01
01
00
00
FE
02
00
FE
00
01
00
FE
00
00
01
FE
01
00
FF
00
FF
00
02
FF
FE
02
FF
00
01
FE
FF
00
00
01
FF
00
02
00
FF
FE
00
02
FF
00
FF
00
01
FF
02
02
FF
FF
FE
00
FE
FE
02
00
FE
01
00
00
00
FF
00
00
00
FF
FE
02
02
FF
00
FF
FF
00
01
FF
01
02
01
01
FF
01
00
FF
FE
FE
FD
FF
00
FF
FF
FF
02
01
00
00
00
FE
FE
00
00
02
FE
02
FE
FE
00
FF
01
FF
01
FF
02
00
01
FF
FE
FD
FE
FF
01
02
01
FF
00
01
00
FF
FF
01
00
01
FF
00
FD
FF
02
01
00
01
FF
FF
FD
00
FF
00
FD
00
FF
FF
FE
00
01
01
FF
FF
FF
00
01
01
FF
01
01
FE
FF
00
FF
00
00
00
FF
FF
FF
02
03
FF
00
01
01
01
FF
00
00
02
00
FF
00
00
00
00
FF
00
01
01
FE
00
00
FF
01
FD
01
00
01
FD
00
FE
02
01
01
00
00
FF
FF
01
00
FD
01
FF
00
01
00
02
00
00
00
FF
00
01
00
00
01
00
FF
00
01
FF
00
01
FF
00
FE
FE
FE
00
01
00
FE
01
FF
FF
00
02
00
00
00
00
02
FF
01
01
02
00
FF
FF
02
01
FE
01
FF
00
FF
FE
02
00
00
00
00
01
01
01
00
01
01
FE
02
01
00
FF
FF
01
FF
00
FF
FF
01
FF
02
01
01
FE
00
01
00
01
00
01
FF
00
01
02
00
01
01
00
FF
00
FF
FF
01
FF
00
00
FF
00
00
00
FF
00
00
00
FF
FE
01
FE
FF
01
00
FF
01
FE
01
01
FD
01
02
FE
02
FF
FF
00
FF
00
00
FF
01
FE
01
FF
01
01
00
00
00
FF
01
00
FF
01
00
FF
02
02
00
01
FD
02
01
00
01
00
02
00
01
01
FE
00
00
FF
02
00
02
01
FF
FF
01
FF
01
01
00
01
01
FF
FF
FF
FD
00
00
02
00
FF
00
00
00
FF
FD
01
FE
FF
00
FF
00
00
FF
FF
01
FF
02
02
FF
00
00
01
01
FF
01
01
00
01
00
FE
FF
02
01
FF
00
FF
01
00
00
FF
00
01
FF
FF
01
00
00
01
01
FE
FF
FF
00
04
FE
01
FE
FF
FE
FF
01
00
01
FF
01
00
02
FF
00
00
00
02
00
00
FF
02
00
01
02
02
01
FF
00
02
00
00
01
FF
FF
00
FD
02
00
00
01
00
FF
00
FF
02
FD
00
FF
01
01
FF
00
00
FF
FF
FF
00
01
00
03
01
FF
FF
00
02
01
01
00
01
00
FF
02
01
FF
01
FF
01
01
FF
00
02
FF
FF
01
00
00
00
01
01
FE
01
00
FF
00
01
00
00
FF
FF
02
00
FF
01
FF
00
01
FE
FF
01
01
02
FF
02
FF
01
01
00
FE
FF
00
00
00
00
00
01
FF
02
FF
FF
00
00
02
FF
02
00
00
01
FF
01
01
01
FD
00
FF
00
00
02
01
FF
FF
00
02
FF
01
01
FF
01
02
FE
01
01
00
00
FE
02
FD
01
01
FF
FF
01
FF
01
00
01
01
00
00
00
02
00
00
FD
00
00
00
01
01
FF
FE
00
00
01
FF
00
FF
01
FF
FE
00
02
01
00
00
02
00
01
00
FF
00
00
FF
01
01
02
00
FB
FF
00
FF
03
FE
02
01
02
FF
04
FF
00
00
02
00
02
01
03
FE
01
00
01
01
01
FF
01
00
01
FD
02
FE
00
FF
FF
FF
01
02
FF
00
FF
00
01
00
FF
01
01
FF
00
02
FF
00
01
01
FF
FE
01
01
FF
FE
00
FF
01
FE
FF
FF
FF
FE
FF
02
01
00
00
01
00
FF
FF
00
FF
FF
FF
01
01
FE
00
01
02
01
00
00
FF
00
FE
FE
01
00
00
FF
FF
00
00
00
01
00
FE
01
FE
FF
00
00
00
00
00
FE
FF
01
01
FF
00
FE
02
FF
FE
FF
01
FF
01
FE
00
01
FF
01
02
FF
FE
FF
FE
02
FF
FF
02
00
01
FF
FE
00
FF
FF
01
02
00
00
01
01
01
FF
FF
FE
01
00
00
FF
00
FF
01
FF
FF
01
01
FE
FF
00
FF
FE
00
01
02
00
02
01
01
00
01
00
00
FE
02
02
FE
02
FF
00
FE
00
01
FF
00
FD
FF
FF
FF
FF
00
01
01
00
FF
01
FF
01
00
02
FF
FF
01
02
FF
FE
00
FF
FF
01
01
FF
01
01
01
01
FE
01
00
02
00
01
FF
FF
01
01
01
00
00
FF
00
00
FF
00
00
FF
01
01
FF
FE
FF
FF
01
FE
FF
00
FF
FF
FE
FF
01
00
01
00
01
FF
01
FF
00
00
00
FF
03
00
01
01
01
FF
00
01
01
00
01
02
00
00
00
FF
FF
01
FF
01
00
FF
FF
00
00
00
01
FE
FF
02
FF
FE
02
02
01
01
01
01
00
02
01
FF
01
01
01
FF
00
FF
01
02
01
FF
FF
02
00
00
00
00
FE
00
FF
00
01
01
00
FF
01
FE
00
FF
01
FE
FF
01
FF
01
00
01
FF
00
00
FF
FF
FF
01
FF
02
01
02
00
FE
00
01
00
00
01
01
00
FF
01
02
01
00
FF
00
01
FF
01
00
00
00
01
00
02
FE
02
02
FF
00
02
02
00
03
02
00
00
01
02
FE
FF
FF
02
01
FF
01
00
FF
00
FE
00
00
01
00
00
FF
FF
00
00
FD
00
FF
FE
01
02
01
00
01
01
01
02
FF
01
01
FF
FF
FE
01
00
01
FF
00
FE
00
01
01
01
FF
03
FF
FF
01
FE
01
FF
00
FF
01
FC
FE
01
FF
00
FF
00
01
00
01
00
FF
03
FE
00
00
01
FE
FF
FE
01
01
FF
00
FF
FE
00
00
FF
FE
FF
00
01
01
00
FF
00
00
FF
00
01
02
00
02
FF
01
00
FE
00
FE
00
01
FF
01
00
FF
01
00
FF
FE
FD
FF
FF
01
FE
00
00
00
00
FF
FF
FF
02
01
02
00
FE
00
01
FF
FF
01
00
01
FF
FE
00
FE
00
03
00
FF
00
FF
01
00
00
01
FE
01
00
FE
00
01
00
FE
01
01
FF
FF
FF
00
00
00
FE
02
00
00
00
FF
00
01
01
01
01
02
02
FF
01
FF
FE
FE
01
01
FF
00
00
00
01
00
FF
01
01
00
01
00
01
01
FE
FF
00
01
01
00
FF
00
FF
04
01
02
00
01
01
00
01
00
FD
FE
FE
03
01
FF
01
02
00
00
00
00
FD
00
01
00
00
00
03
00
FE
FF
00
01
00
00
01
00
01
01
00
FF
FF
FF
FF
00
03
00
00
00
FF
00
FE
FE
01
00
02
00
01
00
FF
FF
00
01
00
02
01
FF
00
FF
FF
01
01
00
00
FF
02
00
FF
00
FF
00
FF
00
00
01
01
02
FF
FF
FE
02
FF
FF
01
00
FF
FE
FF
01
01
FD
01
02
FF
00
01
FF
01
02
01
FF
02
02
01
FF
00
00
FF
00
01
01
00
01
01
FD
02
FF
FF
01
02
00
FE
FF
FD
FF
00
FF
FF
FF
00
01
00
FF
00
02
02
00
FE
00
FF
01
00
00
FF
00
FE
00
FF
FF
FF
FD
00
00
FE
00
FF
01
02
FF
FE
01
00
FE
01
FE
00
FF
01
01
00
01
01
01
FF
00
01
FE
00
00
00
01
00
01
01
00
01
FF
FD
01
00
FF
FE
00
01
FF
FF
00
FF
FF
00
FF
01
FF
FF
FE
FE
FF
FF
00
FE
FF
01
FF
FF
00
FF
01
FF
FF
FE
FE
01
00
FF
FE
FF
FF
FF
00
00
00
01
01
00
FF
FF
01
00
00
00
FF
FE
03
00
00
00
00
00
FC
FE
00
00
01
00
01
00
01
02
FF
FF
01
00
FF
00
00
00
01
FF
00
FF
FF
00
00
01
FF
FF
00
FF
00
FF
02
FF
FF
00
FF
01
00
FF
01
01
01
FF
00
00
00
FF
00
FF
00
FE
01
01
01
02
00
02
01
FD
02
FF
FE
01
01
01
FD
00
FE
02
FF
02
00
01
01
01
FF
02
00
01
00
01
01
01
FE
01
02
01
00
FE
FE
00
FF
FE
FE
01
FF
01
FF
02
00
FF
FF
01
01
01
04
FF
FF
FF
FF
FF
FD
02
FF
00
FF
00
02
00
00
00
FF
01
00
00
FF
FF
02
02
FD
01
01
02
FF
FF
01
01
FE
00
02
00
00
01
01
02
00
FF
FF
00
00
00
02
00
FD
FF
00
01
00
01
01
FE
FF
FF
FF
00
01
01
FF
FE
02
01
01
FF
01
FF
FF
01
00
00
00
01
04
00
01
01
01
00
01
02
00
01
FE
FF
FF
01
00
FF
01
00
FF
FF
01
01
00
FF
01
01
FF
FF
FF
01
FE
00
FF
00
01
01
FD
00
01
00
FF
00
FF
00
00
00
02
02
01
01
01
FE
00
01
01
FF
02
01
00
01
01
FF
01
02
00
01
FF
00
00
01
FE
FD
00
01
FE
02
00
01
FF
00
02
FE
01
01
00
01
FF
01
FD
01
01
FE
01
FD
00
FF
00
FF
01
FF
FE
FE
00
00
01
FF
01
00
01
00
01
02
FF
01
00
01
00
01
02
FE
FE
00
01
FE
00
00
00
02
FE
01
01
00
FF
00
FF
FF
FF
FF
00
01
00
FF
01
00
01
02
00
00
FF
00
FF
FF
00
FF
00
03
FE
00
00
01
00
01
FF
01
FF
FF
01
01
FF
FF
01
00
FF
00
01
FF
FE
01
FF
00
00
02
FF
00
00
01
00
FE
FF
00
02
00
01
01
FF
01
FE
00
00
01
FF
FF
FE
01
FE
02
01
00
03
01
FF
02
00
01
00
00
FF
FF
FF
FF
FE
02
FF
01
02
FE
FD
01
00
01
FF
00
FF
FD
00
FF
01
00
00
01
00
FF
00
00
00
00
00
00
00
FE
01
01
FF
00
FE
03
FF
01
00
00
00
FE
FD
FF
FE
FE
FF
00
FF
FF
00
FF
02
03
FD
FF
02
00
FF
FF
FD
FD
00
01
02
01
01
FF
01
01
01
01
FF
01
00
FE
00
00
04
01
FF
FE
FF
00
FF
00
00
00
00
FF
FE
00
01
00
FF
00
00
00
FF
00
00
00
00
00
00
FE
00
00
01
01
FF
00
00
01
FF
00
00
FF
FF
FF
00
FE
00
00
00
00
00
FF
00
00
00
01
00
02
FF
FE
00
02
FE
02
02
FE
01
00
01
00
FF
00
00
FE
FE
FF
FF
FF
FF
00
FF
02
01
FE
00
00
01
00
00
FF
01
00
01
00
00
FF
00
00
FF
FE
FE
00
01
FF
00
FE
FE
01
01
FE
01
00
FE
FF
00
FD
02
00
01
FE
03
FF
00
FF
FF
FE
00
01
00
00
FF
FE
02
01
FF
00
FE
FF
00
03
FE
01
00
FE
01
FE
02
FE
01
00
01
00
01
01
00
FD
FF
00
01
01
FF
01
00
02
00
FF
00
00
00
02
FF
FE
00
01
00
02
01
FF
01
02
FF
FF
01
01
03
00
FF
00
FF
00
01
FE
FF
02
00
02
01
01
FF
FE
01
00
00
00
01
01
FF
00
00
01
01
01
FF
00
01
01
FD
01
01
01
00
FF
01
00
02
FF
FE
FE
FE
01
FD
00
01
01
01
FF
02
FF
FF
FE
FF
FF
FE
02
01
01
FF
01
00
FF
00
FF
FF
FF
FF
FE
01
01
00
FF
00
FF
01
FF
FE
02
00
01
02
FF
00
FF
FE
FE
02
FE
FE
01
FE
00
00
00
01
01
00
02
FF
FF
FF
FF
FF
FF
FF
00
00
00
00
FE
00
03
FF
FF
01
FF
FF
00
01
01
00
00
01
00
01
FF
00
FF
FF
01
FF
FD
FF
00
FF
FF
00
FF
FD
00
01
FF
00
00
FF
00
FF
01
00
01
FF
00
00
00
01
FF
FE
00
01
00
00
00
00
00
00
02
FE
01
01
01
FF
01
01
FF
00
00
00
02
01
FE
01
00
00
01
FF
FF
00
01
FF
FF
00
01
00
FF
01
01
01
FF
00
FF
02
FE
FF
01
FE
FF
00
00
00
00
01
00
FF
00
00
00
00
02
01
01
01
FF
01
FE
01
00
01
02
00
02
01
03
FF
00
00
02
01
01
FF
01
00
01
FF
01
02
00
FF
01
FF
FE
00
00
00
01
00
01
00
00
FF
00
01
FF
01
01
01
02
FF
FF
FE
01
02
02
01
01
01
01
FE
01
02
01
FF
00
FE
01
01
00
FF
01
FF
03
FF
01
FF
00
FD
FF
00
01
00
02
00
00
FF
FF
FF
00
02
00
00
00
00
01
00
00
FF
00
FE
FD
00
00
01
00
01
01
00
FE
01
01
00
02
01
00
FF
00
FF
01
02
02
FF
00
FF
01
FE
FF
01
00
FF
FF
FF
00
00
FF
FF
FF
FF
00
03
01
00
01
02
00
FF
01
01
FF
00
FF
00
00
02
FF
FF
00
00
01
03
00
FF
FF
FF
00
01
FF
01
FF
01
00
01
00
01
01
FF
01
00
FE
02
FF
00
00
FF
00
FF
01
01
FF
01
FF
FF
01
01
FE
01
FD
00
02
00
FE
01
01
01
01
FE
FE
FF
FF
00
FF
FF
00
00
01
01
00
01
00
FE
01
00
01
FD
02
01
02
00
FE
01
01
02
FF
01
01
00
FE
01
FF
01
00
00
01
00
00
FF
02
FE
FF
FF
02
FF
FF
FE
01
00
01
FF
FE
FF
FF
00
01
FF
FF
01
01
FF
FF
00
01
FF
00
FF
01
00
FF
01
FF
00
01
FC
FF
01
00
01
FD
01
01
00
01
03
FF
FF
02
01
02
02
00
00
FF
00
02
01
00
01
01
01
01
00
FF
01
FF
FF
01
01
FF
01
02
FF
00
02
FE
02
02
00
00
FF
02
01
03
01
01
FF
01
00
02
02
01
00
FF
00
FF
02
00
01
01
00
FF
FF
01
FD
FF
01
00
00
02
00
FF
FE
00
FF
FF
02
00
FF
FF
01
00
00
00
01
00
01
03
01
02
FF
00
01
01
00
02
01
00
00
00
FF
01
00
01
FF
01
01
FE
01
00
FF
00
FF
02
00
01
FE
02
01
01
00
02
FE
00
03
FD
00
FE
FE
FF
00
00
00
01
FF
00
FE
02
FF
01
03
FF
02
FC
FF
00
00
00
00
FE
FF
00
01
FF
FF
FF
01
01
FF
FE
02
00
FF
01
01
01
FF
01
00
01
00
FF
01
01
FF
02
00
FD
FF
01
00
00
00
01
01
FF
01
00
00
00
FF
00
02
01
FF
01
01
FF
FF
FE
01
01
00
00
FE
FF
FF
FF
01
00
FF
FF
01
00
FF
FF
01
FF
FE
00
02
FF
FE
00
00
00
FF
FE
01
FF
FF
02
01
FF
02
00
FE
01
01
02
02
01
00
00
01
FE
01
00
01
00
01
01
01
FE
FE
01
FF
FF
FE
01
FE
00
FF
01
FF
01
00
FE
00
00
FF
FF
01
01
00
01
00
FF
FE
FF
01
FF
01
FF
FF
01
FF
01
FF
00
01
01
01
FF
00
FF
FF
FE
00
00
FE
FE
02
00
01
FE
FF
00
01
FF
00
00
00
FF
01
FF
01
00
01
01
FF
01
FE
01
FF
00
01
02
00
FE
01
01
FD
FE
01
FE
00
00
FF
00
FF
00
03
00
FE
FF
FF
FF
FF
00
01
FE
FF
00
00
01
FF
01
02
00
FD
00
FE
00
FF
FF
FE
FF
00
00
FF
00
FE
01
00
01
00
02
00
00
00
FF
00
02
FF
00
FF
01
FD
FF
00
FF
00
02
FE
FF
FF
01
01
FD
FF
00
01
00
FC
01
FF
00
02
01
00
01
00
FF
FE
01
00
FF
01
00
00
01
00
00
00
01
00
01
01
01
01
01
01
00
00
01
00
FE
FF
FF
01
00
FF
01
00
01
00
01
01
00
01
01
FE
00
01
FF
01
00
01
00
FF
FF
01
00
01
FD
00
00
01
FF
FF
01
FD
FF
02
00
FF
FF
02
01
00
02
FF
00
01
FE
FE
FF
FF
01
01
01
FE
FF
02
00
01
01
00
FF
00
00
00
00
FE
03
01
01
FD
01
FE
FE
01
01
FF
FF
01
00
00
FD
00
01
00
00
00
01
01
FF
FF
01
01
00
00
00
00
FF
01
01
00
01
00
00
01
00
FE
00
FF
01
00
01
02
00
FE
00
01
01
FF
00
01
01
00
01
FF
00
FF
FE
FF
01
FF
00
00
02
00
FF
00
01
00
01
00
01
00
01
00
FF
00
01
00
FE
01
FF
00
FF
FE
01
00
00
00
00
00
FE
FD
00
FE
FF
FF
02
FF
FE
FD
00
01
01
FF
00
FF
00
FE
00
FE
00
02
FE
01
FF
00
02
00
01
FD
00
FF
FF
00
00
00
FF
01
FF
00
00
00
00
FF
01
02
FF
01
FE
02
00
01
FF
FF
01
00
01
00
02
01
FF
01
00
FF
00
FE
01
01
00
01
FF
00
02
01
00
00
00
01
FF
01
00
02
00
00
FD
00
FF
00
FF
00
01
01
01
FF
FF
00
FD
00
00
00
FF
01
01
00
01
01
FD
01
FF
FF
00
00
FF
00
01
FE
FF
02
FF
FE
FE
00
00
FF
03
FF
01
FE
FD
FF
00
00
FF
FE
00
01
01
FF
01
00
00
00
01
00
01
00
01
00
01
FF
02
01
FF
00
FD
00
00
FC
FF
01
00
01
FF
00
FF
00
FF
FF
FF
02
FF
FF
00
00
01
FE
02
FF
02
FF
00
FF
00
01
00
FF
01
FF
FE
01
02
00
00
00
FF
FF
01
FF
00
FF
02
01
00
FF
01
01
00
01
FE
FF
01
01
00
00
00
00
FE
00
01
00
FF
00
FF
00
FF
00
FF
01
01
00
00
01
00
01
00
00
00
FE
FF
00
00
01
00
00
00
00
00
00
FF
02
02
02
01
FF
FF
02
00
FE
01
01
01
FE
01
01
01
01
00
FF
00
FD
01
FE
01
01
FF
01
00
01
01
FE
02
00
00
02
01
FE
FF
01
FE
FF
FF
00
01
FF
FE
00
00
00
00
FF
FE
00
00
00
FE
FE
00
00
00
00
01
01
FF
01
00
01
FF
01
FF
FF
FF
00
01
FE
FF
FF
FF
FF
00
00
00
00
01
01
FE
01
00
FE
00
FF
00
00
00
FF
FF
00
FE
FF
00
FF
00
00
FF
01
FF
FF
00
00
00
FF
01
00
FE
00
00
FF
FE
01
00
FF
00
FF
00
00
01
01
FF
00
00
00
00
00
00
FE
00
FF
FF
FF
01
00
FF
FF
FE
01
01
FF
FF
FE
00
FE
01
FF
FF
FF
FF
00
FF
00
01
FE
01
01
FF
FF
FF
01
01
00
00
FF
01
01
00
00
01
01
00
00
02
FF
00
00
FE
01
02
00
00
FF
FE
FF
FF
01
00
FF
00
00
01
00
01
00
00
00
FF
02
02
00
00
00
01
00
FF
03
01
01
00
FE
01
FE
00
02
FF
FF
FE
01
01
FE
FF
FE
FF
FF
FF
FF
01
FF
00
02
FE
02
00
FF
01
00
FF
02
00
01
00
03
00
01
00
02
01
00
00
FF
00
FF
00
02
00
01
00
01
01
00
02
01
01
01
FF
00
FF
FF
02
FF
00
FF
02
FE
FF
01
01
00
FE
FF
FF
FF
01
00
01
01
FD
FF
FF
01
01
00
00
FF
01
00
01
00
FF
00
00
00
FF
FD
00
FE
00
FF
00
FF
00
FE
02
00
FE
01
FE
00
01
00
02
FE
00
01
FE
01
00
02
01
FF
00
FF
FE
01
FF
FF
01
FE
01
00
00
00
FD
00
FF
01
00
00
01
00
00
00
FE
01
00
FE
FF
02
FF
03
01
00
01
FF
FF
01
01
01
01
FF
00
00
02
01
00
01
00
00
00
01
00
01
01
00
FF
02
FF
00
01
01
FF
00
FF
