00
FF
FF
00
00
01
00
01
FF
00
FF
00
FE
00
00
00
00
FF
FF
00
FF
FF
00
00
FF
01
01
00
FF
00
00
01
01
00
00
01
00
00
00
01
FF
01
FF
01
00
01
FF
00
01
00
00
00
00
01
FF
00
FE
01
FF
00
00
FF
00
FF
00
00
00
00
FF
00
FF
00
00
00
01
00
FF
FF
01
01
00
01
01
00
01
00
01
FF
00
00
FF
00
01
FF
FF
02
FF
FE
00
FF
01
01
02
FF
01
00
00
01
00
00
00
01
00
FF
FF
00
00
02
00
01
01
02
02
01
00
00
FF
00
00
00
01
FF
01
00
01
FF
00
01
FE
00
00
00
01
01
FF
FE
00
FF
00
01
01
01
02
00
FD
02
00
00
01
00
01
00
00
00
02
00
01
FF
00
00
00
01
FF
01
00
FF
01
FE
02
00
00
FF
FF
00
00
01
01
FF
FF
01
00
00
FE
00
01
02
FF
FF
00
FF
01
FE
01
FD
FF
00
00
FE
FF
00
02
01
FF
FF
01
FF
01
00
01
FC
00
01
01
FE
02
02
04
FE
FF
FE
FF
FE
01
FF
03
FC
01
00
FF
01
02
01
FD
FD
FF
00
FF
FE
FE
FF
01
FD
00
00
FE
01
FF
01
FE
00
01
FE
00
FF
02
FD
00
FF
01
FE
00
FF
01
00
00
00
00
00
02
00
FE
00
00
01
00
00
FF
01
FF
03
01
01
01
01
02
00
02
FF
FF
02
FE
02
00
01
FF
01
01
FE
00
00
00
01
01
00
00
01
00
FF
00
01
01
FF
FF
FF
01
FF
01
FF
FF
00
00
FF
00
01
FF
00
00
00
FF
FF
00
FE
FF
00
00
00
00
00
FC
00
FD
FE
FF
01
02
01
00
00
00
01
FF
01
FF
00
FE
01
00
FE
FF
00
FF
00
00
00
FF
01
00
00
01
FF
00
00
01
01
00
FF
00
00
01
FF
01
01
FF
FE
FF
01
01
00
FF
01
FF
00
00
FE
00
FF
00
00
FD
01
FF
01
FF
02
00
01
FE
00
01
00
01
01
FF
01
00
01
FF
FF
01
00
02
01
FF
02
00
00
FF
01
FF
00
01
01
01
FF
FF
00
00
01
FF
FF
FF
FE
01
FF
00
00
00
FF
FE
00
00
FF
00
00
FF
FF
00
00
00
02
01
01
FF
FF
00
00
FD
00
FE
00
FF
FF
FE
02
FE
01
FF
01
FF
01
01
FF
01
01
00
FF
FF
00
01
02
FF
02
00
01
02
00
FF
00
01
FF
FF
00
00
02
00
01
00
FF
00
FE
FF
FF
00
FF
00
02
01
01
01
02
00
FF
01
FE
FF
FF
00
FE
FF
01
FE
00
00
00
00
01
00
FF
FF
FD
00
00
00
FE
FE
01
FF
00
00
00
00
01
FF
01
00
FE
02
01
FF
FE
FE
00
FF
02
00
00
00
00
00
00
01
01
01
FF
00
00
01
00
00
FF
FF
00
FF
FF
01
00
00
00
FF
FE
00
00
FF
00
FF
FF
00
00
FF
01
FF
00
FF
FF
FF
00
00
00
00
00
00
01
FF
00
FD
FE
FF
00
01
00
00
02
01
FF
FD
01
01
01
02
00
00
FF
FF
FE
00
02
02
00
01
02
00
00
00
00
00
00
01
00
02
FE
FE
00
01
00
00
FF
00
01
01
01
00
00
00
01
00
01
00
00
FF
FF
00
00
01
01
00
FF
00
01
FE
00
FF
00
FF
00
FF
00
00
01
00
FF
02
FE
00
FF
FE
FE
FF
FF
01
00
01
01
00
FE
FF
01
FF
00
FF
02
00
00
FF
00
01
00
00
FF
FF
02
FF
00
FF
00
00
00
FF
00
FF
01
01
00
01
FF
01
00
00
00
00
01
00
00
01
00
02
01
01
00
FF
00
01
01
FF
01
01
FF
01
00
00
00
01
02
FF
FE
FE
00
00
01
01
00
FE
01
00
01
01
00
FF
02
FE
FF
00
00
00
00
00
FF
FF
02
00
00
FF
FF
01
FF
00
01
01
00
00
FF
00
00
01
00
FE
01
00
00
00
00
FF
00
FF
FF
FF
01
00
FE
00
FF
FF
FF
02
00
01
01
FE
FF
00
00
00
01
00
FF
00
00
00
00
01
01
00
01
00
01
FF
FF
02
02
00
FF
01
FE
FE
00
00
01
00
01
01
00
00
FF
00
02
00
00
00
01
01
FF
00
02
FF
FF
01
FF
FF
FF
FF
02
01
FF
01
00
01
00
01
00
00
00
01
01
00
FF
00
02
00
00
02
FF
00
00
FE
FF
FF
FE
01
FF
FF
FF
FF
00
FF
01
01
00
01
00
FF
FF
00
FF
00
FF
00
FF
00
01
FF
FE
00
00
FF
FF
01
00
01
00
FD
FF
FF
FF
00
01
00
FE
00
00
FE
FF
00
FF
00
FE
02
00
00
00
00
00
FE
FF
FF
FE
00
00
FF
00
01
FE
01
00
01
00
00
FF
FF
00
FF
00
FF
FE
00
FE
03
00
00
FF
00
00
00
FF
00
FF
FF
01
00
FE
02
00
03
01
FF
00
FF
01
FF
01
02
FF
00
FE
FF
FF
01
FF
00
02
FD
FD
00
FF
00
FF
00
FE
FE
01
01
00
01
00
00
01
FF
FF
FF
FF
01
00
01
00
FE
01
01
FF
FF
00
FF
00
00
01
00
00
01
01
FF
01
FF
00
FF
FF
01
01
01
FF
00
01
FF
00
01
01
01
00
01
FF
FF
FF
00
00
01
01
00
00
00
00
FF
01
FF
00
01
FF
FF
02
FF
00
00
00
01
00
FF
00
00
00
FE
00
FF
00
FF
00
00
FF
FF
FE
00
00
00
00
FF
01
00
FF
00
01
01
FF
00
02
00
00
FF
FF
FF
FE
FF
00
02
01
00
02
02
00
FF
FF
FF
03
02
00
FF
02
01
FF
01
00
FF
00
01
01
00
FE
00
03
01
01
00
00
00
FF
00
01
FF
01
01
01
00
01
01
00
FF
01
01
FF
00
FF
00
00
FF
01
00
FE
01
00
00
00
FF
00
FF
00
00
FF
FF
FF
02
00
FF
00
00
01
FE
01
02
FF
01
01
01
FF
00
00
FF
00
01
01
00
FF
01
00
01
FF
01
FF
02
00
00
FF
00
01
00
00
01
FF
02
FF
FF
00
01
01
FE
FF
01
FF
02
01
FE
FF
02
FF
02
FE
FF
01
FE
00
01
FF
01
02
02
FE
FE
00
FF
02
00
FC
01
02
01
00
00
FF
FF
01
FF
FF
FF
01
00
FF
01
FF
01
01
00
01
01
FD
00
01
FF
FF
FF
00
00
01
01
00
01
00
01
02
00
00
01
00
FF
01
00
01
FF
01
00
00
01
01
FF
01
00
01
00
00
FE
03
02
00
FF
FF
00
FF
01
01
FF
01
02
FE
FF
01
00
00
FF
00
00
01
00
00
00
FF
00
00
00
00
FE
01
FF
00
00
FF
01
01
00
01
FE
FE
FF
00
01
FF
FF
00
FF
01
00
00
00
FF
FD
00
00
00
01
01
00
FF
00
00
00
00
FF
00
00
00
01
FF
00
FF
01
01
00
FF
00
00
FF
00
FF
00
01
00
00
00
01
FE
00
00
00
01
00
01
FF
01
01
00
00
FF
FF
FF
01
FF
00
01
00
00
00
00
FF
01
FF
01
FE
00
00
FF
00
FE
FE
00
FD
FF
FD
00
00
FF
01
FF
FF
FF
02
01
FC
FE
FF
FE
00
02
01
FE
FF
FF
FF
FD
00
01
01
02
FF
FF
FE
FD
00
00
03
FD
FF
01
01
FF
01
01
FF
00
02
FD
FF
FF
01
FE
FF
FF
01
00
00
FF
FD
01
FD
FC
00
FE
01
FF
FE
FE
FF
FB
FF
FF
FF
00
01
FE
00
FF
FF
FF
00
FE
01
FF
00
FE
FF
FE
00
00
01
FF
FF
01
01
00
FF
FF
FF
FF
01
00
FF
00
FD
00
00
02
00
01
FF
FF
FE
FF
01
FF
FE
00
FE
01
FF
00
00
02
FF
FE
01
FF
01
02
01
FF
FE
00
FE
FF
02
01
00
FE
00
FF
01
01
FE
00
00
FF
00
01
00
00
FF
FF
01
00
01
01
01
00
00
00
00
01
01
01
FD
00
00
00
FD
02
FF
00
FF
00
00
00
01
FE
FF
02
00
00
01
01
FD
FF
00
FF
01
00
01
03
FF
00
FD
01
00
00
00
01
00
00
01
FF
FF
FF
FF
FF
01
FE
01
01
FE
01
FF
00
00
02
FF
01
01
FE
00
00
00
00
00
00
00
01
02
FF
FD
FE
FF
00
01
01
00
01
01
00
FE
00
00
01
00
FF
FE
FD
00
FF
00
01
00
00
00
01
00
FF
01
00
00
FF
02
FF
00
00
01
00
01
FF
00
FD
00
00
FF
02
00
01
00
FF
FF
FE
FF
01
FF
01
01
01
00
01
00
FF
00
00
FD
FF
FE
01
01
FF
FF
01
02
01
FE
01
00
01
01
00
00
01
02
01
FF
00
02
FF
00
02
FF
00
00
00
01
00
02
FF
01
01
FF
FF
FE
00
00
FF
02
FF
01
00
00
01
00
02
00
00
01
FF
FE
FE
FF
FF
FF
02
02
00
00
00
FE
01
FE
01
00
00
00
00
FE
FF
FD
02
FF
00
00
00
FF
FE
FE
FF
02
01
03
01
FE
FF
FF
02
00
00
00
00
02
FE
FF
00
02
01
FF
FF
01
FF
FF
01
00
FF
00
00
01
01
00
00
00
01
00
00
00
00
FE
00
02
00
FF
00
00
01
FF
FF
00
01
01
01
00
00
00
00
01
00
00
FF
FE
FE
00
FF
00
01
02
02
01
FF
00
FF
00
FF
FE
01
01
01
00
FD
01
00
00
FF
00
00
FE
01
00
FE
FF
FF
FF
FF
FF
FE
00
00
01
00
01
00
FF
00
00
00
00
FE
FF
00
01
00
00
00
00
00
FE
00
02
FF
02
FF
FF
00
01
00
02
FF
FE
00
01
00
02
00
02
FF
00
00
00
01
FE
FF
00
FF
00
01
FF
00
00
FE
FE
FF
FF
FF
00
FE
00
FF
01
00
FF
00
00
01
FF
00
01
FF
FF
01
FF
00
01
00
03
01
00
FF
01
FF
00
00
02
01
02
01
FF
00
00
00
02
00
01
02
00
00
00
FF
01
FF
00
01
FF
FF
00
FD
FE
FF
01
02
02
00
01
FE
00
01
00
02
02
00
FF
FF
00
FE
FF
02
02
01
03
00
00
00
00
FF
01
FF
00
02
00
FF
FF
00
00
00
00
01
00
00
FF
FF
02
01
00
01
FF
01
00
FF
FE
FF
FE
01
00
FF
00
00
01
FF
FF
00
FE
FC
FF
00
03
FE
00
00
FE
FF
01
02
00
00
FF
FE
01
FE
FF
FF
01
FF
01
FD
00
01
FE
02
01
01
00
00
FF
01
00
00
01
00
FE
00
FF
01
FF
02
01
00
FF
01
00
FF
01
01
FF
00
00
FE
FF
FF
01
01
02
01
FF
FF
FF
FD
00
FF
01
00
FD
00
FF
02
00
00
FE
FF
01
02
01
FE
00
00
FF
FF
FF
FE
00
FF
00
01
00
FF
FE
00
00
FF
FF
01
00
01
01
FF
FF
00
00
01
00
01
00
01
01
00
FF
FF
FF
02
00
00
01
00
01
FE
FF
01
FF
01
FD
00
00
00
01
01
FE
02
FE
01
02
01
FE
01
FE
00
00
FF
00
00
00
01
00
00
FF
01
01
00
FF
01
00
00
00
03
FF
01
00
00
01
01
00
FF
FF
FF
00
FF
02
01
03
03
00
00
FE
FF
00
01
03
01
FF
01
01
FF
00
01
00
01
01
01
01
02
00
00
00
01
FE
01
FF
00
FE
00
FF
00
00
00
01
00
FF
FF
FF
01
00
01
00
00
FE
FF
00
01
00
00
00
FF
00
FF
FF
FF
00
FF
01
00
01
01
02
01
00
FF
FF
00
FF
00
01
00
01
00
FF
00
FF
00
00
00
FF
01
02
01
01
00
00
00
00
01
02
00
FF
01
00
FF
FF
01
01
02
01
01
02
01
00
FF
FE
01
01
02
00
00
00
FF
FF
01
FE
01
01
FE
01
00
FF
00
01
03
00
02
01
FE
FF
00
FF
FE
00
00
00
01
FF
FE
FF
FF
FF
FE
00
00
02
00
01
FF
02
FF
00
FE
FF
00
00
02
01
00
FF
02
FE
00
02
01
02
00
00
FF
00
01
00
FF
FE
00
FF
00
FE
00
00
00
00
FF
01
00
FD
00
01
00
FE
01
00
00
FF
01
FF
FF
FF
01
01
01
FF
FE
01
FE
02
FE
FD
FD
01
FD
00
FF
00
FD
01
00
00
00
01
FE
00
FE
FF
01
FF
FD
01
FE
FF
FE
00
FE
01
FF
FF
FE
00
00
00
01
00
00
00
FF
FF
01
FE
FD
01
01
02
00
02
01
FE
00
FF
00
00
01
01
00
00
FF
02
00
FF
00
01
00
00
FF
FF
00
01
00
00
00
01
00
01
00
00
FF
00
01
00
00
00
FF
00
00
00
FF
00
FF
00
00
01
FF
00
FF
00
00
00
01
FF
00
00
FF
FF
00
FF
00
FF
FF
00
FF
FF
FF
01
01
00
FF
00
FF
00
FF
00
00
FF
FF
01
00
00
01
00
00
FF
00
00
00
00
00
00
00
00
FF
00
00
00
FF
FF
FF
FF
00
01
FF
01
FF
00
00
00
00
FF
00
FF
00
00
00
FF
01
00
FF
FF
01
00
00
00
00
00
00
00
FF
00
01
00
FF
01
00
00
00
00
01
FF
FF
FF
00
FF
00
00
FF
00
00
FF
FF
FF
00
00
FF
00
00
01
FF
00
00
00
FF
FF
FF
00
00
FF
00
01
01
FF
00
FF
00
FF
FF
00
FF
01
FF
FF
FF
FF
FF
FF
FF
00
00
01
FF
00
00
00
00
FF
FF
00
00
00
00
FF
00
FF
00
FF
01
00
01
00
00
FF
01
01
FF
00
FF
FF
01
00
FF
FF
00
FF
00
01
01
00
00
00
FF
00
00
FF
FF
00
FF
00
FF
00
FF
FF
00
00
00
FF
FF
00
00
FF
00
00
00
01
00
FF
00
01
FF
01
00
01
FF
FF
00
FF
00
FF
01
01
FF
FF
00
00
FD
02
00
01
FF
FF
FF
FF
FE
01
00
01
FF
01
00
FE
FE
00
FF
00
FF
01
00
00
FE
01
03
FF
01
00
00
00
FF
01
FF
FE
00
01
00
FF
01
00
02
01
FF
00
FF
02
00
02
FE
FE
00
01
FE
00
01
00
FF
FF
FF
01
01
FE
FF
FE
00
00
00
FF
00
FF
FE
01
02
01
FF
01
00
01
01
FF
00
00
FF
00
01
00
FF
FE
00
00
01
FF
00
00
02
00
FF
FF
00
01
FF
FF
FF
FD
00
FF
FE
00
01
01
02
00
FF
00
00
01
FE
FF
01
FF
FF
00
FE
FF
FF
01
01
01
01
FE
01
00
FF
00
00
01
FF
00
FE
FF
00
00
01
FF
00
FE
00
02
01
FF
02
00
FE
00
01
02
01
00
01
FF
01
01
01
00
00
FF
01
FE
FE
FF
00
FF
00
00
02
01
02
01
FF
FF
00
00
02
01
FE
01
00
FF
01
00
01
01
01
01
00
01
00
00
00
00
FF
00
FF
FF
FF
FF
00
00
01
FF
FF
FF
00
FE
01
00
00
01
02
00
00
01
01
01
01
00
01
FE
FF
01
01
00
00
02
00
FF
00
00
00
00
02
01
00
01
00
FF
00
00
FF
00
00
FF
00
00
01
01
FE
FF
02
FE
00
00
01
00
FF
01
01
00
02
02
01
00
00
00
00
FC
01
FF
02
FF
FE
00
00
03
01
00
02
01
01
01
00
01
01
02
02
00
FF
FF
00
00
00
FE
01
01
01
00
00
01
FF
FF
00
00
00
01
FE
00
00
00
FF
01
FE
01
FF
00
00
01
FF
01
00
01
01
FE
00
FE
FF
00
FF
00
FF
01
00
00
FE
01
FF
00
FF
00
00
FF
FE
01
01
00
FF
00
00
00
01
FF
01
00
01
FE
01
00
FF
00
00
01
00
01
FE
01
00
FF
00
00
FE
01
00
FF
FF
FD
FE
01
FF
FF
00
FF
00
00
01
01
00
FF
00
FE
FF
00
00
01
00
01
01
01
FE
02
FF
00
01
00
FF
FE
FF
FF
01
01
00
FF
01
00
00
00
01
00
00
FF
FF
00
FF
FF
00
00
01
01
FE
00
FF
01
02
FF
01
FE
FE
FF
FE
01
FF
01
00
01
FE
FF
FF
01
00
00
FF
FF
FF
FF
FF
00
01
00
00
FF
00
01
00
00
FF
FF
00
FF
FF
FF
00
00
00
01
01
00
FE
01
01
FF
00
FF
FE
02
02
00
01
FF
00
FF
00
01
FF
FF
01
FF
FF
00
00
01
01
00
01
00
00
01
FF
FE
00
00
00
00
FF
00
02
00
FF
00
01
00
01
00
01
FE
01
00
FF
01
FF
01
02
00
FF
00
00
00
01
01
00
FF
00
FE
00
03
01
01
00
00
00
FE
00
00
00
01
FF
FF
02
01
00
00
FF
01
00
01
00
01
FF
00
00
FF
01
00
01
FF
02
00
00
00
02
00
01
FF
FF
00
00
00
00
00
01
01
01
01
FE
01
FF
00
FF
00
00
00
00
01
01
FE
FE
FF
00
01
02
FF
01
01
FE
01
FE
FF
FE
00
03
FF
00
FF
00
FF
00
FF
00
00
00
01
01
01
00
00
01
FF
01
02
00
FF
00
00
FF
FF
00
01
01
00
FF
00
00
00
FF
FF
FF
01
00
00
00
00
FF
00
FF
FF
00
02
01
01
00
FF
01
01
00
FF
FF
03
FF
00
00
FF
FF
FF
01
FF
FF
FE
00
FF
01
00
01
FE
00
01
01
02
00
02
FE
FF
FF
FF
00
00
FF
00
FF
FF
00
FF
00
01
00
03
FE
01
00
00
01
02
01
01
FE
00
00
FD
01
00
FF
02
FF
02
FE
01
00
FF
FF
FE
FD
00
00
00
01
FF
FD
00
00
00
FF
FE
00
00
03
01
FF
FF
00
FE
FF
FF
01
00
FF
02
FE
00
00
00
02
FF
FF
01
00
FF
FE
FD
01
00
FF
01
FE
FF
00
00
01
00
00
01
FE
00
FE
FF
FE
FE
00
00
FF
00
00
00
02
FD
01
01
FC
01
FF
FF
FF
FC
01
FF
02
01
00
01
01
01
01
00
00
FE
00
FF
FF
00
01
00
FF
00
00
00
FF
00
FF
FF
00
FE
01
FF
00
00
00
02
FF
FF
00
00
01
02
01
01
00
00
01
00
00
FF
00
00
FF
FE
00
00
00
00
00
02
00
00
02
02
01
FF
00
02
FF
FE
00
01
01
01
FF
00
00
FF
FF
02
00
01
01
01
02
01
FF
01
FF
01
FE
FF
00
01
01
01
02
00
01
01
FF
00
01
01
00
00
00
01
01
00
00
00
01
01
00
01
FF
01
00
01
FF
00
00
FF
00
01
01
00
01
00
01
00
FF
01
FF
FE
00
00
00
00
FF
00
00
FF
00
00
00
00
02
00
FF
01
01
01
00
01
01
00
01
FE
FF
01
00
FF
FF
00
00
00
01
00
00
01
00
01
01
01
01
00
FF
00
01
01
01
01
00
00
FF
00
00
00
FF
FF
FF
FF
00
01
FF
01
00
00
02
FE
00
FF
00
00
FF
00
FE
FF
FF
00
00
FF
01
01
FE
00
00
FF
00
00
01
01
FE
00
01
FC
00
FF
00
00
02
00
00
FE
FF
FF
02
00
01
01
01
00
00
00
01
00
00
00
01
FF
01
00
02
FE
00
02
02
FE
00
01
00
FF
FE
FF
01
01
FF
00
01
01
FF
01
00
FE
FF
FF
01
01
FE
01
01
01
00
01
FF
02
00
00
00
FF
FF
00
01
FF
01
01
00
01
00
01
00
01
01
01
01
02
00
01
01
01
00
02
00
00
00
00
02
00
01
02
FF
FF
01
01
00
01
00
00
FF
02
00
00
01
FF
00
01
FE
00
00
01
FF
FF
00
01
00
01
FF
01
FE
00
02
00
FE
FE
01
02
FE
FF
02
00
00
FF
FE
01
FE
00
00
00
FE
01
02
00
FE
03
00
00
00
FD
FF
FF
FE
00
FE
FF
FE
00
01
01
FE
00
02
01
02
FE
FF
00
FF
02
00
00
FE
FE
00
00
00
00
02
01
02
FF
FF
FF
FD
FF
01
01
FF
01
01
01
00
01
01
03
FF
FF
FE
FF
FE
00
FE
00
FE
01
FF
01
FD
00
01
FF
FF
FD
FF
00
00
FE
FD
FF
FD
FE
00
FF
FF
FF
00
00
FF
01
FE
FF
00
00
01
FF
01
FF
01
02
02
00
00
00
00
01
00
01
00
01
00
00
00
FF
02
02
00
00
01
01
01
01
01
01
00
01
00
FF
FF
00
01
00
00
00
00
01
00
FE
00
01
00
02
FF
00
FF
FF
00
00
00
FF
00
00
FE
03
FE
02
FF
FD
FE
FD
FF
00
01
01
FF
FF
00
FF
00
00
FE
02
FE
01
FF
FF
FE
00
02
00
FD
FE
00
00
00
FF
FD
01
FF
01
00
01
FE
FF
FF
00
FF
00
00
01
00
00
FF
FE
FE
01
FE
FF
01
01
FE
00
FF
FE
00
FF
00
FE
FD
01
00
00
FF
00
FE
FF
01
FE
FC
FF
01
FF
00
FD
FB
01
00
FF
01
01
00
FF
01
FE
FE
00
02
FE
00
FE
FC
01
FE
FD
01
01
00
FE
00
00
FE
00
01
00
01
00
FC
00
FD
FD
FD
FC
00
FE
00
00
FE
00
FF
01
01
01
00
FE
01
02
00
02
01
FD
01
01
01
01
FF
FF
00
01
01
FF
01
FE
00
FF
01
00
00
01
01
01
00
FF
00
01
FF
FF
01
FE
FE
00
02
FF
01
00
01
FE
FE
FF
FF
FF
00
00
02
00
FE
FF
03
FF
00
00
01
FE
FD
00
FF
00
00
00
02
01
FF
FF
02
00
00
00
00
FE
FF
01
FF
01
00
00
02
00
FF
00
01
FF
FE
FF
02
02
FF
01
00
01
01
01
01
00
00
02
01
01
00
00
00
FF
00
00
FF
02
01
01
01
00
01
FF
01
01
FF
00
00
01
00
00
FE
01
00
FF
01
01
01
00
FF
FE
00
01
FF
00
01
01
FF
FE
FF
FF
01
00
FF
00
00
02
00
FF
FF
01
00
FF
FF
00
FF
00
00
01
00
00
00
FF
01
01
00
FF
02
FE
00
00
01
01
FF
00
01
00
00
00
00
FF
00
FF
01
00
FE
FF
FE
00
FE
FF
FE
FF
00
02
00
01
00
FF
00
00
FE
00
FF
FF
FF
00
00
FF
00
01
00
FF
02
03
FF
00
FF
00
FF
FE
00
00
00
01
01
FE
FF
FF
FF
00
00
00
00
00
FF
00
00
FE
FF
00
00
00
00
FF
FE
FE
01
00
FF
FF
01
00
FF
01
FE
01
00
00
00
FE
FF
00
FF
00
FF
00
00
00
01
00
00
01
FF
FF
FF
01
00
01
00
FF
00
00
00
00
FF
00
00
00
FE
01
FF
02
FD
00
01
FF
FF
01
00
01
00
01
FF
FF
FE
00
00
00
FF
01
FF
01
FF
01
02
FF
01
01
00
02
01
00
FF
01
01
FE
00
FF
00
02
00
00
01
00
00
FF
00
01
FF
00
FF
00
FF
01
00
01
FF
01
01
01
FE
FF
00
FF
00
00
01
00
FF
FF
00
00
FE
03
01
FE
00
FE
01
FF
01
00
01
01
00
01
00
00
00
00
FE
FF
FF
02
00
FE
00
00
00
FE
FF
FF
00
00
00
FF
01
00
00
01
00
FF
01
02
01
01
FF
00
00
FF
FF
01
00
00
FF
FF
00
00
00
00
00
FF
00
FE
FF
01
FF
02
01
00
00
FF
FF
00
FF
00
00
00
01
00
FE
FE
00
00
FF
FE
FF
00
00
FF
01
00
FF
01
02
00
FF
00
01
00
FF
FF
01
01
FF
00
00
FF
FF
FE
FE
FE
00
FF
FF
00
01
00
00
FE
00
00
FF
01
01
FD
00
FF
00
01
01
01
02
01
FF
FF
FF
01
FF
FE
00
00
02
FF
FF
FE
FF
00
00
FF
FF
FF
00
00
00
FF
00
FE
01
FF
00
FE
01
FF
01
00
00
00
00
01
00
00
01
FE
FF
00
02
FF
00
00
03
01
01
FE
00
FF
FF
FF
00
FF
00
02
01
00
00
00
00
02
02
00
00
01
00
00
FF
01
FD
00
00
FF
01
00
FF
FF
01
FF
FF
01
01
FF
00
02
FF
FF
FF
FF
FF
01
FF
00
FE
00
00
00
FF
00
01
FF
FF
FF
FF
FF
FF
FF
00
01
FF
00
FF
01
FF
00
FF
FE
00
FE
FF
FF
FF
02
00
FF
FF
FE
01
FF
01
01
00
FF
FF
FF
01
00
01
FF
00
01
00
00
00
FE
FF
00
00
00
FF
01
01
01
01
00
01
00
00
00
FF
FE
00
00
FF
FF
01
FF
FF
FE
01
00
00
FF
00
FF
FF
FF
FF
FF
00
00
00
FE
FF
00
FF
01
02
00
FF
00
FE
FE
00
00
01
FF
01
01
02
FF
FF
01
00
00
01
01
FE
FF
02
FF
FF
00
01
00
02
00
00
00
00
01
01
01
FF
FF
01
02
00
00
00
00
FF
FE
00
00
00
01
01
00
FD
FF
FF
00
00
00
00
00
00
FF
00
FF
FF
01
01
00
FE
00
FF
FF
FF
FF
FF
01
00
01
00
00
01
FF
00
01
FF
FE
00
01
00
00
01
FF
FE
FF
FF
FF
FE
FF
01
00
00
00
FF
00
FF
01
FE
00
01
FE
01
FD
00
01
01
00
01
00
FF
00
FF
01
01
00
01
00
00
FF
00
00
01
01
01
00
00
01
00
FF
00
FF
FF
00
01
00
FF
00
FF
00
FF
00
FF
00
00
FF
FF
00
00
FF
FF
00
01
00
FF
00
01
00
00
01
00
01
FF
00
FF
01
00
00
00
00
FE
00
FF
00
00
00
01
FF
FF
FF
FF
FF
FF
00
FF
00
00
FF
00
FF
00
01
FF
00
01
FF
00
01
FF
00
00
FF
00
FF
00
00
FF
00
FF
FF
FF
01
00
FF
01
00
FF
FF
00
00
FF
FF
FF
FF
FF
FF
00
00
00
FF
00
FF
FF
01
00
FF
FF
00
FF
FF
00
FF
FF
FF
FF
01
FF
FF
01
FF
FF
FF
FF
01
01
00
FF
FF
01
01
01
00
01
00
00
00
00
00
00
FF
00
01
00
FF
00
FF
00
00
FF
FF
00
00
FF
FF
00
FF
01
00
00
FE
00
01
00
FF
00
00
FF
00
00
01
00
FF
FF
00
00
01
FF
FF
00
FF
00
FF
FF
FF
FF
FF
00
00
01
01
01
01
FF
00
00
00
00
FF
00
00
00
00
00
00
FF
00
00
00
00
FF
01
00
00
FF
01
01
00
00
00
00
01
00
FF
00
00
00
FF
00
FF
00
00
FF
FF
00
FF
00
00
01
00
FF
FF
00
00
00
FF
00
00
01
00
00
01
00
FF
00
00
00
FF
FE
00
FF
FF
01
FF
FF
FD
00
FF
FE
02
00
FF
FF
FF
FF
00
FF
FF
FF
00
01
FF
00
00
FE
01
FF
FF
00
FF
01
00
FF
01
00
01
00
02
00
00
00
FE
00
00
FF
00
01
FF
FF
FF
FE
00
FF
02
01
FF
00
FF
FF
FE
00
FE
00
FF
FF
00
02
01
00
00
00
00
00
02
00
01
FF
FD
FE
FF
00
00
FF
00
01
00
FF
02
FF
01
02
01
FF
00
FF
00
00
00
FF
00
FF
00
00
01
FE
01
01
FE
FF
01
00
01
FF
01
FE
FF
00
00
00
01
01
01
01
00
FE
FD
00
FD
01
02
02
02
FF
01
FD
FF
01
FD
FE
02
00
FE
00
00
01
02
00
01
FF
FF
FF
01
FE
FF
FE
00
FF
01
01
FF
00
00
00
00
01
00
FE
FF
FF
01
00
01
01
00
01
00
FE
FF
FF
00
FF
FF
FF
00
FF
00
00
00
00
FF
FE
00
00
00
FF
02
00
01
FF
01
01
00
FF
FF
FF
FF
FF
01
00
00
FF
00
01
FF
FF
00
00
FF
FF
FF
FF
FF
00
00
FF
FF
FF
00
00
FF
01
FF
FF
01
01
00
00
01
00
00
00
00
FE
FF
00
00
00
FF
00
00
01
00
00
03
00
02
00
FE
FE
FF
00
01
01
00
01
00
02
00
01
02
00
01
FF
FF
FF
FD
00
01
FF
00
00
00
FF
00
00
02
FF
02
FF
FE
00
FF
00
FF
00
00
00
00
FF
00
00
01
02
00
01
01
01
00
01
FF
FF
00
01
FF
00
00
01
01
00
00
FF
02
FF
FF
01
00
01
00
01
FF
00
FF
00
01
01
FF
FF
00
FF
FF
00
01
02
01
00
FF
FC
FF
FF
01
00
02
00
FF
FF
01
00
FF
00
01
FF
00
FF
FF
00
FF
00
01
01
00
FE
02
01
00
FF
02
00
02
01
FF
00
FF
00
00
FE
01
FF
FF
01
FE
00
FE
02
FF
FE
00
01
FF
01
00
01
FF
FE
FE
FF
FF
02
00
FF
00
00
00
00
00
FF
FF
00
01
FF
00
01
FF
FE
FE
00
00
FE
01
FF
FF
FE
00
00
FF
00
01
00
01
00
00
00
02
01
FF
00
FD
00
01
FF
01
FF
FF
00
FF
01
FF
01
FE
00
FF
03
FE
FF
FE
01
01
00
FF
00
00
01
00
FF
FE
FF
00
01
FF
FD
FE
01
01
00
00
FF
01
FF
00
01
FF
FF
02
00
00
00
FF
00
00
FF
00
FF
00
FF
00
00
FF
01
00
FE
FE
00
FE
01
01
03
02
03
01
FF
01
02
FF
01
01
FE
01
02
FF
01
01
02
00
00
03
01
01
00
FF
01
01
01
00
02
00
01
00
01
FF
FF
02
01
01
01
FE
00
02
00
01
00
01
00
FD
FE
FE
00
00
00
02
FF
02
00
FF
00
02
FF
FE
00
00
01
01
FF
FF
01
00
00
00
02
FF
01
02
FF
FE
FE
FF
01
00
00
FF
FF
00
01
01
01
01
01
01
00
FF
01
00
00
00
FF
FF
00
00
FF
00
00
02
01
00
00
FF
03
00
00
00
01
00
00
02
00
00
FF
FF
01
01
01
FF
00
FF
00
FE
FF
FF
FF
00
01
02
00
00
01
00
00
FF
00
00
FF
00
FF
FF
00
FF
01
00
FF
00
01
00
00
FF
02
00
00
00
01
00
01
02
FF
00
01
01
FF
FE
02
01
03
01
02
01
00
FF
01
00
FE
FF
00
01
01
01
01
00
FE
00
00
00
FF
00
00
FF
FF
FF
00
00
FF
01
02
00
FE
00
FF
00
01
00
01
00
00
00
FF
01
00
00
01
FF
00
00
FE
01
00
FF
01
00
01
FF
FF
00
00
00
FF
01
00
FE
FE
FE
01
FF
00
FE
01
00
00
00
FE
FF
00
01
00
00
01
01
01
02
00
02
01
FF
01
01
FD
00
FE
00
01
00
01
01
00
01
00
00
01
01
01
01
00
01
00
FE
00
00
00
01
FE
00
00
00
02
FF
00
01
FF
00
FF
00
FF
FD
00
FF
FF
00
FF
00
00
01
00
FE
00
01
FE
FE
00
00
01
00
00
FF
FD
FF
00
FF
02
FF
00
00
01
00
FF
00
00
00
01
00
FE
00
FE
00
00
00
FF
01
00
00
01
FF
00
01
00
00
FF
02
02
00
01
01
01
FF
FE
FF
02
01
00
03
01
00
01
02
FE
FF
FE
00
FF
02
01
00
FF
FE
FF
00
FF
FF
FF
01
00
02
FF
FF
01
00
00
01
00
00
00
00
00
02
FF
00
00
01
00
FF
01
00
FF
00
01
FF
01
00
01
00
00
FF
FF
FF
01
00
02
FE
01
00
02
00
03
01
FF
00
FF
00
FF
FE
01
02
01
FF
01
01
FF
FF
FF
FE
FF
01
00
FF
01
FF
00
FF
00
00
02
00
FF
FF
FF
01
00
00
01
FF
00
00
FF
01
01
01
00
FF
FF
FF
00
FF
01
01
02
00
01
00
01
FF
00
FE
FF
FE
00
FE
00
FF
00
FE
FF
FF
01
FF
00
00
01
FF
01
00
01
00
00
01
01
FE
01
01
00
00
FE
01
00
FF
00
00
00
00
00
01
00
FF
00
00
FF
01
00
FF
02
01
01
FF
02
FF
00
00
00
FE
FF
01
01
00
00
01
FF
01
FD
FE
02
FE
02
00
FF
FF
FF
00
FF
01
FF
FF
00
FF
00
FF
00
00
FE
00
00
FE
00
FF
01
FF
01
01
00
00
01
FE
01
00
01
01
00
FF
00
00
00
00
FF
00
FF
00
01
FF
00
FF
00
FF
FF
FF
01
00
01
FF
FF
02
01
FF
FF
FE
FF
01
01
FF
01
00
00
FF
01
FF
FF
00
FF
00
FE
FE
FF
02
FF
01
FE
02
FF
00
01
FE
00
FF
01
FF
00
FE
FF
FF
00
FE
FF
02
01
FE
02
FF
01
FF
01
00
01
00
FE
FF
00
FF
FF
00
00
FF
01
FE
FF
FF
01
FE
03
01
00
00
00
00
01
00
01
00
00
FF
FF
FF
FE
00
FF
FF
FF
01
00
02
02
01
01
02
FF
FF
FF
00
01
00
00
01
FF
01
FF
01
FC
01
00
01
00
FF
00
01
00
01
01
01
01
FF
FF
00
FD
FF
FF
00
01
01
FF
00
00
00
FF
01
01
FF
FF
01
00
00
01
01
FF
00
00
00
00
00
00
00
FF
FF
00
FF
FF
FF
01
FF
01
FF
00
FF
00
FF
FF
FF
FF
01
00
01
FF
FF
FF
00
00
00
00
FF
00
00
FF
00
FF
FF
FF
00
00
00
00
FF
FF
00
01
FF
FF
01
00
FF
FF
00
FF
FF
00
00
00
FF
01
FF
00
00
FF
FF
00
00
00
00
FF
FF
00
00
00
00
00
FF
00
00
FF
00
00
FF
FF
FF
00
FF
FF
00
00
00
00
00
FF
01
00
00
00
00
00
01
FF
00
00
FF
FF
00
FF
00
FF
FF
01
01
FF
01
FF
00
00
FF
00
FF
00
FF
00
00
00
01
01
00
00
00
FF
FF
FF
00
FF
01
00
FF
FF
00
FF
00
FF
00
FF
00
00
FF
FF
FF
FF
00
FF
01
FF
FF
FF
00
01
00
FF
00
00
FF
00
00
00
00
00
FF
01
FF
00
FF
00
FF
00
FF
01
FF
00
00
FF
FF
00
00
00
FF
00
00
00
01
FF
00
FF
00
FF
FF
FF
00
00
FF
01
FF
FF
00
FF
00
01
00
00
FF
FF
FF
FF
00
01
FF
01
01
00
FF
00
FF
00
01
00
FF
00
00
00
00
00
FF
FF
FF
00
00
00
FF
00
00
00
FF
FF
00
00
00
01
01
00
01
00
FF
00
01
FF
00
00
00
00
00
00
00
00
00
01
FF
FF
01
00
00
00
01
00
01
00
00
FF
00
00
01
00
FF
00
00
00
FF
00
00
00
FF
00
00
00
00
00
FF
FF
FF
00
FF
01
FF
00
FF
00
00
FF
00
00
00
FF
FF
00
00
00
FF
FF
FF
01
FF
00
FF
FF
FF
00
01
00
FF
FF
00
00
01
00
00
00
00
00
FF
00
FF
00
FF
00
FF
FF
FF
00
FF
00
00
00
FF
FF
00
00
00
00
00
01
00
01
00
FF
00
FF
00
00
01
00
00
00
00
00
FF
FF
00
FF
00
00
FF
01
00
FF
00
01
01
FF
FF
FF
FF
00
00
00
00
FF
FF
00
00
FF
01
FF
00
00
FF
FF
00
00
00
00
00
FF
FF
FF
01
00
FF
00
01
FF
00
00
FF
01
00
01
00
00
00
FF
00
00
01
00
00
00
FF
FF
00
FF
00
00
00
FF
FF
00
FF
01
FF
FF
00
FF
01
00
01
FF
00
FF
00
FF
00
00
FF
00
01
FF
00
00
00
FF
00
00
FF
FF
00
FF
FF
FF
FF
00
FF
FF
FF
FF
00
01
00
FF
FF
00
00
00
01
01
00
00
00
00
FF
FF
FF
01
01
00
00
00
00
00
00
02
FF
01
02
FF
01
00
00
FF
02
02
FF
01
00
00
00
02
FE
00
00
01
00
FF
00
00
FF
01
FF
01
00
FE
01
01
FE
FF
00
FF
FE
FE
FF
00
01
00
FF
00
00
01
00
02
01
00
00
FF
00
FE
00
FF
00
00
01
FF
01
00
00
00
FF
01
01
FF
01
01
00
FF
01
01
FF
00
FF
00
01
02
FD
00
02
01
02
FF
FF
01
00
01
00
01
01
FF
FF
00
FF
FE
00
01
00
01
FE
00
00
00
00
00
FF
01
FF
01
00
FF
01
01
FF
00
FF
01
FF
01
00
FF
01
00
FF
00
01
01
04
FF
01
00
02
01
00
00
00
FD
02
01
00
00
01
FF
02
01
01
01
00
01
FE
00
00
FF
00
02
01
00
FF
FE
FF
FF
00
00
00
00
FF
FF
00
01
00
00
FF
FE
FF
FF
FF
00
FF
02
FF
FF
FF
FF
FF
01
00
FF
FE
01
FF
00
01
00
00
FF
00
01
FF
01
00
01
02
01
01
00
00
FE
00
FF
FF
FF
FF
01
00
FE
01
01
01
00
FF
00
FF
FD
00
FF
00
00
02
01
00
FE
01
FF
01
FF
00
00
00
00
01
FF
00
01
01
00
00
FF
FF
01
00
01
01
01
00
00
00
00
FF
02
00
FF
FE
FF
FE
02
00
FF
FF
00
01
00
00
00
00
01
FF
01
01
01
00
FF
01
FF
00
00
00
FF
FF
FF
01
FF
00
01
01
00
00
01
FF
00
FF
FD
FF
FF
FE
00
02
00
00
00
01
00
00
00
FC
FF
FF
FE
FE
FF
01
00
FE
FE
02
00
00
FF
03
FE
01
FF
00
00
FF
01
01
00
02
FE
02
FE
01
01
01
FE
00
FF
FE
01
02
00
01
FF
00
FE
00
01
00
FF
00
01
FF
01
00
FF
FF
00
00
00
00
FF
00
00
01
00
01
FF
00
01
00
01
00
FF
02
01
00
FF
00
02
FF
03
00
FD
02
FF
01
01
00
FF
01
01
FF
00
FF
02
FF
00
00
FE
01
02
00
FF
01
00
00
01
00
01
00
00
FF
FF
00
01
00
01
01
FE
FF
00
FF
01
00
02
01
FF
FF
FD
01
FF
01
01
00
02
FF
01
FF
01
01
01
00
00
00
FF
FF
01
FE
FF
01
00
FF
FD
FE
FF
00
01
00
00
FF
FF
01
01
FF
FF
00
FD
FF
FD
FF
FF
00
00
FF
FF
FE
FD
01
02
00
FF
00
FE
00
00
00
01
00
02
00
02
00
FE
00
00
FF
01
FF
00
00
00
00
02
FF
01
FF
00
02
00
00
02
00
00
01
FE
02
FE
01
00
FE
01
00
00
00
01
00
01
00
00
FF
00
02
01
00
01
01
00
00
FF
FF
00
01
00
FF
00
01
03
01
01
00
01
00
01
01
00
FF
00
01
00
01
01
00
01
00
01
01
FF
01
00
01
00
00
00
00
00
FF
01
01
01
01
FF
01
FF
00
FE
01
FE
01
00
00
01
00
FF
FF
FF
02
01
01
01
FE
00
FF
00
FE
00
00
00
00
FF
FF
00
02
00
01
01
FF
01
00
00
FE
FF
00
00
01
00
00
02
01
01
00
FF
00
FF
01
00
00
02
FF
FF
01
02
00
01
01
00
01
FF
FF
FF
00
FF
00
00
00
01
00
FF
00
FF
FF
FF
01
FF
01
01
00
FF
00
00
00
FF
01
00
FF
FF
FE
FF
00
01
00
00
01
00
FF
00
FF
FF
00
FE
FD
00
00
00
02
00
00
00
FE
00
FE
01
FF
00
02
02
00
01
00
03
00
00
00
00
FF
01
FF
02
FF
FF
00
FF
00
01
FF
01
FE
01
00
FF
FF
FF
01
00
FF
01
01
FF
FF
01
FF
00
FD
00
00
FF
00
00
01
00
00
01
00
00
01
01
02
02
00
00
FD
FC
FF
00
00
01
FE
FE
00
FF
FF
01
01
00
02
FF
FE
FF
FE
FF
01
FF
FE
01
FF
FE
00
FF
00
FE
01
FF
00
01
FF
00
FF
FF
01
FF
01
FF
02
00
FE
FF
FF
00
02
01
01
00
FF
00
00
FF
FF
00
01
00
01
02
00
FE
FF
FC
FC
01
00
01
00
FF
00
00
00
00
FF
00
FF
FF
FE
FF
FD
FF
01
01
FF
00
FF
FE
FF
FF
00
01
01
01
01
00
FF
00
FF
00
00
00
FF
FF
FF
FF
FF
00
00
00
01
00
00
03
00
00
FF
FF
FE
FF
01
00
00
02
FF
FF
01
FF
FE
FF
FF
00
00
02
01
FF
01
00
00
FF
FF
FF
00
FE
FF
00
01
00
FF
01
FF
00
00
01
00
00
00
01
FF
00
01
00
00
00
00
00
FF
FF
01
00
FF
00
01
FE
FF
00
01
00
FF
01
00
FF
00
01
02
FF
00
FF
FE
FF
01
00
00
FF
01
FE
00
02
FD
FF
FF
01
FF
00
FE
FF
01
00
01
FF
FE
FF
00
01
FF
00
FF
01
00
FF
00
01
00
01
00
00
00
01
01
00
FF
01
01
FE
00
FE
01
01
FF
00
FF
FF
01
FF
01
00
01
01
FF
00
00
01
01
01
02
01
01
01
02
00
01
00
FF
00
01
FF
01
FF
FF
01
00
FF
00
00
00
01
01
FF
00
01
00
00
01
01
FF
01
00
01
00
00
00
00
02
FE
00
00
01
00
00
00
00
02
00
02
01
FF
FF
FE
01
00
02
01
FF
00
FF
00
FE
03
01
01
01
02
01
00
01
FF
FF
01
00
01
00
00
00
00
01
01
01
00
00
FF
01
01
00
01
01
FE
02
01
01
01
00
00
FF
00
00
FF
01
02
00
01
01
00
FF
00
01
01
01
01
00
01
01
00
00
01
01
01
01
01
01
02
FE
00
01
01
00
00
00
FE
00
FF
00
02
FF
01
01
01
00
00
00
01
01
00
00
FF
00
FF
01
01
00
01
FF
00
00
01
00
00
00
00
01
FF
01
01
00
FF
00
00
00
02
FF
00
00
00
00
00
FF
00
00
00
FF
01
00
FF
02
01
01
FF
FE
FF
00
02
FE
01
00
FF
01
00
FE
FF
01
02
02
00
00
FF
FF
00
01
02
FE
00
01
01
FE
00
01
02
00
FE
FF
FF
01
01
FF
02
FF
02
01
FF
FD
00
FF
FE
01
FE
00
FE
01
FF
FF
00
FD
01
00
FF
FF
FF
00
00
FF
00
00
00
00
FF
FF
00
FF
01
00
00
FF
FE
00
00
00
FF
FE
FF
FF
00
00
FF
01
00
FF
FF
FF
00
FF
FF
00
FF
FF
00
00
FF
FE
00
00
FF
FF
FD
FE
FF
00
FF
00
FF
02
FF
00
00
FF
01
FE
00
00
01
FF
00
00
00
00
01
01
00
00
01
00
00
00
00
00
FF
01
FE
FF
00
FF
00
00
FF
01
01
00
00
01
FF
00
FF
00
00
FE
00
00
FF
01
FF
00
00
FF
01
00
00
FF
FF
02
FF
00
00
FF
00
01
FE
FE
00
FF
00
01
00
00
FF
00
FF
00
00
00
00
00
00
FF
01
FF
00
FF
00
01
00
00
00
FF
00
FF
FF
FF
00
FF
00
FF
01
00
FE
00
00
FF
FF
00
00
00
01
00
FF
00
00
FF
00
FF
FF
FF
00
01
FF
00
FF
00
00
01
01
00
FF
00
00
00
00
00
FF
00
00
00
00
00
00
FE
00
FF
00
01
01
00
00
FF
00
00
00
00
01
FF
01
00
00
01
FF
00
FF
FF
FF
FF
FF
FF
FF
FF
FF
FF
00
00
01
00
FF
FF
FF
01
00
00
00
FF
FE
00
FF
01
FF
00
01
00
01
00
FF
FF
FF
01
00
FF
02
FF
01
01
FF
00
00
FE
00
00
01
FF
00
00
FF
01
FF
FF
FE
FF
01
FF
FE
FF
00
FD
FE
00
00
00
FF
00
FF
FE
FF
00
00
00
01
00
00
FE
FF
01
FF
FE
00
FF
FF
FE
00
FE
00
00
00
00
00
01
01
00
00
FF
00
00
00
FF
FF
00
01
01
FF
FF
FF
FF
00
01
FF
FF
FF
00
01
FF
01
00
00
01
FF
00
FE
01
FF
00
FF
00
00
FE
FF
FF
00
FF
00
00
FF
00
00
FE
FF
02
FF
01
00
FF
FE
FE
FD
00
01
01
01
00
00
00
00
00
FF
01
00
00
00
00
01
00
FF
00
00
00
02
00
01
00
FF
01
00
00
FE
00
FF
FF
01
FF
FF
00
00
00
FF
00
00
00
FF
FF
FE
00
00
00
02
FF
01
FF
FF
00
FF
00
01
00
01
01
00
FD
FF
FE
01
00
02
FF
02
FF
FF
02
FF
FE
FF
00
FF
FE
00
00
00
01
00
00
00
FF
01
FF
00
00
FF
FF
FF
01
FE
FF
00
FF
FE
00
00
01
01
00
01
00
FF
FE
FF
FF
00
FF
FF
FF
01
00
00
01
01
00
01
FF
FE
FF
FF
FE
FF
00
00
01
00
FF
00
FF
01
00
00
01
00
01
01
02
01
02
FF
FD
FD
00
FE
03
01
FD
FD
00
00
FE
01
01
00
02
FF
FD
FE
FF
FE
02
01
FF
01
01
00
FF
02
01
01
01
00
FE
00
FE
FF
01
00
FF
01
01
FF
FF
01
00
FF
00
FE
00
00
00
00
00
01
FF
00
02
00
00
00
01
00
03
00
00
FE
FE
00
01
02
01
00
02
00
01
00
FF
FF
02
00
FD
FF
FE
00
01
00
00
FF
00
FF
00
FF
01
01
00
00
FF
00
FF
01
FF
00
01
FF
FF
01
00
02
00
FF
00
FF
02
FF
00
00
01
01
01
00
FF
FF
01
01
00
01
01
02
01
01
00
01
01
01
00
FF
FF
00
01
00
00
FF
01
02
00
00
00
01
FF
01
01
00
00
FE
FF
00
00
00
00
01
00
00
00
FF
00
00
00
00
01
00
FE
01
00
00
FF
00
FF
FF
00
00
FF
FF
01
FF
00
01
00
00
FE
FF
00
00
02
01
00
01
00
01
FF
00
00
01
00
00
00
FF
00
00
FF
01
01
01
FE
00
00
00
00
01
FF
01
02
00
FF
00
00
00
FE
00
00
FF
00
FE
FF
01
01
01
00
01
FE
FF
00
FF
FE
FF
00
00
01
00
FF
01
00
01
FF
00
FF
FF
00
FF
00
00
FF
00
FF
01
00
00
FF
FF
FF
FF
00
00
FF
00
FF
00
01
01
00
01
00
00
FF
00
00
FF
01
FF
00
00
FF
01
FF
FF
FF
00
FF
FF
00
00
FF
00
00
00
FF
00
FF
00
00
FF
00
00
01
00
00
FF
00
FF
00
FF
00
FF
01
00
00
FF
00
FF
00
FF
FF
FF
00
00
FF
FF
FF
00
FF
FF
01
00
00
FF
FF
00
FF
00
FF
FF
FF
00
FF
00
FF
01
FF
FF
00
00
FF
FF
00
01
00
FF
FF
FF
01
FF
FF
00
00
00
00
FF
FF
00
00
00
FF
01
00
00
FF
00
FF
00
FF
00
FF
00
01
00
00
00
01
00
00
00
FF
FF
00
FF
01
FF
00
FF
00
FF
00
01
01
01
FF
FF
FF
00
FF
FF
00
00
00
01
00
00
FF
01
01
00
FF
00
FF
00
FF
FF
00
01
00
FF
00
00
00
FF
FF
00
FF
00
FF
00
00
FF
FF
01
00
FF
00
00
00
FF
FF
FF
01
00
00
FF
FF
00
00
00
01
00
00
00
00
00
01
00
00
00
00
00
00
FF
FF
00
00
FF
00
00
FF
FF
00
FF
00
00
00
01
00
00
00
00
00
01
00
00
FF
00
FE
01
FE
00
00
00
00
01
01
FF
FE
02
FD
FF
00
00
FE
01
FF
00
00
00
FE
FF
01
01
FE
00
00
FF
FF
01
00
01
01
FF
FF
00
00
01
01
00
FE
00
00
FE
FD
01
00
FF
00
FE
FF
01
00
FF
01
00
FE
00
00
FE
FE
00
FE
00
01
FF
00
FF
00
01
00
01
00
FE
FF
FF
FF
01
00
FE
02
FF
FF
01
00
01
00
00
FF
00
00
00
00
00
FF
00
00
FE
FF
FF
00
01
01
00
01
FF
01
01
00
00
01
FF
01
FF
FF
FD
FF
00
01
FF
01
FF
01
FF
02
01
00
01
01
00
FF
FF
00
00
FF
FF
00
00
02
02
01
00
00
00
FF
FF
00
01
00
00
00
FF
00
FD
FF
01
01
01
00
FF
FE
01
00
01
FF
00
00
01
01
FF
00
00
00
01
00
00
FD
01
02
00
00
01
FF
00
01
00
FE
FD
00
FF
04
FF
01
01
00
01
FE
FF
00
00
FF
00
01
02
00
00
00
00
FF
FF
00
01
00
01
FF
00
FD
02
01
01
01
01
FE
01
FE
FF
01
00
FF
01
00
01
FE
FE
00
FF
FF
01
FF
00
FE
01
01
00
01
01
00
00
FF
00
00
FF
00
FF
01
00
FF
01
FE
FF
00
FF
00
00
FF
FF
FF
00
00
FE
02
00
00
FE
00
FF
00
00
00
00
00
00
FF
00
00
FF
00
FF
FE
FF
01
FF
FF
FE
01
00
FF
00
00
FF
FF
FF
FE
01
FF
00
FF
01
FF
FF
FE
FF
FE
01
FF
FF
00
00
00
00
00
00
00
FF
01
FE
01
01
01
00
00
FF
00
FF
01
FF
00
00
FF
FF
00
FF
00
FF
00
00
FF
00
00
01
FF
00
01
FF
FF
FF
FF
FE
01
FF
01
01
00
FF
FF
01
FE
00
00
01
00
00
02
00
00
FF
01
FF
00
FE
00
00
01
FF
FF
00
01
00
01
00
00
FE
00
FF
01
01
00
FF
FF
00
01
00
01
00
FF
01
00
00
FF
FF
FE
00
01
00
00
00
00
FF
FF
FF
01
00
00
FF
01
FF
FF
FE
00
00
00
01
FF
00
00
FF
02
01
FF
01
FF
FF
00
00
00
FE
FF
FF
00
FF
FF
00
FF
00
00
00
FF
01
01
01
FE
FF
FF
FF
00
00
01
00
FF
FF
00
FF
FF
00
FF
FF
01
FF
00
00
00
01
01
01
01
00
FF
FF
00
00
FF
FE
00
FF
00
00
00
00
00
00
01
01
FF
01
01
FE
01
01
01
FF
FE
FD
FF
FF
FF
00
00
00
FE
FD
00
03
00
FF
FF
FE
FE
01
FE
FF
FF
00
01
00
00
FF
FF
01
00
01
FE
02
02
02
FF
00
FE
FF
FF
01
01
00
00
00
00
00
FE
02
03
01
02
FE
FF
FD
FF
FF
FF
00
00
00
01
02
00
FE
00
FD
FE
FF
00
01
FF
01
01
FE
00
02
00
FF
01
00
FE
01
FF
00
00
00
00
FF
FF
FF
FF
FF
01
01
FF
FE
00
FF
00
00
00
FF
02
FF
FF
FF
00
01
02
01
FE
FE
00
FD
00
02
FF
00
02
01
FE
FF
01
00
02
01
00
FF
FE
FF
FF
FE
01
00
00
FE
01
00
02
01
00
FF
FF
00
00
01
FF
FE
01
FF
00
FF
FF
FF
FF
01
01
00
00
00
FF
01
01
00
01
FF
FE
01
02
00
00
FE
00
00
FF
FF
00
00
01
FF
00
FF
00
01
02
00
00
01
FF
00
00
00
FE
FF
FF
01
02
00
01
00
01
02
02
FF
00
FE
02
00
FE
FE
01
02
00
FF
00
00
01
01
00
FE
00
01
01
FF
01
FF
00
00
00
01
FF
00
00
FF
FF
FF
01
02
00
00
02
02
00
01
FE
01
FE
FF
FF
FE
FF
FF
00
01
01
01
00
00
00
FF
FF
00
FF
00
01
01
00
00
FF
FF
01
00
01
FF
00
00
00
FF
00
00
FF
FF
00
00
01
00
FF
01
01
FF
FF
00
01
01
00
00
FF
00
00
00
FF
FF
00
00
FF
FF
00
FF
00
FF
00
00
00
FF
00
FF
00
00
FF
00
00
00
00
FF
00
00
00
00
00
FF
FF
00
00
FF
00
00
00
00
00
01
FF
00
00
01
00
00
FF
FF
01
FF
00
00
00
FF
01
FF
00
01
00
01
00
00
00
FF
00
01
00
00
FF
00
FF
FF
01
FF
FF
00
FF
00
FF
00
FE
00
00
00
FF
00
00
00
FF
01
00
00
FF
FF
FF
00
FF
00
00
FF
FF
FF
FF
FF
00
00
FF
FF
00
01
00
00
FF
00
FF
FF
FF
FF
FF
FF
00
FF
FF
01
00
00
FF
00
FF
FF
01
00
FF
00
00
FF
FF
00
00
00
00
00
FF
FF
00
FF
00
00
00
FF
00
00
00
FF
FF
00
FF
FF
01
00
00
FF
FF
00
FF
00
01
01
FF
FF
FF
FF
00
00
00
00
00
FF
00
00
00
FF
00
00
00
FF
FF
00
01
00
FF
01
00
01
FF
00
00
FF
01
00
FF
01
01
00
01
01
00
00
01
01
FF
02
00
00
00
FF
FF
00
FF
00
FE
01
01
FC
03
01
01
01
00
FF
01
00
00
00
02
03
FD
00
01
FB
02
00
01
FF
00
FF
01
01
00
FF
02
00
00
FF
02
FF
02
00
00
FD
FF
FF
FF
01
02
01
02
01
01
01
01
00
FF
FF
01
00
FE
01
FE
00
00
00
01
FF
00
01
00
01
FF
FF
01
00
00
00
00
01
01
00
01
01
00
FF
01
00
FF
FF
01
00
00
00
00
00
02
FF
00
00
02
00
FF
00
00
01
01
00
00
FE
00
FE
00
FF
00
FF
01
00
FF
01
00
02
01
00
FF
00
01
01
01
FF
02
FE
02
01
01
FF
FF
FE
01
00
FF
01
01
00
00
00
FF
00
01
00
00
FF
00
00
00
FF
00
00
01
FF
01
FF
FF
01
00
FF
FE
00
00
FF
00
00
01
01
FF
FD
00
FE
01
00
00
FF
FD
01
01
00
FF
00
FF
FF
02
01
FF
00
00
01
00
00
00
FF
01
00
01
00
00
01
00
00
00
00
FF
01
02
FF
01
FF
00
FF
FF
01
00
01
00
FF
FF
FF
FF
FF
01
00
01
01
00
FF
00
00
00
01
01
FF
01
00
FF
FF
01
01
00
01
FF
01
FF
FF
01
01
FF
01
00
01
00
00
00
FF
FF
04
FF
00
01
FF
01
00
00
00
02
01
00
00
03
FF
00
04
FE
00
FF
01
01
01
00
FF
00
00
FF
00
02
01
00
01
FF
00
FF
01
01
02
00
FE
FF
FF
FD
01
00
01
FF
02
FF
00
FF
00
00
FF
FF
00
FE
00
00
00
00
FF
01
FF
01
01
00
02
02
FF
01
00
FF
FF
01
FF
00
FF
01
FF
00
00
00
02
01
00
01
00
FE
FF
FF
FF
FF
00
01
00
00
FF
FF
01
02
01
00
01
FF
FE
FF
00
00
00
02
00
00
FE
00
00
00
00
01
FF
FE
00
00
02
FE
01
00
FE
03
01
00
FF
00
00
01
01
01
01
02
01
00
00
00
FF
01
01
01
01
FF
01
00
01
01
00
00
00
01
00
00
FF
01
00
FF
01
00
00
00
02
00
FF
FF
00
00
FF
00
00
00
01
00
02
00
02
00
01
01
00
FE
00
FF
FF
00
00
FF
00
00
00
FF
FF
00
FF
00
01
FF
01
00
00
FF
00
01
01
01
01
00
FF
FE
01
00
00
00
01
FF
01
FF
FE
01
01
01
00
00
FF
FE
02
00
01
01
FF
FF
FF
FF
FF
01
00
01
01
00
00
00
02
02
FF
00
01
00
01
FF
00
FF
00
00
FF
FE
FF
01
FF
00
00
01
00
FF
01
00
FE
00
00
01
FF
00
FF
FF
02
01
01
02
00
FF
FF
01
FF
00
00
01
01
FE
00
00
02
FF
01
02
00
00
FF
02
00
00
00
00
00
01
01
FE
01
01
00
00
00
FF
01
FF
FE
00
01
00
01
02
00
00
00
00
FE
FF
01
01
FE
01
01
00
00
FF
FF
00
01
01
00
FF
01
00
00
00
FF
00
00
00
FF
00
01
01
00
00
01
FF
01
02
00
FF
FF
00
01
FF
FF
00
FF
02
00
FE
00
FF
01
FD
FE
FF
FF
01
FE
01
02
FF
00
01
00
00
FF
00
00
FE
00
01
00
FF
01
01
02
00
00
00
00
01
FE
00
00
00
00
00
01
00
FF
01
00
01
00
00
00
00
FF
FF
01
00
FF
02
01
00
FE
00
01
00
00
02
02
01
FE
FF
00
00
00
FE
FF
FE
00
00
00
FE
FF
00
02
01
00
FE
FF
FE
FF
02
02
FF
FF
00
01
FE
01
01
01
00
01
FF
FE
FF
FF
00
01
FE
01
00
00
FF
00
01
FD
00
FF
00
01
01
00
00
00
FC
00
FF
FF
00
00
01
01
FF
FF
FE
FE
FE
01
FE
FF
01
FF
FE
FF
00
00
00
00
01
00
FE
FE
FF
00
00
FE
01
FF
FF
FF
00
00
FF
00
00
01
00
FF
FF
00
00
00
02
00
FF
01
01
FF
00
FF
01
FF
FF
00
01
00
FE
01
02
FF
00
FF
01
00
FE
00
FF
FF
00
00
FE
01
FF
01
00
FF
02
FF
01
01
01
FF
00
00
FE
FF
FF
01
FF
00
00
FF
01
02
FF
FE
00
FE
FF
02
01
01
00
01
FF
00
00
FF
01
01
00
00
FE
00
00
04
00
02
00
01
00
FF
FE
FE
02
00
02
00
FF
00
FE
FF
01
02
01
00
FE
00
FF
FF
FF
00
01
FF
00
FE
FE
FF
02
00
00
02
FE
00
00
00
FF
FF
00
FE
FE
FF
00
00
01
FF
01
00
00
FF
FF
02
FD
FE
00
00
00
FD
FE
FF
FF
01
00
FF
FF
FE
00
00
FE
FF
00
FF
FE
FE
FD
00
01
00
01
01
FF
FE
01
01
00
00
FF
00
01
FE
00
FF
03
FF
01
01
03
01
FF
00
00
00
FF
FF
FE
00
00
FE
02
FF
01
01
02
00
00
01
FF
00
00
FF
FE
FF
FF
FF
00
FD
01
FE
01
FF
FF
00
FD
00
02
FF
FF
00
01
FF
01
00
FE
01
01
FF
00
03
FE
FF
FF
00
00
01
00
00
00
00
FF
00
00
01
00
02
FF
01
FF
FF
FF
00
FF
02
00
01
FF
01
FF
FF
FF
01
00
FF
02
01
00
FD
FF
01
FE
02
FF
FF
FF
00
01
00
00
00
01
01
FE
00
01
01
FF
FF
00
01
01
00
02
00
00
01
01
02
01
01
FF
02
01
00
00
FF
FF
01
01
FF
01
00
FF
02
FF
02
FE
01
00
01
00
01
FE
01
00
00
FE
01
00
00
00
FE
00
02
01
02
00
FF
00
00
FE
01
FE
FE
00
FF
00
FF
00
00
FF
01
00
00
01
FE
00
02
00
01
00
FF
FF
FF
FF
01
00
02
01
00
01
00
01
FF
FF
FF
00
01
FE
02
01
02
01
00
01
FF
01
01
00
01
FE
00
FF
00
02
00
01
00
01
00
FF
01
FF
01
01
01
01
00
FF
FE
02
00
01
00
FF
FF
03
00
01
00
02
FE
01
FF
00
FE
FF
FE
01
00
00
00
01
01
00
FF
00
01
01
01
00
00
00
02
01
00
01
00
01
00
01
00
01
00
00
01
00
FF
00
FF
00
00
00
00
01
FF
00
00
FF
00
FF
FF
FF
00
01
00
01
01
FF
FF
01
FF
01
FF
00
01
00
00
00
01
00
00
FF
FF
00
FF
FF
FF
00
00
00
00
FF
01
00
FF
00
00
00
FF
FF
00
FF
FF
FF
00
FF
00
00
00
00
00
00
FF
FF
FF
00
00
00
00
FF
FF
00
FF
00
00
FF
FF
01
FF
00
FF
00
00
00
01
00
01
00
00
00
FF
00
00
FF
00
00
FF
00
FF
00
00
01
01
00
FF
00
00
FF
00
01
00
01
00
00
01
FF
00
FF
00
01
FF
01
FF
FF
00
00
00
00
FF
FF
00
FF
00
00
00
FF
00
00
FF
00
00
FF
00
FF
FF
FF
00
00
00
FF
00
00
FF
00
00
00
FF
00
FF
01
FF
00
00
FF
00
00
FF
FF
FF
FF
00
01
FF
00
00
00
00
00
FF
00
00
00
FF
FF
00
00
00
01
01
00
00
00
00
00
00
00
00
FF
01
FF
FF
FF
FF
FF
01
00
00
00
00
FF
00
FF
00
00
00
00
01
FF
01
00
00
00
00
FF
00
FF
FF
FF
00
00
00
FF
00
FF
01
01
01
FF
FF
00
FF
00
01
00
00
00
00
00
FF
00
00
FF
FF
00
00
00
00
FF
FF
00
FF
01
00
FF
FF
01
00
FF
00
FF
01
FF
02
00
00
00
01
FF
01
01
02
02
FF
01
00
00
FF
FF
01
FF
FF
02
01
00
00
00
00
00
01
FF
00
00
FF
00
02
FF
FF
FF
00
FF
FE
01
01
01
01
FF
FE
01
00
FE
02
FC
02
01
FE
FE
FD
01
00
00
02
00
01
FF
00
FE
01
00
00
00
00
FF
FE
00
01
00
01
01
00
FF
00
FF
FF
00
00
00
00
FF
01
FF
FF
00
01
FF
FF
00
00
00
00
00
00
FF
00
FF
00
01
00
00
00
FF
FD
FD
FF
00
00
00
01
01
FF
FF
FF
01
00
00
FF
00
FF
FE
FF
FE
01
00
01
00
FF
00
FE
01
01
00
00
00
02
00
01
FE
00
01
01
01
00
00
FF
01
FE
00
01
02
FF
FF
01
FF
00
00
00
00
FF
01
00
01
FF
FF
00
00
00
00
02
00
FF
00
00
01
02
02
00
00
01
FF
01
01
FD
02
FF
FF
01
00
02
02
FF
01
00
01
FE
02
00
00
FF
01
00
01
00
FF
00
01
01
00
FF
00
FF
01
00
00
FE
01
FF
02
01
FF
01
01
01
02
00
01
FD
01
02
00
00
01
01
02
00
FF
00
00
01
01
00
01
FF
01
01
00
01
FF
FF
01
FE
FF
00
FF
00
FF
00
00
FF
01
00
01
01
FE
00
00
FF
00
00
01
00
FF
00
01
FD
00
01
01
FF
FF
00
FF
FF
FF
FF
01
01
FF
FF
01
FD
00
01
01
FE
01
FE
00
02
FF
02
03
FF
00
FF
01
FE
01
FF
02
00
01
00
FF
00
02
02
FE
00
FF
00
00
01
FF
00
01
00
FF
00
FF
00
00
FF
00
01
FE
00
00
01
00
01
FF
FE
00
FE
00
00
01
00
01
FF
01
00
01
00
01
01
FF
FE
00
FE
01
00
01
01
01
01
00
FF
FF
FF
01
02
00
FF
FF
FF
FF
00
00
00
00
FD
01
FF
01
00
00
FE
01
00
FF
01
01
00
00
01
00
00
FF
00
01
FE
00
00
02
FF
01
00
FF
FF
00
FF
01
01
FF
00
01
01
01
FF
02
FF
FF
FF
00
FC
01
00
00
01
01
00
FE
00
00
00
00
00
FF
00
00
00
FF
FF
01
01
00
00
FF
FE
01
FF
01
00
00
00
01
01
FF
00
FF
00
01
FF
01
FE
01
00
FF
00
00
02
02
00
FF
01
00
01
00
00
FF
00
01
00
FE
00
02
03
00
FE
FF
FE
FF
00
00
01
FD
00
FF
00
01
00
FF
01
FF
00
00
00
00
00
01
FF
00
FF
01
01
00
FF
00
00
00
00
FF
00
01
FF
00
FF
FF
01
FF
00
FF
00
00
FF
FF
00
00
00
00
01
FF
01
FF
FF
00
00
01
00
01
01
01
FF
FF
00
01
01
01
01
00
FF
00
01
00
FF
00
FF
01
00
FF
FF
FF
00
00
00
00
FF
01
FF
00
00
01
FF
00
00
00
00
FF
00
FF
FF
00
00
FF
00
01
00
FF
01
FF
FF
FF
FF
00
FF
00
00
FF
00
00
00
00
01
FF
00
FF
00
00
FF
FF
00
00
00
FF
FF
FF
00
00
00
FF
FF
00
FF
00
FF
00
FF
01
01
00
01
FF
FF
00
00
FF
FF
01
00
00
00
FF
FF
00
00
00
00
00
FF
FF
FF
FF
FF
00
00
01
00
00
FF
01
00
FF
01
FF
FF
FF
FF
FF
FF
00
FF
00
00
FF
00
01
00
FF
00
01
01
FF
FF
00
FF
FF
FF
FF
00
FF
00
FF
00
00
FF
FF
00
FF
00
FF
FF
00
00
01
FF
00
01
01
01
FF
00
00
01
00
FF
00
00
FF
00
00
FF
FF
FF
FF
00
00
FF
FF
00
00
00
FF
FF
00
FF
FF
FF
00
01
00
00
00
00
01
FF
FF
00
01
00
FF
FF
FE
00
00
FF
00
00
01
00
01
01
FF
01
00
00
00
00
01
FF
00
01
FF
00
00
00
01
FF
01
FF
00
00
01
01
00
FF
01
01
00
01
00
01
00
01
00
00
00
01
FE
00
02
FF
FF
02
FF
01
01
01
FD
FE
00
FF
00
00
FF
FE
FE
01
01
FE
FE
00
FF
FF
01
01
FE
FE
00
00
FE
FF
01
00
02
FF
00
01
FF
FF
FF
FF
00
01
02
FF
00
00
00
FF
00
01
01
00
FE
FF
01
00
00
01
01
01
01
01
FF
FF
01
00
00
01
01
00
01
00
FE
01
FF
01
01
FF
FE
FF
FF
00
FE
00
00
FF
02
00
00
00
00
01
01
00
00
FF
FF
00
FF
02
FF
00
00
01
FF
00
01
FF
00
FE
00
FF
00
FF
02
00
FF
FF
00
01
01
00
00
00
00
01
FF
FF
01
FE
FF
FF
00
00
01
01
00
02
FF
00
FF
FF
00
FF
FE
FF
00
00
FF
01
FF
FF
00
01
FE
FF
FE
FF
01
01
FF
01
FE
FE
00
00
FF
FF
00
FF
FE
FD
00
00
00
00
01
01
FF
FF
01
00
00
01
02
00
00
00
00
01
00
00
00
01
01
FF
02
FF
01
01
01
00
01
01
01
FE
00
FE
FE
01
01
00
FE
00
00
01
FF
01
01
00
00
00
FF
FE
FF
01
00
02
FF
01
FF
00
00
00
01
FF
01
FF
00
FF
00
00
FF
FF
FF
00
00
01
00
FF
00
FF
00
00
FF
01
01
FF
00
00
FF
01
00
FF
01
01
FF
00
FF
00
01
00
FF
01
00
01
FE
FF
FE
FE
00
02
FF
01
00
00
01
00
FF
FF
00
FF
01
01
FE
00
01
00
FF
00
00
00
01
FF
01
FF
01
00
01
01
FF
02
FF
00
FF
FE
01
FF
00
00
00
00
01
FF
FE
01
00
00
FF
01
FF
01
FF
01
01
00
01
00
01
FF
02
02
FD
00
01
FE
FE
00
FF
01
FF
02
01
01
FF
FE
00
FF
FD
00
FF
01
00
01
00
00
01
FF
00
00
FE
02
01
FF
00
00
FF
02
00
00
FE
FD
00
FD
01
01
02
00
01
00
00
01
02
FF
FF
FF
01
01
01
FF
00
FF
00
00
01
FF
00
00
FF
FF
01
00
01
01
FF
01
01
FF
00
01
00
FF
00
FF
00
02
02
03
01
01
FF
01
FF
FF
FF
02
FF
01
FF
FF
FF
01
FF
01
FF
00
02
FF
01
00
FF
01
01
01
FE
FF
02
FE
FD
FF
FF
01
01
01
FE
02
FE
FF
01
03
00
FF
00
01
FF
00
00
01
01
00
FE
02
01
00
00
02
00
01
FF
00
01
00
FF
00
00
02
00
00
01
00
00
00
00
00
00
01
00
01
00
01
FF
00
00
00
FF
01
00
01
FF
FF
00
FF
FE
FE
FD
02
FF
02
FF
FF
FF
FD
00
00
02
01
00
01
00
00
FD
00
00
01
FF
FF
00
00
00
00
01
02
FF
FF
FF
01
FF
00
00
00
01
01
FE
00
01
02
01
FF
00
00
FF
00
00
01
01
01
00
00
FF
00
00
FF
FF
00
00
FF
FE
FD
FE
00
FE
01
00
FF
00
FE
01
02
FF
FF
01
00
FF
FF
FB
00
00
00
02
FE
FE
FF
00
01
00
FF
01
00
00
01
FF
00
01
FF
02
FF
00
02
00
01
FE
00
00
00
01
00
01
01
01
01
00
01
00
01
FF
01
FF
FF
01
FE
FF
FE
00
FF
01
FF
01
FF
02
00
02
FE
00
FF
00
FE
FF
FF
01
00
00
00
01
00
01
FF
01
FE
01
00
01
00
01
02
01
00
00
00
02
01
01
00
00
01
01
00
FF
00
01
00
00
00
00
FE
00
01
01
01
00
00
FF
01
00
01
00
00
FF
00
FF
01
FF
00
FF
FF
00
01
00
01
FF
01
00
00
00
FF
01
02
00
01
FF
FE
FE
01
01
02
00
00
01
01
01
01
02
01
FF
01
00
01
FF
FF
02
02
FF
FF
01
00
FF
00
00
01
00
01
00
01
00
00
FE
00
00
FF
FF
FF
01
FF
FD
01
01
FC
FE
FE
01
00
02
FE
FF
FF
01
00
FF
FE
FF
00
03
00
00
FF
00
FE
00
FF
00
01
02
FF
00
FF
FF
01
01
00
00
00
00
00
01
FF
FF
01
02
01
00
00
FF
FF
00
00
FF
FF
FF
00
02
FF
FF
FF
00
00
01
00
FE
FF
01
01
FE
01
00
FF
01
01
FF
00
00
02
00
01
00
00
02
00
00
00
00
FF
01
02
02
00
00
00
00
FF
02
00
02
00
01
00
00
00
00
01
01
FE
00
00
FF
01
01
00
FF
00
01
FF
00
01
01
00
FF
01
00
01
FF
00
01
00
FF
FF
00
00
FF
00
00
00
00
01
00
01
FF
FF
00
01
FE
00
00
FF
01
00
00
01
00
FE
FF
00
01
FF
02
00
01
01
01
00
FF
00
00
01
00
00
FE
02
FF
02
01
01
01
01
01
FF
01
01
00
00
02
00
03
01
01
FE
FE
FC
00
FF
FF
FF
FE
FE
FF
FE
FF
01
01
01
01
FF
00
FF
01
FE
02
01
FF
01
FF
00
00
FF
02
FF
01
FE
FF
00
01
FF
01
01
00
01
01
FF
00
01
FE
01
01
FE
00
00
00
02
00
FF
01
01
00
00
01
01
00
02
01
FE
FE
FE
FF
01
00
02
00
FE
00
FF
FF
00
00
01
FF
FE
FD
00
FF
01
00
01
FF
01
01
FF
01
FF
00
00
00
01
01
00
00
01
FF
FE
00
FF
01
FF
02
00
FF
01
FF
00
01
01
01
00
00
00
01
FF
FE
00
02
02
FF
01
00
FC
00
FE
FE
01
00
02
00
03
00
FF
00
00
FF
FE
00
FF
FF
FD
FF
00
00
00
00
01
FE
FF
00
FF
FF
FE
01
00
00
FF
00
00
01
FE
01
00
FE
FF
01
FF
00
00
00
01
00
FF
00
01
FF
00
01
FF
00
01
01
00
FD
00
FE
00
00
00
FE
00
02
02
00
01
FE
00
FF
01
FF
FF
02
00
00
FF
01
00
FF
01
01
00
01
00
01
00
01
FD
01
00
00
01
00
FF
02
FD
00
FF
FF
00
01
00
00
FE
01
02
FE
00
00
00
01
00
01
00
01
01
00
FF
FF
00
FF
FF
00
00
00
01
00
00
FF
01
00
FF
FF
FF
00
00
00
00
FF
FF
00
00
FF
FF
00
00
FF
FF
00
FF
00
00
FF
01
FF
00
00
00
00
FF
FF
00
00
00
00
FF
00
01
FF
00
00
01
01
00
00
00
00
00
FF
01
00
FF
FF
00
00
00
FF
00
FF
00
FF
00
FF
01
00
00
00
FF
00
FF
01
00
01
00
00
00
FF
00
FF
00
00
00
FF
00
FF
00
00
FF
00
FF
FF
01
01
00
01
00
00
01
00
FF
00
00
00
FF
00
FF
FF
00
00
00
FF
00
FF
00
FF
00
FF
FF
00
01
FF
00
00
00
00
00
00
00
FF
00
00
FF
01
00
FF
FF
00
00
FF
00
01
FF
00
FF
00
FF
00
FF
00
01
FF
00
FF
FF
00
00
00
00
00
FF
FF
FF
00
00
01
FF
00
01
00
FF
00
00
FF
FF
FF
FF
01
00
FF
00
00
01
00
00
FF
00
FF
FF
00
01
FF
00
00
FF
00
FF
FF
00
00
00
FF
00
FF
FF
00
00
00
00
00
FF
FF
FF
FF
00
00
00
FF
00
00
FF
FF
FF
00
01
00
00
01
FF
FF
01
00
00
00
00
00
FF
FF
00
00
FF
00
FF
00
00
02
FF
00
00
00
02
01
00
00
FF
01
01
FF
02
FF
00
FF
FE
00
00
01
00
FF
00
01
00
00
01
01
01
01
FE
FE
00
00
01
02
01
00
01
00
00
00
FF
FF
FE
FF
FF
FF
01
00
FF
01
00
00
01
01
01
01
01
FE
FE
FF
FF
01
00
00
02
FF
00
01
FF
00
FF
01
01
00
02
00
FF
FF
00
FF
00
00
01
01
00
00
00
01
00
00
01
00
00
FF
FF
01
00
FF
01
01
01
01
01
00
00
00
FE
01
02
01
00
00
01
FF
FF
FF
00
01
00
01
FF
00
FE
FF
00
02
FE
01
FF
FE
00
00
01
FF
02
01
FD
02
00
FE
FE
00
00
01
FF
00
FF
01
01
00
FF
FF
00
00
01
01
02
00
01
00
01
00
01
02
00
00
FF
00
FE
01
00
00
01
00
00
02
03
00
00
01
FE
00
00
01
FE
FF
00
01
02
FF
00
00
FF
FF
00
FF
FF
FD
FF
00
FF
01
01
00
00
FF
01
00
FF
FF
FF
FF
00
FF
00
00
FF
02
01
00
01
FF
02
FE
00
00
FF
FF
01
FF
00
00
FF
00
00
00
00
FF
00
FE
00
01
00
01
02
FE
FE
00
01
00
01
00
01
01
FF
01
FF
FF
FF
FF
00
00
00
00
FF
01
01
01
01
00
FE
00
00
01
00
00
FF
FF
00
01
00
01
FF
00
FF
00
FF
00
00
FF
FF
00
02
00
FF
01
01
01
FF
FF
FD
FE
00
FE
00
00
00
00
02
00
FF
00
01
FD
FF
00
00
00
00
FF
00
01
01
01
00
00
00
01
FF
FF
00
02
01
FF
00
FF
01
01
01
00
FF
01
00
FF
00
FE
FE
00
FF
01
00
01
00
00
00
00
01
00
FE
FF
00
01
FF
FF
FF
00
01
FF
FF
FF
00
02
00
00
00
00
00
00
00
FF
01
00
00
02
FF
00
FF
01
02
FE
01
00
FF
01
FE
00
00
01
01
02
01
00
00
01
00
02
02
00
FF
01
02
00
00
01
FF
01
FF
00
01
00
01
00
00
00
FF
00
00
FF
FE
FF
FE
00
00
FF
01
00
FF
FF
FF
02
00
01
00
00
01
FF
00
00
01
00
00
FE
00
FF
01
FF
00
01
00
01
02
FF
FF
FE
01
01
FF
00
00
00
00
00
01
01
01
00
FF
FF
FE
FF
00
01
01
00
FF
00
FE
01
01
FF
00
02
FE
FF
FF
00
02
00
01
02
00
00
FD
03
00
FF
01
00
01
FD
00
02
FF
02
00
00
02
FF
01
00
00
02
01
02
00
FF
00
00
00
FE
00
00
FF
FF
FF
00
FE
FF
00
01
00
FF
FF
FE
00
FF
00
00
FF
00
01
01
FE
FF
FF
00
00
FF
FE
01
01
FF
01
00
FF
00
FF
01
FE
02
01
01
FF
FE
00
01
00
02
01
01
00
00
01
00
01
FD
01
01
00
FF
02
01
00
02
FF
FF
00
FF
02
00
00
FF
02
01
00
01
FE
FF
00
00
00
FF
00
00
01
FF
00
00
01
00
FE
FF
00
FE
00
00
01
00
FF
FD
FD
00
01
01
01
01
00
01
FF
01
00
02
01
02
00
02
00
00
FE
01
00
01
00
01
00
FF
01
00
00
00
01
00
00
01
FF
01
00
FF
FF
FF
FF
FF
00
01
01
FF
01
FF
FF
00
00
00
FE
01
00
00
01
FF
00
02
01
02
FF
00
00
FF
01
FF
FF
FF
00
01
FF
FF
00
00
00
FF
00
FF
00
FF
01
00
FF
02
00
FF
FF
FE
FF
FF
00
00
01
00
FE
00
01
00
00
FF
FF
FF
00
01
00
FF
FF
00
02
00
00
00
FF
01
FF
FF
01
01
04
02
FD
FF
00
FF
02
01
01
00
FF
00
00
00
FF
FF
00
00
FF
01
00
FF
FF
00
01
00
00
FF
00
01
02
00
00
00
00
01
00
FE
02
01
01
00
01
01
01
FF
00
01
01
01
01
00
01
FF
01
00
01
FF
01
00
01
FE
02
00
01
FE
FF
FF
FF
FD
01
00
01
FF
01
FE
FF
FF
00
01
00
FF
01
FF
00
FF
00
00
00
FF
00
00
01
00
00
01
00
01
02
FF
01
00
01
00
00
FF
00
00
01
FF
00
00
01
00
FE
FF
FE
FD
01
FF
01
FE
01
FE
00
FE
FF
01
00
00
FE
FE
FF
FB
FD
00
00
FC
01
FF
00
FE
00
02
01
01
01
FF
00
FF
01
FF
FF
01
02
00
01
FF
01
00
00
00
FF
FF
01
FF
FF
00
00
02
00
FF
01
00
00
01
FF
00
FF
FF
01
FE
FF
00
02
01
02
FD
FF
FD
00
FF
01
00
01
00
FF
FF
FE
FF
FF
01
00
01
FD
01
00
01
00
01
01
00
02
00
01
FE
FF
00
FE
00
00
00
01
FF
02
00
01
00
00
01
FE
01
01
00
00
02
01
00
02
FD
04
01
02
02
01
00
FD
00
01
01
02
FF
00
FF
01
FD
FF
FF
02
01
01
02
FE
00
00
01
00
01
FE
02
00
00
FF
FF
01
00
01
00
01
FE
00
01
03
00
00
01
01
00
00
00
00
02
01
00
01
01
FF
01
FF
00
00
FF
FE
00
01
FF
FF
00
00
FF
00
FF
FF
00
01
00
FF
00
00
FF
00
FF
FE
00
01
00
01
FF
00
00
00
FE
00
FF
01
FE
FE
FF
01
FE
00
FF
FF
FF
FD
00
00
01
01
FE
00
00
FF
FD
01
00
00
FE
01
01
00
00
FF
01
FF
FF
00
FF
01
01
01
00
00
01
00
01
00
FF
01
FF
00
FF
00
02
FF
FF
FF
00
FF
00
00
00
01
FE
FF
FF
01
FF
FF
FF
FF
FF
01
FE
00
FF
FF
FF
FE
01
00
00
FF
00
00
00
00
00
00
00
01
01
FE
00
FF
01
FF
01
01
01
00
01
FF
00
FE
00
00
01
FF
00
FF
01
00
01
01
FF
FF
01
00
FF
FF
FF
FF
01
01
01
00
02
00
FF
FE
00
FF
02
FE
00
01
FF
00
00
00
00
FF
01
00
FF
FF
00
00
00
00
02
00
FF
01
FF
FF
01
FD
00
FE
FF
01
00
00
FF
FE
03
00
02
01
01
FF
02
00
FF
FF
01
FF
01
FF
00
01
01
01
01
00
01
01
01
00
01
FF
00
00
01
FF
FF
FF
00
01
00
00
00
FF
00
FF
00
01
FF
FF
FF
00
00
00
FF
FF
00
FF
00
FF
00
00
01
FF
00
FF
FF
00
01
00
FF
FF
00
00
00
FF
00
FF
01
FF
FF
00
00
FF
FF
01
00
FF
FF
FF
FE
FF
00
00
00
FF
FF
00
00
FF
FF
FF
00
00
00
01
01
00
FF
FF
FF
FF
00
FF
00
00
00
01
FF
00
01
00
FF
00
FF
FF
01
01
00
01
FF
00
00
FF
00
FF
FF
00
FF
00
FF
FF
FF
00
FF
00
00
01
00
00
FF
00
01
00
00
FF
FF
FF
FF
00
00
FF
00
FF
FF
01
00
01
01
FF
FF
00
FF
00
01
FF
00
FF
01
01
FF
00
FF
00
00
FF
FF
00
01
00
FF
FF
01
00
00
00
01
00
FF
01
FF
00
00
01
FF
FE
FF
FF
00
FF
00
00
FF
00
00
01
00
00
FF
FF
00
00
01
00
00
FF
00
00
00
00
FF
01
01
FF
01
00
00
FF
FF
FF
FF
00
FF
00
00
00
01
00
01
FF
00
FF
FF
01
00
00
FF
01
FF
FF
FF
00
FE
00
00
FF
00
FF
FE
00
01
00
00
FF
00
00
00
FF
01
00
00
00
00
00
FF
00
FF
00
00
00
00
01
01
00
00
FF
01
FF
FF
00
00
FF
FF
00
00
00
01
01
FF
00
00
FF
FF
FF
FE
00
01
01
00
00
01
00
00
FF
01
00
00
00
00
01
FF
FF
FF
FF
00
FF
00
FF
00
FF
01
00
00
FF
00
00
FF
FF
FF
FF
FF
FF
FF
00
00
00
01
01
00
00
FF
FF
FF
FF
01
00
01
01
00
00
01
00
FF
FF
00
00
00
FF
00
00
FF
00
FF
00
FF
00
FF
00
FF
FF
00
00
00
01
00
00
FE
FF
00
00
01
FF
00
FF
FF
01
00
01
01
00
01
00
00
FF
FF
FF
00
00
02
01
FF
00
FF
FF
00
00
02
00
FF
00
01
FF
FF
FF
01
FF
01
00
01
00
00
00
FF
00
FF
FF
00
01
00
00
00
FF
00
FF
FF
00
FF
00
FF
01
00
FF
00
00
01
FF
00
00
01
FE
00
01
FF
00
00
00
01
01
FF
00
01
00
00
01
FF
00
01
00
01
00
FF
01
00
00
FF
FF
FF
00
00
FF
FF
01
FF
FF
01
FF
FF
00
FF
00
FE
FF
FF
FE
00
FF
00
FF
00
00
FF
01
00
FF
FF
01
FF
FF
FF
00
01
FF
FF
00
01
00
FF
01
00
00
FF
01
01
00
FF
FF
00
FE
FF
00
FE
01
00
00
02
00
01
FF
01
01
01
01
00
FF
FF
00
FF
FF
01
00
FF
01
01
01
00
01
FF
02
FF
FF
FF
01
FF
00
01
00
00
00
00
00
00
FF
00
FE
00
01
FF
00
FF
FF
01
FE
00
02
02
02
00
00
FF
00
00
FF
00
00
00
01
FE
01
FF
00
01
00
00
01
01
02
00
00
02
00
00
FF
FF
00
01
FF
FF
00
00
01
00
01
FF
01
FF
FF
FD
00
00
01
00
00
00
00
01
01
01
00
00
02
00
01
00
01
01
01
FE
FF
00
01
01
00
FF
FE
FF
FF
00
FF
FF
02
FF
00
00
FF
01
FE
FF
01
02
02
00
FF
00
FE
FF
01
00
00
02
00
00
FF
FF
00
FF
FF
00
00
FF
01
00
00
00
01
02
00
FF
FF
01
00
00
00
FF
02
01
02
03
01
01
00
00
00
FF
02
01
FF
00
00
02
01
01
FF
00
FF
FF
FF
01
FF
00
01
FF
01
FF
01
00
00
FE
FF
02
00
FF
01
01
01
01
00
00
00
FF
00
FF
01
01
02
00
01
00
00
00
01
FF
02
FF
FF
01
00
01
01
00
01
00
00
00
FF
00
FF
FE
00
00
01
01
00
FE
02
01
01
02
00
01
00
00
01
FF
01
01
00
00
01
00
00
FF
FE
01
03
01
01
00
FF
FE
00
00
01
00
01
01
FD
00
FD
FD
02
01
00
01
FF
FD
FD
02
00
FF
FF
01
FE
FE
FD
FE
00
00
01
00
FF
00
FF
00
FF
01
FF
01
00
FF
01
FE
01
01
00
02
FF
FE
00
01
00
FF
00
00
FF
00
FE
FE
01
00
00
02
00
01
00
01
04
FE
01
FF
FE
FF
00
FC
FE
01
01
00
01
00
00
FF
03
FF
FE
01
00
FD
00
FD
FE
01
01
01
00
01
01
FF
01
FF
FF
00
01
02
00
00
00
00
01
00
FF
00
01
00
01
00
FF
FF
01
00
FE
00
00
00
01
01
FF
00
FD
FF
00
01
00
00
01
FE
02
00
FF
00
00
02
01
FE
02
FF
FF
FF
00
00
01
01
01
01
00
01
01
FF
00
00
00
00
FF
FF
FF
00
FF
02
00
FF
FF
FF
00
00
01
00
FF
00
FF
01
00
00
FE
00
FF
FE
00
00
FF
01
01
00
FE
00
00
00
FE
00
01
00
02
01
FF
FE
00
00
01
02
01
00
FE
02
01
00
FF
01
01
02
01
00
01
00
02
00
FF
00
00
00
01
01
FF
01
FF
FF
00
FF
01
00
01
01
FE
01
01
FF
00
00
00
FF
01
00
FF
01
01
00
00
FF
00
01
01
00
00
01
FF
FE
01
00
01
02
FF
00
02
FF
01
00
FF
00
00
FF
FE
00
01
00
00
01
FF
01
00
02
01
00
00
FE
00
FE
00
FF
FF
00
00
FE
02
01
FD
01
00
FF
00
01
00
00
FF
01
FF
00
00
FF
FF
01
00
00
FF
00
FE
01
00
FF
FF
00
00
00
FF
01
00
00
00
01
FF
00
00
01
00
FF
01
01
00
02
00
FF
00
00
00
01
01
00
00
00
01
FF
01
00
01
00
FF
FF
00
00
FF
FD
01
01
00
00
FE
01
01
01
01
01
00
00
FF
01
00
00
01
FF
FF
01
00
01
00
FF
00
00
00
01
FF
01
FF
02
FF
FF
00
01
01
00
FF
01
FE
01
01
00
00
FF
FF
00
FF
01
01
00
00
01
01
FF
00
00
01
FF
FF
01
FE
01
FF
00
02
00
00
01
00
00
FE
FF
01
FF
00
00
01
FE
FF
01
01
01
01
00
FF
FF
FC
00
00
01
01
01
01
FF
FF
FF
00
01
00
01
FF
00
01
00
00
00
00
00
01
FF
00
01
01
00
01
01
01
00
01
02
FE
01
01
01
FF
01
02
FF
FF
01
FF
00
01
02
00
02
FF
FF
00
FF
00
01
00
01
00
FF
00
00
01
FE
00
01
FD
00
01
00
FF
00
FF
00
00
00
00
FF
02
01
01
01
FF
01
FF
00
00
00
00
02
00
01
01
01
FF
FC
00
FE
01
02
01
01
00
02
FE
00
01
FF
00
02
FF
FF
01
FF
02
02
02
02
FF
00
01
02
00
FE
FF
02
FF
FF
FF
FF
00
00
00
FF
FF
01
00
02
FF
00
01
00
00
01
01
00
FF
00
FF
00
FF
00
FF
02
FF
03
01
FE
FE
FE
00
01
00
02
00
01
02
00
01
FE
00
FF
01
00
FF
FE
FF
02
01
02
00
02
01
FE
02
FE
FF
00
00
00
00
02
FF
FF
01
00
00
00
00
FF
01
01
00
01
FF
00
01
FF
00
FE
01
FE
02
00
00
FF
FF
FF
01
02
01
FE
00
00
00
01
00
FE
FF
01
FF
FF
00
00
01
00
00
01
01
01
00
00
FF
FF
FD
00
03
01
FF
00
00
00
00
00
FF
01
FE
00
FE
FF
FE
00
00
FF
01
00
03
02
00
00
FF
02
01
FE
00
FF
00
00
00
00
00
FE
01
FF
00
FF
01
01
01
00
00
00
FF
FF
00
FF
00
FF
00
01
00
01
FF
00
00
00
FF
FF
00
00
FF
01
00
00
00
FF
FF
01
00
01
00
FF
00
FF
00
00
FF
00
FF
FF
FF
00
FF
FF
00
FF
00
01
FF
FF
00
FF
01
00
01
00
00
00
FF
00
FF
01
FF
FF
01
01
00
00
FF
00
FF
00
00
FF
00
FF
01
00
00
FF
00
00
00
FF
00
01
00
FF
01
00
00
00
00
01
00
00
01
FF
00
01
FF
FF
FF
FF
01
00
00
00
FF
FF
00
FF
01
FF
00
00
00
00
FF
00
00
00
00
00
00
00
00
00
01
FF
FF
FF
FF
00
FF
FF
00
00
00
00
FF
01
00
FF
FF
00
00
00
00
00
FF
00
FF
00
00
00
FF
00
01
00
FF
00
FF
00
00
FF
00
FF
FF
00
FF
00
00
00
FF
00
00
00
FF
FF
01
00
00
FF
FF
00
FF
00
01
FF
00
FF
00
00
00
00
01
FF
00
00
FF
00
00
00
00
00
FF
00
FF
01
01
00
00
00
01
FF
01
00
00
00
01
FF
FF
FF
00
00
01
00
00
01
01
FF
FF
FF
FF
FF
00
FF
00
00
00
01
00
00
01
01
00
FF
00
00
00
01
00
00
FF
01
01
FF
00
01
01
02
01
02
02
00
00
01
01
02
FF
01
00
00
FF
00
FE
00
FF
00
02
00
00
FF
FF
01
00
00
01
00
01
FF
FF
01
FF
00
01
FF
FF
01
02
00
02
02
00
00
02
FF
01
FF
FF
03
FF
02
01
FF
00
00
01
00
01
02
00
00
FF
00
01
02
00
00
01
00
00
01
01
FF
FF
01
01
01
00
FF
01
FF
01
FF
FF
FF
01
02
00
00
00
FE
02
00
01
FF
00
FF
01
01
00
01
01
01
01
01
01
FF
02
00
00
00
01
01
00
01
00
00
FF
01
00
01
FD
FF
00
00
02
FE
02
00
FD
00
01
FE
00
FF
00
02
FF
01
00
02
00
01
02
FF
FF
01
00
01
01
00
00
00
FE
01
00
01
02
01
FF
01
FF
00
00
00
FD
FF
FE
00
02
FF
01
01
01
00
FD
02
00
00
FF
FF
03
00
02
01
FF
FF
FF
FD
00
FD
01
FE
00
00
03
01
01
FE
00
FE
00
00
FF
FE
02
FF
00
01
00
FF
01
FF
01
FF
FF
FF
00
00
FF
00
01
02
FF
00
01
FF
01
00
00
00
00
FE
01
00
02
00
00
00
FF
FF
00
00
01
02
02
00
00
02
FE
00
FE
FE
FE
01
02
FF
FE
01
02
00
01
02
FE
01
FF
FE
FF
FF
FF
FE
00
00
FF
01
00
00
00
FF
FF
00
00
FE
FF
FF
FF
FF
FE
01
FF
01
00
FF
FF
FF
00
FF
01
00
01
01
00
FF
FF
02
FF
00
00
00
01
FE
02
00
00
01
01
FF
FF
FF
00
00
00
00
FF
02
00
FF
FF
00
01
01
FF
00
FF
02
00
00
FF
FE
FE
01
FF
00
FE
00
FF
00
01
01
01
FF
FF
01
00
00
FF
FF
FE
FF
02
00
00
00
01
01
01
FF
FF
01
00
02
01
01
00
FF
01
00
00
02
01
00
01
FE
01
FF
FD
01
FF
01
01
01
00
01
00
02
FF
01
01
FF
02
00
00
00
FE
FF
FF
00
FF
01
FF
01
FF
01
01
01
FF
00
FF
01
00
00
FD
00
FF
FF
FF
00
00
00
00
00
FE
FE
01
01
00
FF
02
FE
00
FF
00
00
01
FF
00
FF
01
FF
02
02
00
00
00
FF
01
00
02
00
FE
00
00
01
01
FF
FF
00
00
00
FF
FF
FC
FE
00
01
FF
01
01
01
FF
00
01
00
00
01
01
00
01
00
FE
00
FF
00
01
01
FF
00
01
00
01
01
00
00
FF
FF
FE
FF
FF
00
00
00
00
FE
FD
00
FE
FF
00
00
00
01
FE
FE
FF
FF
FF
01
01
00
00
01
00
FD
00
02
00
00
FE
FE
FD
FF
01
01
01
FF
00
FF
FF
FE
FF
01
FF
00
FF
FF
01
01
FF
FF
FF
FD
01
01
FF
FE
00
00
00
01
01
FF
00
FF
01
00
01
FF
FE
00
FF
02
01
FF
00
00
01
00
00
FF
FF
02
00
00
00
FF
01
02
00
00
00
01
01
02
01
02
00
01
FF
01
01
00
01
01
FF
00
00
00
FE
FE
00
FF
00
01
FF
00
00
01
01
00
03
01
02
FF
01
01
FF
FE
01
00
01
FE
FF
00
01
02
FF
FF
00
00
00
01
00
00
00
01
00
01
FF
FF
FF
00
00
FF
00
00
01
00
00
FF
00
00
01
01
00
00
01
FE
00
01
01
FE
01
01
00
00
00
FF
FE
01
00
FE
FF
01
01
FF
00
01
FF
01
01
FF
FF
00
02
FF
00
00
FF
FE
00
01
00
01
01
FF
01
FF
FF
FF
01
FE
FF
01
01
FF
01
01
FF
FF
01
FF
01
FF
00
00
00
FE
FF
FF
00
FF
FF
FE
FF
FD
00
00
00
FE
00
00
FF
FF
00
FF
FE
00
02
FF
00
02
FF
00
00
FE
FF
FF
02
FF
FF
02
01
01
01
FF
00
01
01
FD
FE
FF
00
00
FF
FF
00
00
00
00
02
FE
FF
FF
FE
FF
00
01
01
00
01
00
FE
00
00
FE
FF
01
01
FF
FF
FF
FF
00
01
01
01
FE
01
FF
FF
FF
00
FF
00
01
01
02
01
FF
00
03
01
01
02
00
00
02
00
FF
FF
02
01
01
00
FF
01
FF
00
02
00
00
FF
00
FF
FF
FD
FF
02
01
00
FF
FF
00
00
01
FF
01
01
00
01
FF
FE
00
00
01
FF
FF
FE
00
00
00
00
01
01
00
FF
00
FF
01
02
02
01
01
00
02
01
00
FE
00
01
02
FF
00
00
02
00
00
FF
01
01
FF
00
00
00
00
FF
00
FE
00
00
02
00
FF
00
00
FF
FE
00
00
01
00
00
00
03
01
00
00
FE
00
00
FF
FF
00
01
FF
00
00
FF
FF
00
00
00
02
00
FF
01
02
01
00
00
00
01
01
00
00
00
00
00
00
FF
FF
FF
00
00
02
00
00
00
01
00
FE
01
01
00
01
FF
00
FF
FF
00
00
00
00
01
01
FF
00
00
02
01
FF
00
00
FD
01
FF
00
01
FF
FF
FF
00
00
FF
00
FF
00
00
01
00
01
FF
00
00
01
FF
01
FF
FE
FF
FD
02
00
00
FF
00
01
01
02
FF
FF
FE
00
FF
00
00
FD
FE
FF
01
01
01
00
00
01
FF
00
FF
00
FF
01
00
FC
00
FE
00
02
01
02
01
01
01
01
FF
FF
FD
02
00
FF
00
00
FF
FE
FF
FF
00
02
02
00
FF
01
FF
FF
FF
00
00
01
00
FF
01
00
FF
02
FF
FF
02
00
00
01
01
FF
01
FD
00
01
01
01
FF
00
FF
FF
00
FE
00
01
01
FF
01
FF
00
01
00
FE
FF
00
01
00
FE
FC
FD
01
00
01
FF
02
01
FF
FF
FF
01
02
FF
FF
01
02
FF
01
FF
FF
FE
00
01
FF
00
FF
00
00
00
00
01
FE
00
00
00
00
FF
FF
FF
FF
01
00
FF
FF
00
01
00
FF
02
FF
02
01
00
00
00
00
01
FF
FF
00
00
01
FE
00
02
00
00
01
FE
FE
01
01
01
01
01
03
FF
01
FE
00
FF
FF
FC
FF
FD
00
FF
00
02
00
00
FF
FB
00
01
FF
FF
01
FE
00
FC
00
00
FE
01
FF
01
FF
FE
FF
FE
00
00
00
FE
00
FF
00
00
FE
02
01
00
FF
FD
FF
FE
FF
01
00
FE
00
FF
FF
00
00
01
00
00
FF
FE
01
02
00
00
FF
FF
FF
FF
FF
00
00
00
FF
00
01
00
00
01
00
02
00
00
FE
01
FE
FE
00
FF
FE
00
01
00
FF
FF
FE
FF
00
00
FF
01
00
FE
00
FE
FF
00
02
02
FF
02
FE
00
01
FF
01
00
00
00
FF
00
FF
01
02
00
00
01
01
FF
FF
00
01
00
00
FF
FF
00
00
00
00
01
01
FF
02
01
FF
03
FF
00
FF
02
02
FF
00
00
00
01
FF
00
01
01
01
01
00
00
FF
00
01
FF
FF
FF
00
01
00
00
FD
FE
02
01
00
FF
01
00
FF
00
FF
FC
01
FF
00
01
01
02
FF
FF
01
FF
00
00
01
00
00
01
00
FE
00
00
00
FF
00
FF
01
FE
00
01
00
00
01
FF
00
FE
01
00
00
00
00
01
FF
01
01
01
00
00
00
00
FF
02
00
01
00
00
01
02
03
00
FF
00
00
00
00
FF
01
FE
01
FF
FF
00
00
FE
00
FD
01
01
00
00
FF
FF
00
FE
00
01
01
01
00
00
00
02
FF
00
01
02
00
01
FE
FF
01
FF
FF
00
00
00
01
02
00
00
01
00
01
01
01
01
00
00
01
00
FF
00
03
00
01
01
00
01
02
01
FF
FF
01
FE
02
01
00
FE
01
00
FF
01
02
00
02
00
00
00
01
02
FF
FF
01
FE
FE
FF
FF
01
01
01
01
00
01
FF
FF
02
00
FE
00
FE
FE
FF
FF
FF
FF
00
00
00
FF
00
FF
01
FD
FF
FF
00
02
00
FF
00
FE
00
00
01
00
00
00
00
00
00
FE
01
01
01
01
FE
00
00
00
01
00
01
FF
00
FF
00
FE
00
FF
00
00
FF
01
FE
00
01
01
00
00
01
00
00
FF
00
FF
00
00
00
FF
00
FE
00
01
00
00
00
00
00
00
02
00
01
02
FE
FF
FF
FF
FF
FE
02
FF
FF
01
00
01
01
00
FF
01
00
FE
FE
FF
01
01
00
FF
FF
FF
FF
FF
01
00
00
FF
FE
FF
00
FF
00
FF
FF
01
00
00
01
00
01
FF
FF
01
00
FF
00
FF
FE
FF
FE
00
00
00
FF
00
02
FF
01
FD
FF
01
FF
FE
FE
00
00
FF
00
FF
01
01
00
FE
FF
FF
01
00
FF
FF
00
00
FF
00
FF
00
FF
01
FF
02
FF
FF
00
FE
01
00
00
FE
FF
01
FF
01
00
01
01
FD
00
00
00
00
01
02
00
FE
FE
00
FF
FF
00
01
00
FE
01
FE
FE
01
01
02
FF
02
00
FF
01
FF
00
00
01
FB
01
FF
FD
01
01
00
FE
FF
02
00
00
FE
FE
01
FF
FD
FF
00
00
00
FE
00
FF
FF
00
01
00
FF
FF
00
01
FD
FF
00
02
00
FF
01
FF
00
FF
00
FF
00
FE
01
00
FE
02
00
FF
02
00
00
01
00
00
01
01
FF
01
01
01
00
01
00
FF
01
FF
FF
00
00
00
FE
00
01
01
00
FF
FF
FF
00
FE
02
00
00
01
FF
00
FF
FE
01
00
01
FF
00
01
00
FF
00
01
00
00
00
01
01
FF
00
00
01
01
00
00
02
FF
FF
00
FF
01
00
01
00
FD
02
FE
01
02
02
FF
01
01
00
00
FF
01
00
01
FF
00
01
00
00
00
FF
FF
01
FE
00
FF
FF
01
FE
FF
00
00
00
00
FE
FF
01
FF
FF
00
FF
01
FF
01
02
FF
FD
01
00
02
FE
00
FF
FF
01
00
FF
01
00
00
FF
01
01
FE
01
00
01
FF
00
FF
FF
01
FF
FF
01
01
01
FF
01
00
00
01
FE
FF
00
01
00
FF
FE
00
FF
FE
00
FF
00
02
00
00
FD
01
01
02
01
FF
FF
02
FE
FF
00
FF
FC
00
00
01
00
FF
00
01
00
02
FF
FE
00
FF
01
00
00
FF
02
00
FF
00
01
02
01
00
00
FF
00
00
FE
00
FF
FD
00
01
FF
01
FD
00
00
00
00
00
FF
01
00
FF
FE
FF
02
01
00
00
FE
FF
FF
FF
01
FF
FF
01
01
02
FF
00
01
01
02
00
02
01
01
FE
FE
FF
00
01
01
FF
00
FF
00
01
FF
01
02
00
00
FF
FF
00
FF
FE
00
00
FD
00
01
00
00
01
01
FF
FF
FF
FE
00
FE
00
00
00
FB
00
FF
01
00
02
00
02
01
FE
02
00
FB
00
00
01
FE
FF
FF
FE
01
00
00
01
02
FE
FF
FD
00
00
02
01
00
01
00
FE
FE
FF
01
FE
00
FE
FD
FD
FE
00
01
FF
00
00
FF
FF
FC
02
FF
00
01
FD
FE
FF
00
FE
FF
FF
FE
00
00
00
FE
02
01
01
01
FD
FF
02
FC
FE
FF
01
FE
01
00
00
FE
00
00
00
FF
00
00
FF
01
02
04
00
02
03
FF
FF
01
FF
FF
FF
FF
FF
00
00
FF
FE
02
FD
02
03
01
01
FE
FF
00
00
02
00
FE
00
FF
FF
00
FE
01
FF
00
FF
FE
FF
01
FF
01
FF
FD
FF
FE
FD
FF
00
FE
FF
00
01
FE
FF
FE
00
FF
01
01
FF
03
01
00
01
01
FF
00
FF
01
FF
FF
FF
00
00
FF
01
01
FD
00
00
01
FE
FE
00
02
FF
FE
00
00
01
01
01
00
FF
00
00
01
FF
00
FE
00
00
FE
FF
01
FF
00
FF
00
01
FF
00
02
01
01
FF
01
00
01
02
00
00
FF
00
00
01
01
00
00
00
FF
03
FE
03
02
00
01
FF
FF
01
00
FE
02
FF
FD
01
00
01
01
02
FF
00
FF
01
FF
02
00
00
FF
00
FF
FF
00
FF
01
01
00
02
00
03
01
01
02
02
01
00
FF
00
00
01
FF
01
02
00
00
01
00
00
00
FF
00
FF
FD
01
01
02
FD
00
01
00
FF
00
00
00
FE
FF
00
FF
FD
02
FE
FF
FE
01
00
00
00
FE
FF
01
00
00
FF
00
FD
FF
FF
FF
00
00
01
01
00
00
00
01
FE
FF
01
00
FE
00
00
00
01
01
03
00
00
FF
FF
FF
FE
FF
FE
01
FF
00
FF
01
FE
00
FF
00
01
FE
FF
FD
FD
FF
01
00
FE
FF
01
00
FF
01
00
03
00
00
FF
00
FE
FF
00
00
FE
00
01
01
FE
02
00
FF
01
00
FE
00
FE
00
01
02
FD
FF
01
FF
FE
01
00
02
FF
FE
01
FF
FE
01
00
01
01
FF
00
00
01
FF
FF
FF
00
01
FE
FE
01
00
FD
FF
FF
FF
FF
01
FE
FF
00
FF
FF
00
FF
01
FF
01
FE
FC
00
FF
00
FF
00
01
02
FF
FF
01
FD
02
FF
FF
FE
FF
00
FE
02
01
02
01
FD
02
FF
01
01
FF
00
01
FD
00
02
FF
00
00
00
00
02
FF
00
01
00
FF
01
FF
00
00
01
FF
00
02
01
FE
FF
01
00
00
FF
00
01
00
FD
FF
01
02
FE
00
FF
00
00
00
FE
00
00
02
01
00
FE
FF
FF
00
FE
FF
01
01
01
00
00
00
FF
01
FF
00
FF
FF
02
FF
02
00
00
00
02
FF
FF
00
00
02
00
FF
00
FF
01
FF
FF
FF
01
FF
00
00
01
01
01
01
02
00
00
01
02
00
FF
00
01
FF
FF
FF
FF
00
01
02
00
02
01
00
00
00
00
FE
00
01
01
00
FF
00
00
00
00
01
00
00
00
00
02
01
01
FE
01
FE
00
FF
01
00
00
00
01
FF
00
01
00
00
00
FF
00
FF
03
00
00
00
00
02
01
FF
00
FF
01
01
FF
00
FF
01
00
00
01
01
01
02
01
FF
00
00
00
FF
00
00
FE
00
FF
FF
02
FF
FF
FF
00
FF
FF
04
FE
FD
00
01
00
00
FF
00
00
01
FE
FE
FF
00
FE
03
00
FF
00
00
00
00
00
FE
00
01
FE
FF
FF
01
00
01
00
FF
FE
FF
00
FD
FE
FF
FF
02
00
FF
00
01
00
01
01
FE
00
01
FD
01
03
00
FF
FF
00
00
00
01
03
FE
00
FE
FF
01
FF
FF
02
FF
02
00
02
00
01
00
01
FF
FF
FF
01
01
00
FF
FE
00
00
FE
00
FF
00
02
01
FF
FE
FE
01
FF
FE
00
FE
01
00
01
FF
FE
00
FF
FF
01
FF
FD
FF
00
02
FF
02
02
FF
00
01
00
00
00
FF
FE
02
02
FF
01
00
01
FF
01
00
00
01
01
FE
01
00
00
FE
00
01
01
01
00
FF
00
01
00
00
01
02
01
00
01
FE
00
FF
00
FE
FF
00
00
00
FF
02
FF
00
00
00
FF
00
FE
00
FE
02
00
FF
01
01
01
01
01
00
00
00
01
FF
00
FF
00
FE
01
00
01
FF
00
00
FF
00
FF
FF
01
01
00
00
FF
00
00
00
FF
02
01
00
01
01
00
00
FF
00
00
01
02
FE
01
FF
01
01
02
01
00
00
00
00
FF
01
01
01
01
04
01
00
01
FF
01
00
01
FF
01
00
FE
01
02
00
FE
01
FF
00
00
00
02
00
02
01
FF
FE
FF
01
01
FF
FE
FF
FF
FF
00
01
00
00
00
01
00
00
00
00
FF
00
FF
FE
01
FE
00
01
01
00
00
00
00
FF
00
FF
FF
02
01
01
00
FF
02
FE
00
01
FF
FF
FF
00
01
01
00
FF
00
01
FF
00
FD
FE
01
FF
00
01
FF
FF
02
00
01
FE
00
00
FF
00
FD
00
FF
FE
01
00
01
00
FF
FF
00
FF
00
FF
FF
FF
00
00
FF
FD
00
01
00
FF
00
00
00
01
00
00
01
01
FF
FE
00
FF
FE
FF
01
FF
FD
00
FF
FF
FE
02
00
02
FF
FF
FE
02
01
00
01
FF
FF
01
FF
00
00
01
00
02
FE
FD
FF
FF
FE
00
00
00
FF
FF
FE
FF
01
00
01
02
00
FE
02
FF
FF
01
FF
00
00
00
FF
00
03
01
02
02
00
FE
FF
FE
FF
01
01
FE
00
01
01
01
00
FE
00
00
00
00
FE
FE
01
FF
01
00
01
01
FF
01
00
01
00
00
00
FF
FF
00
FE
FF
FF
01
FF
FF
01
01
00
FE
00
01
00
01
00
02
00
FF
FD
03
00
02
01
02
00
00
00
01
00
FE
FE
01
FE
00
00
01
01
01
FF
FF
00
00
00
00
FF
01
00
01
00
00
FF
01
01
00
01
01
01
FF
02
FF
FF
00
01
FF
00
00
00
00
01
00
FF
00
00
00
FF
01
FF
00
00
00
00
00
00
01
00
01
00
00
FF
02
00
01
FE
FF
FD
FF
02
FF
01
FF
00
01
01
FE
00
01
01
FE
00
FF
FF
FF
01
00
00
FE
02
FF
00
FF
FF
FF
00
00
FF
01
01
00
FF
FF
01
01
01
00
01
02
00
00
01
FF
00
00
00
01
00
FF
00
01
00
FF
FE
01
FF
02
FF
00
01
01
00
FF
FD
FF
FF
01
02
FF
02
00
FF
FE
02
FD
00
00
FF
01
00
00
00
00
01
00
00
01
01
01
01
FE
FE
FE
00
01
FF
00
00
02
00
FF
00
00
FF
FF
00
FF
01
01
01
00
01
00
01
02
FF
00
FF
01
FF
01
FF
FF
00
01
FF
01
00
01
00
00
FE
00
FF
00
00
FE
01
FF
00
00
01
00
01
FF
01
FF
00
FF
00
00
01
01
01
00
01
00
FF
00
00
00
01
00
00
FF
00
02
00
01
FD
00
01
00
00
00
FF
00
FE
FF
00
01
00
FE
FE
01
00
01
FF
FE
FF
FE
FF
FF
00
00
01
00
00
00
00
00
FE
00
01
FF
00
00
FE
FE
FF
FF
01
FF
00
FF
FF
FF
FF
01
FF
01
00
FF
00
FD
FF
00
01
01
00
00
FD
FF
FE
FF
01
01
01
00
02
FF
FF
FF
FF
00
FF
00
00
00
FE
01
00
00
FE
00
FE
FF
FF
00
00
00
FF
01
02
00
02
FF
01
FF
FF
00
FF
01
FF
00
01
FF
FE
FF
01
FF
00
00
00
00
00
00
FF
01
00
00
01
FF
FE
01
02
FF
00
00
00
FF
01
01
FF
00
FF
01
FF
FE
FE
02
00
FF
FE
00
FF
00
FF
01
01
01
FF
01
00
00
FF
00
FE
FF
FF
00
00
FE
01
01
00
01
FF
02
FF
FF
FF
00
01
00
01
01
00
00
00
01
FF
00
01
00
00
00
01
FF
01
01
00
00
01
00
01
00
01
00
FF
00
FF
00
00
01
00
00
01
FF
01
01
01
FF
01
01
FF
FF
01
01
01
00
00
FF
00
01
FF
FF
01
01
00
02
FE
FF
00
01
01
01
00
01
00
FF
00
00
01
00
00
01
FF
FF
FF
FF
01
01
FF
FF
FE
FF
FF
00
00
01
01
00
FD
00
00
FF
00
01
01
FE
01
00
FE
FF
FF
FF
FF
00
02
FE
FF
FF
00
00
02
01
FF
02
FE
00
FE
FE
01
00
01
FF
FF
00
00
00
01
01
01
00
FF
FF
FE
00
FF
01
FF
FF
FF
FF
FE
FF
01
01
01
00
00
FF
00
01
FE
01
FF
FE
00
FF
FE
FF
01
00
00
03
00
FF
00
FF
00
02
01
FF
02
00
FF
FF
00
00
00
01
00
00
00
FF
01
01
00
01
00
FF
FF
01
FF
FF
00
00
01
00
00
FF
FF
00
FF
02
FF
01
02
FF
01
01
FF
01
00
00
FF
00
FE
01
00
01
FF
01
02
00
00
01
FF
02
FF
01
00
00
00
01
FF
00
00
FF
00
01
00
FF
00
00
01
00
FF
00
01
FE
FF
00
FF
00
00
FF
FF
00
00
FE
01
00
00
FF
00
FF
FF
01
FF
00
00
FE
00
00
FE
FF
FF
FF
01
00
00
00
01
00
00
00
FE
FF
00
FF
00
00
01
01
01
00
00
00
01
00
FF
00
00
00
FF
01
01
00
01
FF
01
FF
01
FF
00
00
FF
FF
00
00
00
01
03
00
00
FF
FF
00
FF
00
FF
FF
01
FE
FE
01
01
FF
03
FE
FF
01
00
00
FF
00
02
00
00
00
FF
01
01
00
FE
FD
00
00
00
00
FF
FF
FD
01
01
FF
FF
02
00
01
FF
FF
01
01
00
00
FE
00
FF
02
02
00
FF
00
01
FD
00
00
FF
00
01
FF
01
00
00
01
02
02
00
FE
FD
FF
00
00
01
00
02
01
02
00
01
00
00
FD
FF
01
FF
FD
FF
00
01
FE
FF
01
FF
FF
FF
01
01
00
FF
FF
00
00
01
FF
00
FF
01
01
00
01
00
01
FE
01
00
FE
01
02
FE
01
01
FE
01
01
FF
01
00
FF
FF
00
00
00
FE
01
01
01
00
FE
01
FF
01
FE
00
00
01
FF
00
01
00
00
00
00
01
00
00
02
02
FE
FF
00
FF
01
02
02
00
00
FF
01
01
00
02
00
01
01
FF
01
FE
01
01
01
FE
01
FE
01
FF
02
00
00
FF
01
FF
00
FF
01
03
FF
FF
00
00
00
01
FF
01
00
FE
FE
FD
00
00
01
00
00
01
02
02
FE
02
00
00
FF
00
00
FF
00
01
FF
02
FF
00
01
FC
FF
01
01
03
FF
FF
00
FE
00
FF
01
01
00
FE
FF
FF
FF
00
01
03
00
00
FE
FF
FF
FF
00
FF
FF
FF
FF
FF
00
FF
FF
00
01
00
00
FE
FF
FF
01
FF
FE
01
FD
00
01
FF
01
FF
FF
FF
01
00
01
02
01
01
02
00
FF
01
FF
01
FF
00
FF
00
00
01
00
00
01
01
01
01
FF
01
01
01
FF
01
00
FF
00
01
00
01
00
01
FF
00
00
01
01
FF
FF
00
00
00
01
00
01
00
00
00
00
FF
FD
00
01
FF
02
02
00
FF
01
FF
00
00
FF
01
02
00
FF
00
FF
00
00
01
01
00
00
00
00
FE
01
00
FF
00
00
FF
FF
00
FF
FF
FF
00
00
01
00
00
00
02
FF
00
00
FE
00
FF
00
01
FF
00
FE
FE
00
01
02
00
00
FF
FF
00
01
00
FF
00
00
01
00
01
01
01
FF
FF
00
FE
01
00
00
00
02
00
FF
01
FE
01
FF
01
00
01
00
FE
00
FF
FE
00
00
FF
00
02
00
00
00
00
00
FF
00
FD
FE
00
FE
00
00
01
01
FE
FF
FF
01
02
01
00
FE
00
FF
FF
00
01
FF
00
02
FF
01
FF
FF
00
00
FF
01
01
FF
FF
FE
01
00
00
00
00
00
00
01
01
00
FF
01
00
FF
FE
FF
FF
01
00
01
00
00
FF
01
01
01
FF
FF
00
01
FF
01
FF
01
FF
00
01
01
01
00
00
01
00
01
FF
02
FF
00
00
00
00
00
FF
00
00
FF
00
FF
01
FF
FE
00
FF
FF
FE
FE
01
00
FF
00
FE
FF
01
FE
00
FF
FF
FF
01
FE
FE
FE
00
00
00
FE
00
01
01
01
00
00
00
00
01
01
00
00
01
FF
01
00
00
01
FE
02
01
FF
FF
01
FD
02
FE
00
FF
00
01
00
00
FF
01
00
01
FE
FF
FF
02
FF
01
FF
00
00
00
FF
00
FF
00
00
00
01
FF
FF
FF
00
FF
FF
01
FF
00
00
00
01
FF
01
00
FF
01
FF
00
FE
00
00
02
01
01
FE
00
00
FF
00
01
FF
FF
FF
FD
01
FF
01
FE
00
FE
01
FE
00
01
FE
FF
00
00
FE
00
00
00
FF
FF
FF
00
00
00
01
FF
FD
00
00
00
02
FF
FF
01
FE
FF
FF
00
01
FF
00
00
FE
FF
01
FF
00
00
00
00
FE
00
00
00
FE
FF
01
00
01
00
00
FE
00
FF
00
00
01
00
01
02
FF
FF
FF
FD
FF
FE
01
FF
FF
00
00
01
00
FF
01
FF
FF
FF
00
01
FF
FF
00
FF
FE
00
00
01
00
FF
00
FF
FF
FF
01
FE
00
00
00
FF
FF
FF
01
00
00
01
00
00
FF
FD
01
FF
01
00
00
00
00
01
00
01
03
FF
00
00
00
01
FD
00
FE
FE
FE
00
01
02
FF
00
00
00
00
FF
00
01
FE
FF
FD
FE
00
00
FF
01
01
01
00
FF
FF
FF
00
01
FF
00
00
FF
02
02
00
00
02
00
00
00
FF
00
FF
01
00
01
03
00
02
01
01
02
00
FF
00
FE
00
01
00
00
00
FF
FF
00
00
01
00
FF
01
FE
FF
FF
FE
01
00
00
FE
00
00
01
FE
00
02
00
01
FE
FF
FF
FE
02
00
00
FF
FF
02
01
01
00
00
00
01
00
00
02
FF
01
02
00
FF
01
00
00
00
02
01
01
01
00
00
FF
FE
00
02
00
00
01
02
00
FF
FF
00
00
00
00
00
01
FE
01
00
FF
01
FF
FF
01
00
02
FF
00
00
00
FF
00
00
00
00
00
02
00
01
FF
FE
01
01
01
FF
01
FF
FE
00
FF
00
00
00
00
01
00
FE
00
01
01
02
01
00
00
00
01
01
00
01
00
02
00
FF
01
02
01
01
00
FF
FF
FE
FF
01
00
FF
02
02
00
FE
00
01
01
00
FE
FE
02
FE
FF
01
00
FD
FF
00
01
FE
00
00
FF
FE
FF
FF
00
FD
FF
FF
01
FD
00
FE
FF
FF
FF
00
00
FE
FE
01
00
FF
FF
00
00
FD
01
FD
FF
FF
02
02
01
01
FE
01
FE
FF
FE
01
02
FF
03
FF
00
00
FE
01
FD
00
FE
00
FE
00
FE
FF
00
FD
03
00
00
FF
FE
FE
FE
FD
01
00
01
00
FF
FE
00
00
FE
FE
FD
FF
02
FF
00
01
FE
FF
01
FF
01
FF
00
00
FF
FF
FF
FE
00
00
01
01
00
02
FF
01
01
02
00
FF
FF
00
FF
00
01
01
00
FF
FF
00
00
01
01
01
01
00
02
00
FE
00
01
FE
FF
FF
01
00
01
02
00
00
00
00
FF
01
FE
02
01
FF
01
FF
00
FE
01
FE
01
00
00
FD
00
00
01
00
00
00
00
00
FF
01
01
FE
FF
01
01
FF
FF
FF
01
FF
01
00
FF
00
00
00
FF
FE
00
00
01
00
01
FE
FE
00
02
00
00
FF
00
00
02
FF
01
FF
00
FE
00
00
00
00
00
02
FF
00
FF
FF
00
FF
00
00
01
FE
00
FF
FF
FD
FF
02
01
01
FE
00
00
FE
FF
02
01
FF
03
00
00
FE
01
FE
01
01
FF
01
00
01
FF
00
01
FF
01
FF
00
FF
00
FF
00
FE
01
01
FF
01
FE
00
01
01
00
00
FE
01
00
FE
00
00
FE
FF
00
01
00
00
00
00
00
01
01
00
00
FE
01
00
FE
00
00
01
00
FF
FF
FF
FF
00
FF
01
00
FC
00
00
00
01
FF
01
00
01
01
FF
00
FF
01
00
00
FE
00
FF
FF
01
FF
00
01
00
00
00
FF
FF
FE
01
00
00
01
01
FE
FF
00
00
00
FF
01
FF
00
01
00
01
FF
FE
00
FF
01
01
01
01
FF
00
00
FF
01
00
FF
00
00
FE
FF
FE
01
00
FF
00
02
FF
FF
FF
00
01
01
01
00
01
01
01
00
01
01
FE
FF
00
00
00
00
FF
01
01
01
00
01
01
FE
00
FF
FE
00
FF
01
00
00
01
FF
01
01
00
FF
02
00
00
00
FF
00
00
01
00
00
00
FF
FF
FE
FF
FF
01
FF
00
00
FE
FF
FF
FD
00
FF
01
FF
FE
FF
00
00
00
01
00
03
FF
01
FF
00
FF
01
01
00
FE
02
FE
FE
FF
02
01
FF
FF
00
01
00
00
02
00
FF
01
FF
FF
FD
FD
01
01
FF
00
02
FE
FF
02
01
FF
00
00
FE
00
FC
FF
00
00
FF
00
FE
00
FF
01
00
00
00
00
FF
01
01
00
01
FF
02
01
00
00
FE
00
00
01
00
FF
00
00
00
FE
FF
FF
FE
00
FE
02
00
FE
FF
FE
FF
00
02
00
00
01
FF
00
FF
FF
02
00
01
FF
03
00
FF
00
01
01
00
01
FD
FF
FF
00
00
00
00
00
01
00
00
00
01
00
FF
01
FF
FF
FF
FE
00
FF
00
00
00
00
01
FF
FF
FF
00
00
FF
02
01
FF
00
FE
00
FF
FF
00
FF
00
01
00
01
01
01
00
01
00
01
00
01
00
00
FF
FE
01
00
00
FF
00
00
01
FF
01
01
01
02
FF
00
FF
01
01
01
01
01
FF
00
FE
FF
FF
FF
00
FF
00
00
00
01
FF
00
FF
01
00
00
00
01
FE
00
FE
00
FC
01
00
00
00
01
00
01
00
FF
00
00
FE
02
00
02
FE
01
FE
02
00
00
00
00
00
00
FF
00
FF
FF
01
02
FE
00
FF
00
FF
FF
00
FE
00
00
FF
01
FF
FF
FF
00
FF
01
00
FF
FF
00
FE
01
FE
FE
00
00
FD
00
FE
01
00
FF
FC
FF
00
01
02
00
00
00
01
00
FF
FE
FF
00
00
01
00
00
00
00
FF
01
FF
01
01
FE
00
00
01
FF
01
00
00
01
FF
02
00
00
01
00
01
FF
01
00
00
00
02
01
FE
00
00
00
02
00
00
00
FF
FE
FE
FE
00
00
FF
01
FF
00
00
00
01
01
01
01
FF
00
FD
FF
00
01
00
00
01
00
00
00
02
00
00
01
FF
01
FF
FE
FE
FF
00
01
01
01
00
FE
00
FF
00
01
FF
02
00
FE
FF
FC
01
00
01
00
00
FF
00
FF
01
01
FE
FF
00
FE
00
FF
02
FF
00
00
00
00
00
00
00
00
FE
FE
00
00
00
00
00
00
FF
FF
01
FF
01
00
01
FE
FE
FF
01
00
01
FF
02
FF
00
FF
00
00
FE
00
FF
00
00
01
02
01
FF
FF
FF
01
FF
FF
01
00
01
01
FF
01
00
00
FF
FF
00
00
01
01
00
00
00
00
FF
00
FE
FF
FE
01
FF
00
02
FF
01
01
FF
00
FE
00
02
00
01
01
00
00
00
00
01
01
00
01
00
00
01
FF
FE
00
FF
FF
FF
FE
00
01
00
00
FF
01
00
00
01
FE
FF
00
FF
00
FF
00
FF
01
00
00
FF
01
00
FF
00
01
00
FF
00
00
00
00
01
FE
02
FF
FF
00
01
00
00
FF
00
FE
FF
01
FF
FF
00
FF
01
FF
00
00
02
00
FF
FF
FF
00
01
00
00
01
FF
00
FF
FF
FF
00
01
01
00
00
FF
FF
00
FF
00
01
00
00
FF
02
00
FE
00
01
00
00
FF
00
01
FF
FF
00
00
01
00
00
00
FF
01
00
FF
FE
00
00
00
00
01
FF
01
00
00
00
FF
00
00
FF
01
FF
FF
FF
00
01
00
01
01
00
01
00
FF
FF
01
00
FF
01
01
FF
FF
00
FF
02
FE
01
01
00
FF
00
00
FF
FF
FF
FF
01
FF
FE
01
FF
FF
00
00
02
00
FE
01
01
00
00
01
FF
00
00
FE
FF
00
FF
00
FF
FF
00
01
01
FF
FE
00
FF
00
01
00
02
01
01
FF
FE
01
00
00
00
00
00
FF
00
FF
00
FF
01
FF
FD
00
00
02
FF
02
FF
FF
01
00
00
00
FF
01
01
FE
FF
00
00
00
FF
01
01
FE
FF
FE
00
FF
FE
00
FF
00
01
01
FF
FE
FF
FF
FD
00
FE
FF
00
01
FF
01
FF
01
FF
02
02
FF
00
FE
FE
FF
01
02
FF
00
FE
00
00
01
FF
02
00
01
01
01
FE
00
00
FF
00
00
FE
FF
00
FF
00
FF
FF
01
00
FF
00
01
00
FF
01
03
FF
FF
00
00
01
02
FF
00
FE
00
01
01
02
02
04
01
FE
01
FF
FF
01
02
02
FF
FF
00
00
FF
00
00
01
00
00
FF
00
02
00
FF
00
00
00
01
FF
FE
01
FE
00
00
00
02
01
02
FF
00
00
01
00
FF
FF
01
00
FF
FF
00
00
02
00
FF
FF
01
00
00
01
01
FF
01
00
FF
FE
FE
FF
01
01
01
00
FF
00
00
01
01
00
01
00
00
01
FF
01
FF
FE
00
02
FF
00
00
01
00
02
FF
01
00
FF
FF
FF
00
FF
FE
FF
00
01
FE
01
01
02
FE
01
00
FF
FF
00
01
01
00
01
00
FF
FD
00
FF
00
01
00
01
00
FF
FF
01
01
FF
00
01
02
FE
00
FE
FE
01
00
00
01
03
FF
01
01
FE
FF
01
00
FE
01
02
FF
FF
01
02
01
02
FE
00
FF
FF
00
02
01
FE
01
FF
FF
00
02
00
00
01
FD
FF
00
00
FF
00
00
FF
01
FE
FF
FF
FF
00
01
FF
FD
00
01
FF
00
FF
00
01
00
FF
FF
FF
01
02
00
01
FF
00
FF
FF
FF
01
01
01
00
00
01
00
00
00
FE
00
FF
FF
FF
00
00
00
00
00
01
00
01
00
FF
01
FF
01
FF
00
FE
01
FE
FF
FF
01
FF
FF
00
02
00
01
FF
01
01
FF
00
01
FF
FF
FF
00
FF
02
01
00
01
FF
00
01
FE
FE
FD
00
00
FE
01
01
FD
01
00
00
01
00
00
01
FE
FF
FF
02
01
FE
01
00
FC
01
00
00
FF
FE
FF
00
FF
00
FE
01
00
FF
00
01
FE
00
02
00
FF
01
FF
00
00
02
00
03
FF
01
01
00
00
FE
FE
01
00
00
02
00
FF
FF
FF
FF
00
FF
01
00
00
FF
00
01
00
00
00
00
00
00
00
00
FF
00
01
00
00
FF
00
00
FF
FF
FF
00
01
00
FF
01
FF
01
FF
FF
01
FF
00
02
FF
FF
00
FF
FF
01
00
01
FF
01
00
FF
FF
01
02
FF
00
FE
00
00
FF
01
FF
FF
00
01
02
01
00
FE
FF
01
01
FE
00
01
01
00
01
FE
00
FF
00
01
00
00
01
00
FF
FF
00
00
01
00
00
FF
01
00
00
FE
00
01
FF
00
FF
01
FF
FE
FE
FF
01
FF
FF
FF
FF
FE
01
02
01
FF
00
FF
FF
FE
FF
00
00
00
00
01
FF
00
FF
00
00
00
01
00
00
FF
00
01
01
00
01
00
00
01
FF
00
FF
FE
FF
FF
FF
00
FE
00
00
00
FF
FF
FF
FF
01
FF
FE
FF
00
00
01
00
FE
00
00
FF
FF
02
00
00
01
01
01
FE
00
00
02
00
00
02
00
02
02
04
01
00
04
FD
FF
01
00
01
00
00
FF
01
FE
00
FD
03
00
00
04
FE
FF
03
00
00
00
00
00
FF
FF
FF
FD
00
00
01
02
FE
FF
02
02
00
00
01
FE
FC
00
FF
FF
00
FF
01
00
00
FF
FE
01
02
01
01
01
00
FF
00
FF
01
00
02
01
FF
02
01
03
00
00
01
FF
01
01
FF
FF
02
01
FF
02
01
01
01
01
00
01
00
01
01
01
00
00
FF
01
01
00
FF
FE
00
02
01
02
01
03
00
02
FF
00
01
01
00
FF
02
FF
FF
00
01
01
FF
00
FF
02
FE
01
FF
FF
FF
00
02
00
FF
FF
03
00
00
00
00
00
00
01
02
00
FF
02
01
00
00
00
00
00
00
00
00
01
01
02
FF
01
00
00
00
00
FF
01
01
01
FF
02
00
03
FF
00
FF
01
FE
FF
00
00
00
01
01
01
01
FE
FE
FF
00
00
FD
01
FF
00
00
01
FF
00
01
FE
00
FF
FE
FF
FE
01
00
00
FE
00
00
00
FF
FF
01
01
FF
FF
00
00
00
01
00
02
FF
00
01
00
00
00
01
FF
FF
FF
FF
FE
01
FF
00
00
FF
01
00
00
00
00
02
FE
01
FF
FF
00
01
00
FF
FE
FF
00
FF
02
FE
FE
01
00
FE
FF
FF
FF
00
00
FD
FE
FF
02
00
00
FE
02
00
01
00
FF
01
FF
00
FF
01
01
FE
FF
00
FF
FF
02
01
FF
00
FF
FE
FF
FF
01
00
FF
FE
01
00
00
FE
FE
03
FE
00
00
FF
00
01
FF
00
FD
00
FF
FF
00
FF
02
00
00
01
FE
FE
00
00
00
FF
00
FF
01
FF
FF
FE
01
00
00
02
FF
00
FF
00
00
01
00
FD
FE
01
00
FE
00
01
01
FF
01
FF
00
00
00
00
FF
00
00
FF
00
00
FF
01
01
00
00
FF
FF
00
FF
00
FF
00
00
01
FF
FF
00
FF
02
FF
FF
FE
00
FE
01
01
00
00
00
00
01
FF
00
01
FF
00
FE
00
FF
FD
00
01
01
00
FF
FF
00
FF
FF
FF
00
FE
FF
01
00
00
00
FE
00
00
00
01
FE
01
00
01
00
00
00
FE
00
FE
FF
FF
01
00
01
00
00
FF
01
00
00
FF
00
01
FF
FF
FE
00
00
FF
00
00
FF
00
00
01
FF
FE
FF
FF
00
FF
FF
FF
FF
01
00
FE
00
00
00
00
02
01
00
00
01
02
FF
FF
FF
01
00
00
FF
01
FF
01
FF
00
02
01
01
FF
00
FC
00
00
01
01
00
FE
FF
00
00
FE
01
01
01
00
01
FF
00
00
FF
FF
00
00
FF
00
01
01
01
01
01
00
00
00
01
00
01
00
01
01
FF
FF
00
FF
00
01
02
FF
FF
01
FF
01
00
00
00
00
FF
00
FF
FC
00
00
01
FF
FF
FE
00
FF
02
00
00
FF
02
FF
FE
00
01
00
FF
01
00
00
00
01
FF
FF
01
00
00
00
FF
02
02
02
00
01
00
01
FF
00
01
02
02
00
FF
FF
00
01
02
00
03
FF
00
FF
FE
FF
00
01
01
00
FF
FE
00
FD
01
00
01
FE
FD
01
FC
00
03
FE
00
01
FF
FF
00
FF
01
00
02
00
FE
FF
FD
00
00
01
FF
FF
FF
01
00
FF
02
01
01
FF
FE
FF
01
01
FF
00
00
02
FF
00
00
FF
FF
FF
FF
00
00
00
FF
FF
00
00
FF
FF
FD
FE
FD
01
FF
FF
FF
03
FE
02
FF
02
FF
00
00
01
FE
03
FF
02
FE
FF
00
02
FF
00
FE
00
FE
01
00
01
00
01
00
01
FE
00
00
00
01
01
01
FF
01
00
01
FF
00
01
FF
02
FF
00
FF
00
00
00
01
00
00
FF
00
FE
FF
00
00
00
00
FF
00
FF
00
00
00
00
00
FF
FF
FF
00
00
FF
FF
FF
00
00
00
00
00
00
00
FF
00
FF
00
FF
00
FF
FF
FF
01
FF
FF
FF
FF
00
01
FF
00
00
00
00
00
FF
FF
01
FF
00
00
FF
FF
FF
00
01
FF
01
FF
00
00
FF
FF
FF
01
00
FF
00
00
00
00
01
00
01
FF
00
00
00
00
01
FF
01
01
FF
00
FF
00
FF
FF
FF
00
01
FF
00
FF
FF
FF
01
00
01
FF
FF
00
00
01
FF
00
00
FF
00
FF
FF
FF
FF
01
00
00
FF
00
00
00
FF
00
FF
FF
00
01
01
FF
FF
00
00
FF
01
00
00
00
00
00
00
00
00
00
FF
00
00
00
FF
00
01
00
00
00
01
01
00
01
00
00
00
FF
FF
FF
FF
FF
00
00
01
FF
00
00
00
FF
00
01
00
00
01
FF
FF
00
00
00
FF
00
00
FF
01
01
00
01
FF
01
00
00
FF
00
00
00
FF
FF
00
FF
00
FF
00
00
00
00
00
FF
01
FF
FF
00
00
FF
01
00
00
00
FF
00
01
00
00
FF
00
01
00
00
01
FF
FF
FF
01
00
00
00
00
FF
01
00
FF
FF
FF
00
00
00
00
00
FF
FE
FF
FE
01
01
01
01
00
FF
FF
02
FF
02
01
00
FF
00
00
00
FF
01
01
FF
01
03
FF
00
00
FF
02
00
01
01
03
FF
00
00
01
01
01
02
03
01
01
FF
01
FF
01
02
03
01
FF
FF
FD
00
00
02
00
00
01
FF
02
FF
FF
02
FD
FD
00
FF
01
FF
FF
01
FE
FF
01
02
02
FF
FE
FF
00
FD
00
00
01
01
02
FF
FF
00
FF
00
00
00
01
FF
FF
00
00
00
00
01
00
00
00
02
FE
03
01
FF
00
01
FF
00
01
00
FF
00
01
00
FF
02
FF
01
01
FF
FE
FF
00
FD
FE
FF
01
FE
FD
01
FD
00
02
FF
00
00
00
FE
00
FD
00
01
FF
00
FE
FE
00
00
01
02
FF
01
00
01
00
FF
01
00
00
00
00
00
FF
01
FF
01
00
01
FF
FF
00
FF
00
00
FF
FF
FF
00
00
00
01
FF
01
00
FF
FE
FF
FF
00
00
00
01
FE
01
FF
01
01
FF
FE
00
FE
00
01
01
FF
00
01
00
00
FF
01
01
FE
FF
00
FF
00
01
00
01
00
01
FF
00
FF
FF
01
FF
00
01
00
00
FF
01
FF
01
00
FF
FF
FF
01
FF
01
FE
FF
01
01
FF
FC
00
FF
FE
FB
FC
FE
FE
FF
00
FD
FE
01
FC
00
FF
00
00
02
FF
FE
FF
FD
FF
00
FF
FF
FF
00
FF
FF
FE
02
00
00
00
FD
00
FC
00
00
00
01
FE
02
01
FF
FE
02
01
00
02
FF
00
FF
FF
FE
00
02
FE
FF
01
01
00
FE
FF
00
00
FF
FE
FF
FE
00
01
00
01
FF
00
FF
FF
01
FD
02
01
FF
FF
FF
FE
01
00
00
FF
FF
00
00
FE
02
00
02
01
FF
FF
FF
FD
00
02
01
FE
01
00
01
FF
01
01
03
00
00
FE
FF
FF
FD
01
FE
FE
00
00
FF
01
00
FF
00
00
FF
FF
FF
FF
01
FE
FF
00
00
00
FF
FE
FF
03
00
01
00
FE
00
FF
00
01
00
FD
FF
01
02
FE
00
01
00
FF
FE
FF
FF
FA
00
01
FF
FE
01
FF
02
FF
01
01
01
FF
FF
00
00
FE
00
FE
01
FE
00
FF
FE
FE
00
01
00
01
FF
00
FF
FF
02
01
01
00
01
00
00
00
01
02
00
00
00
01
00
FF
FF
00
01
FE
01
00
01
01
01
00
02
FF
FF
00
00
FF
FD
00
00
01
00
FE
FF
FE
00
FE
00
00
00
FF
FE
01
FF
FE
FF
FF
00
FF
FF
00
02
FF
01
01
00
01
FF
00
FF
03
00
00
FF
00
00
00
00
FF
01
01
00
FF
00
00
02
00
00
00
FF
01
01
00
01
00
02
00
00
00
00
00
FF
02
01
01
00
01
01
FF
03
00
01
01
00
00
FE
FF
FF
01
02
FF
00
00
01
01
00
01
00
FF
01
01
01
00
01
01
01
00
FE
FE
02
00
00
00
00
01
01
00
00
00
FE
01
00
00
00
00
FF
FE
02
00
00
FF
FE
00
01
FC
01
01
01
00
00
FF
02
00
00
01
FF
00
FF
00
00
FE
FF
00
00
00
02
FF
00
FE
00
01
FF
FF
00
00
01
FF
01
00
00
00
00
FF
00
00
00
00
01
FF
00
00
01
00
FE
FF
00
01
01
FF
00
00
01
FF
FE
FF
02
00
00
00
FE
FF
01
01
00
FF
FF
00
FE
FF
01
FE
02
01
FF
FF
FE
00
FF
00
01
00
FE
FE
FD
FF
FE
00
00
01
01
01
01
FF
01
FF
FF
FF
00
FF
FF
00
01
FF
FF
01
FE
00
FF
FF
00
FF
01
FF
FF
FF
01
FF
FF
FE
00
01
FF
00
FF
FE
00
02
01
00
FF
FF
00
FE
FD
00
00
FF
FF
01
00
01
00
00
FF
00
00
FF
FF
FE
01
FE
FE
FE
FF
FF
00
FE
00
00
00
FE
FD
FF
01
FF
02
00
FF
01
00
00
00
FF
02
00
FF
01
FF
FF
01
FF
02
00
00
01
FF
00
00
01
00
FE
01
02
01
01
01
00
00
00
00
00
FF
01
00
00
01
01
00
01
00
00
00
FE
01
FF
FF
FF
01
FF
FF
01
00
FF
01
02
FF
FF
01
00
02
00
FD
FF
FE
00
02
00
01
FF
FF
02
00
FD
01
FF
00
00
FC
FF
FE
FD
02
00
01
FD
00
00
FF
FF
00
01
00
00
00
01
FE
FF
FE
00
00
FE
01
00
00
00
FF
FF
00
00
FF
FF
00
FF
FF
01
00
00
00
00
00
FE
02
02
00
02
FF
00
01
FD
FE
FF
01
FE
FE
FF
02
FF
01
02
FE
00
FF
FF
FE
FF
FF
01
01
FF
FF
00
FF
FF
01
00
00
FF
FF
00
FF
FE
00
FE
FF
FE
01
FF
00
FF
FF
01
00
00
FF
FF
00
00
00
01
00
00
FF
FF
FF
01
00
FF
01
00
FF
FF
FF
FF
01
00
00
02
FF
FF
00
01
FF
00
FF
01
00
00
FF
FF
FF
00
01
01
01
FF
01
FD
01
FF
00
FE
FE
FF
FD
FF
FF
00
FF
FE
00
FE
FE
FF
01
02
00
00
01
FF
01
01
00
FE
FF
01
FE
02
01
FF
00
00
00
00
00
01
01
01
00
00
00
00
FF
01
01
00
00
FE
FF
00
00
00
FF
01
02
FF
FF
00
01
02
00
FF
FE
FF
FF
FF
FF
01
01
01
01
01
01
00
00
FE
FE
01
00
01
00
FF
01
FF
00
00
00
FE
FF
01
FF
FF
FF
FF
01
00
00
FF
02
00
00
01
FE
FF
00
00
00
00
01
FE
00
02
FF
00
00
00
01
01
01
00
01
00
02
FE
FF
00
01
FF
00
00
FF
00
FF
FF
00
01
01
00
01
FF
FE
00
01
00
00
02
00
00
FE
00
01
FD
02
FF
FE
01
FF
FF
FF
00
01
02
00
FE
00
01
00
01
00
00
FF
00
FF
00
01
01
02
01
FF
00
00
FF
FF
01
00
00
FF
FF
00
FF
01
01
00
00
FF
00
01
00
FF
FF
FF
01
FF
01
01
00
02
FF
01
02
00
01
00
FF
00
00
01
FF
FF
00
00
00
01
00
FF
00
00
FF
01
00
FF
00
FF
01
FF
01
02
FF
01
01
FE
00
00
00
02
FE
00
FF
00
01
00
00
00
02
FF
00
FE
FE
01
01
02
02
00
FE
FD
03
00
FF
FF
01
00
00
00
00
00
00
00
00
FF
00
00
00
00
FF
01
FF
FF
00
FF
FF
00
01
00
FF
FF
00
FF
00
01
FF
00
FF
FF
00
01
00
01
FF
01
00
01
FF
00
FF
FF
00
FF
01
00
00
FF
FF
FF
FF
FF
00
01
00
00
00
00
01
00
00
00
01
00
FF
FF
FF
FF
01
FF
01
00
00
FF
FF
00
00
00
00
FF
00
00
FF
FF
FF
00
00
00
00
00
00
00
00
FF
00
00
FF
FF
00
00
FF
FF
00
00
FF
FF
FF
FF
FF
00
FF
FF
00
01
00
00
00
FF
00
FF
00
FF
FF
00
FF
00
01
00
00
00
01
01
FF
00
00
FF
00
00
FF
01
00
00
00
01
00
FF
FF
00
FF
00
00
FF
00
00
01
01
00
00
FF
00
FF
00
00
FF
00
00
01
01
00
00
00
FF
FF
FF
00
00
FF
FF
00
01
00
FF
00
00
FF
FF
00
FF
FF
01
00
00
00
00
00
FF
01
FF
FF
FF
00
00
00
FF
FF
00
00
00
01
01
00
00
FF
FF
01
00
FF
FF
00
FF
00
00
FF
01
00
FF
FF
FF
00
FF
00
01
00
00
00
FF
00
01
FF
FF
00
FF
00
01
00
FF
00
FF
00
FF
00
00
00
01
01
01
00
00
01
00
00
FF
01
01
FF
02
00
01
00
01
04
00
FF
FF
00
00
FE
FE
03
01
FF
02
FE
00
FE
02
02
01
00
FD
FD
FF
FE
FF
01
00
FF
00
FE
FF
FE
01
03
01
02
FC
FC
FF
FF
FF
00
FF
00
FF
01
FF
00
01
03
FF
00
00
01
01
FE
00
00
01
00
01
00
FF
00
00
FF
00
FF
00
01
01
FE
01
01
01
00
00
00
00
FF
01
01
01
01
FF
00
FE
00
00
FF
FF
01
00
FF
FF
00
01
00
02
02
02
FF
FF
01
00
00
FF
02
FF
01
00
00
FF
01
01
FF
FF
01
FF
00
00
00
00
FF
01
01
00
FF
00
00
01
01
FF
00
01
FE
FF
00
02
00
00
01
01
01
00
00
01
00
FF
01
00
FF
02
FE
00
01
FF
00
01
00
00
00
FE
00
01
FE
00
FF
01
00
FF
00
00
00
01
00
FF
FF
01
00
01
FF
00
FF
00
FF
02
00
FF
00
00
FF
02
01
00
00
01
00
00
FE
00
FF
01
FF
FF
01
01
FF
FF
FF
FF
00
01
00
01
00
FF
FF
FF
FF
FF
FF
01
02
FF
FF
FF
FE
01
00
01
00
FE
FF
FF
FF
01
FF
00
01
00
01
00
FF
01
02
FF
01
00
01
00
01
00
01
02
00
00
03
FF
FF
00
00
02
FF
FF
FF
FF
01
00
00
00
00
FF
02
00
00
01
FE
01
00
00
00
01
FF
01
01
01
FF
FF
00
00
00
01
00
00
01
00
00
FF
FF
01
01
00
FF
00
01
FF
FE
00
01
FF
01
01
FE
FF
00
00
00
02
00
FE
00
00
FD
00
00
01
01
FF
00
00
FF
02
FE
00
FF
00
00
00
FF
FE
FF
01
FF
FF
01
00
01
01
00
FF
00
00
FF
00
01
FF
FF
FF
01
01
FF
FF
01
00
02
FF
00
FE
02
FE
00
FF
01
00
FF
01
01
FF
01
01
01
00
FD
00
00
02
FE
FF
FF
00
00
01
00
00
00
01
00
FF
FF
01
00
01
FE
00
00
00
00
00
02
02
01
00
FF
FF
00
01
00
FF
00
02
FF
00
00
00
01
FE
01
FF
00
00
00
FD
FF
01
00
00
01
00
01
00
FF
FF
00
FF
02
FE
00
FF
00
01
FE
00
FF
01
01
FF
01
01
01
00
01
FF
00
02
FF
01
FE
01
01
FF
FF
00
00
01
00
00
00
01
FE
00
FF
FD
00
01
00
00
01
FF
FF
00
00
01
FE
FF
01
FF
FD
FF
00
FE
00
00
00
00
02
00
02
03
FE
FF
01
00
FF
00
01
FF
01
FF
FF
01
00
01
FF
02
00
00
01
FF
00
FE
FF
01
00
FF
00
FF
01
FF
01
00
00
00
01
02
01
01
FF
00
FF
02
FE
FF
FE
01
01
FF
01
FF
01
00
FF
01
FE
02
00
01
FE
00
FF
00
01
00
01
01
02
01
FF
00
FF
00
02
FF
00
00
00
00
FF
01
01
01
FF
00
00
02
FF
00
00
00
00
00
FF
01
00
00
FF
00
00
02
00
01
00
02
FF
03
00
FF
FE
00
FF
FF
00
FF
01
FF
FF
FF
FE
FE
FF
01
02
00
FF
FF
FF
FF
FF
FF
00
00
01
01
FF
FF
01
01
01
00
00
00
FF
FE
FE
00
FF
00
FF
00
01
FF
00
FF
FF
FF
01
01
00
01
00
FF
00
FF
02
00
FF
01
FF
01
00
00
FE
FF
00
FF
00
FF
FE
00
01
01
00
FF
00
00
01
01
FF
FF
02
FD
03
01
01
00
01
FF
00
00
01
FE
00
01
01
00
02
FF
01
01
02
00
FF
FE
00
FF
01
FD
00
01
02
00
00
00
FF
00
FF
01
FE
FF
00
00
01
FF
01
00
01
00
01
00
00
01
00
00
02
01
01
FF
FE
FE
FF
00
FE
01
00
FF
01
00
FF
FF
FF
00
00
01
FE
FE
00
FF
00
00
FF
01
00
FF
FF
01
00
01
01
00
FE
FF
FF
FF
00
FE
FF
01
FF
FF
01
FF
FF
00
01
01
FF
01
00
00
FE
FF
01
00
01
FF
00
01
FF
01
01
00
00
FD
FF
01
00
00
00
00
00
FF
00
00
00
01
01
FF
FE
FF
FE
01
00
00
FF
00
FF
00
00
FF
00
01
00
00
00
00
01
01
00
00
00
00
00
00
00
FF
FE
FF
FF
01
01
01
02
00
01
00
FF
01
FE
00
02
01
FF
00
FF
00
02
00
00
01
01
FF
00
02
FF
FF
00
00
FF
00
FD
01
00
00
FF
00
00
00
00
00
FF
00
01
00
FF
00
00
00
FF
FF
00
00
FF
FF
01
00
01
01
00
FF
00
FF
00
FF
01
01
00
02
02
01
FE
FF
FF
00
00
00
FC
00
FE
01
02
01
00
01
FF
FF
01
00
FF
FF
01
FF
FE
FE
FF
02
00
01
02
00
00
00
00
FE
00
00
01
FF
01
FF
00
00
00
02
00
01
01
00
01
00
00
01
02
FE
00
FF
00
00
FF
FF
FF
FF
02
FF
02
00
01
00
FF
00
00
FF
FF
01
01
FF
FF
01
01
FF
FF
FF
01
FF
00
FF
FF
00
FF
00
FF
00
FF
FF
FF
00
00
FF
FF
01
FF
01
FF
00
00
00
00
01
00
00
00
FF
FF
FF
00
FF
00
00
FF
00
00
FF
00
00
01
00
FF
00
FF
00
00
FF
00
FF
00
01
00
00
FF
01
00
00
01
FF
01
00
01
00
FF
00
FF
01
00
FF
00
FF
00
01
01
FF
01
00
01
FF
00
FF
00
00
00
FF
FF
00
FF
00
00
FF
00
00
00
FF
FF
00
01
01
FF
00
FF
00
01
01
FF
FF
00
FF
00
00
FF
FF
01
00
00
01
FF
00
FF
FF
FF
FF
FF
01
00
00
00
FF
00
00
00
01
FF
00
00
00
FF
00
00
01
FF
00
FF
00
FF
01
FF
01
FF
01
FF
FF
FF
FF
00
FF
FF
00
00
01
FF
01
00
00
00
FF
FF
FF
FF
FF
FF
FF
00
00
FF
00
00
00
FF
FF
00
00
00
FF
00
FF
00
00
FF
FF
00
01
00
FF
00
00
00
00
FF
FF
00
FF
00
01
00
00
00
FF
FF
00
FF
FF
FF
00
FF
FF
FF
00
FF
00
FF
FF
FF
00
01
FF
00
00
00
01
FF
00
01
FF
FF
FF
00
00
FF
FF
00
FE
00
00
00
02
FF
01
02
FE
00
FF
00
00
FE
00
FE
01
FE
FE
01
FF
FF
03
02
01
00
01
FF
01
FF
01
01
01
01
FF
00
00
FF
FF
03
02
FF
02
FF
01
00
03
01
01
01
FE
01
FD
FE
FE
00
00
00
00
FF
FF
00
FD
01
FE
FE
00
FF
02
01
01
02
01
FF
FF
02
FF
FF
01
FF
00
01
FF
00
00
00
01
FF
FF
00
FC
02
01
00
FF
01
01
00
01
00
FF
00
00
00
01
01
FF
00
02
FF
00
01
00
FE
00
FE
FF
FF
01
FF
FF
01
00
FE
00
00
FF
FF
FF
00
FF
FF
FF
FF
00
00
00
FF
00
01
01
FE
FF
01
00
FF
00
FF
01
00
01
FE
00
FF
02
00
01
00
FF
00
FF
FE
00
01
01
01
00
00
00
FE
01
FE
FF
00
FF
FF
00
FF
00
00
00
00
00
00
02
00
01
00
FE
01
01
01
FF
00
FF
FF
01
00
00
01
00
01
00
FF
00
00
FF
01
FF
01
00
FF
00
01
FE
00
FF
00
02
00
00
02
01
00
FF
00
00
02
00
FF
00
00
00
00
00
00
00
00
01
FF
01
01
01
00
FF
00
FF
00
02
01
00
00
FF
00
FE
01
FF
FF
00
00
00
00
FF
00
FE
01
01
00
FF
FF
FD
01
00
FE
01
01
FF
00
FE
FF
FC
01
02
00
01
00
FF
02
02
FE
02
01
01
00
00
FF
FF
00
FF
FE
FF
00
01
01
02
02
FF
00
00
00
00
00
02
01
00
01
01
FF
FF
FF
FD
FF
01
00
FF
01
FF
00
FE
FF
FE
FF
00
00
FE
FE
FF
00
FF
FD
00
00
FF
00
FF
00
FF
FF
00
FD
01
01
02
01
FF
FE
01
00
00
FF
00
FE
00
01
00
FE
01
00
01
00
01
FF
FF
FF
FF
01
01
FF
FE
00
00
00
FF
00
00
00
FF
FF
FE
02
01
00
00
01
00
00
00
FE
FF
00
00
01
01
FF
FE
00
FF
00
FF
FF
03
02
01
FE
00
00
00
00
00
FD
00
00
FF
FF
FE
FE
FF
01
02
00
FF
FF
00
FF
FF
FE
00
FE
01
00
00
FF
FF
FF
01
FE
00
00
02
02
FF
00
00
FE
FF
00
00
FF
FE
01
01
FF
FF
01
00
00
FF
FD
01
FD
FE
00
00
FE
01
00
01
00
00
00
00
FF
FF
FE
FF
FE
FF
FF
00
00
00
FF
FF
FF
00
00
FE
00
FE
00
FF
FF
FE
FF
FF
FD
FE
01
00
FF
00
00
FF
01
FE
FF
00
00
00
FE
00
00
FD
03
00
01
00
FE
00
00
00
01
01
02
02
FE
01
00
FD
01
01
02
FE
FE
00
00
01
01
00
02
00
00
00
01
FF
01
02
01
FD
FF
FF
FF
02
02
00
02
01
00
FF
FF
00
FF
01
FF
FF
00
01
FF
FF
FF
00
01
00
FF
00
FF
00
FF
FF
01
00
FF
FF
00
01
00
FF
FF
00
00
00
00
00
00
00
01
00
00
FF
00
00
01
FF
00
00
01
FF
FF
FF
00
02
01
FF
FE
FF
00
FE
00
02
00
01
01
01
FF
00
FE
00
00
00
01
00
FF
FF
01
00
FF
FF
02
FF
00
02
FD
FF
01
00
00
00
00
00
01
00
FF
FF
00
FF
00
FF
FF
00
00
00
02
00
00
00
FF
01
FE
00
FF
01
FF
00
01
01
00
01
01
03
00
FC
FF
FE
FE
01
01
FF
FE
00
01
02
FF
FF
FE
FF
01
00
01
00
00
01
02
FF
01
00
FF
00
00
FF
FF
00
01
01
00
01
00
00
01
00
FF
FF
00
00
FE
00
02
00
01
FF
FF
FF
FE
FF
FF
01
FF
01
00
FF
00
00
00
00
01
FF
00
FF
FF
FF
00
01
00
01
01
FE
FF
01
01
FF
01
FD
00
FF
FE
FE
01
02
FD
FF
00
FF
00
02
01
FF
FF
FF
FF
FD
FF
02
00
FF
FF
00
FF
00
FF
00
00
01
00
FC
FF
FF
01
00
00
00
FF
00
00
00
FF
00
01
01
00
FE
00
FD
00
FF
02
01
00
FF
FF
00
01
00
FE
00
00
FF
02
00
00
FF
00
00
FF
00
FE
00
01
00
FD
00
01
03
01
01
FE
01
FF
01
01
FF
FE
00
01
FE
01
00
00
02
01
FE
FF
01
03
01
00
FE
FF
01
FF
01
FF
00
FF
FF
01
01
FF
FE
01
00
00
01
FF
02
00
00
00
01
02
00
01
FE
01
00
FE
01
FF
FF
FF
00
01
00
FF
01
02
01
00
02
00
01
00
00
00
00
01
01
00
00
01
FF
00
02
01
00
FF
FF
FF
01
FE
02
01
01
FE
00
01
00
FE
FF
FF
FF
FF
FF
FF
FF
FD
01
00
FF
00
00
01
01
01
FF
00
01
01
FF
01
01
FF
00
00
00
FF
01
01
00
00
FF
FF
FE
00
01
00
00
00
01
00
FF
FF
02
02
FF
FF
FF
00
FF
00
FE
00
00
01
00
00
FE
00
FF
01
01
00
FE
00
FE
FF
FF
01
FE
00
00
00
FF
FF
FE
01
00
00
00
01
01
00
00
03
01
FF
02
FE
FF
00
01
00
02
00
FF
00
00
FE
FF
02
00
00
02
FE
00
FF
01
00
FF
00
FE
FE
FF
FE
00
01
00
FF
00
FE
FE
FE
02
01
01
01
FD
FD
FE
FD
00
01
01
FF
00
00
FF
FF
FF
00
01
02
FF
01
00
FF
00
03
01
00
00
FF
01
00
02
01
FF
02
00
01
01
00
FF
01
00
FF
01
00
00
01
01
FF
01
FE
01
01
02
FF
FF
00
FF
02
FF
FF
FF
00
01
00
01
01
00
FF
FE
FC
FE
00
01
01
01
00
FF
00
FF
01
00
03
00
01
01
00
01
01
FF
01
01
02
01
FF
FF
00
FF
00
01
01
01
00
02
FF
00
01
01
FF
FF
00
01
00
00
FF
02
00
00
FF
FF
FF
00
00
FF
00
FF
00
01
FF
00
00
02
01
00
00
01
FF
00
02
00
00
FF
00
00
01
00
00
01
FF
00
FF
01
FF
01
FF
00
00
00
00
00
01
00
00
FF
00
FF
00
00
FF
01
FE
01
00
00
FF
01
01
01
FE
00
00
00
00
02
FE
00
FE
FF
FF
00
00
02
FF
FE
FE
01
00
FF
FF
00
FF
00
FF
01
FE
FF
00
FF
03
00
00
01
FE
FD
00
FF
FF
FF
FF
FD
00
01
FF
00
02
00
00
00
FE
00
FE
FF
00
FF
FF
00
00
01
00
00
03
02
01
FE
01
01
FE
00
00
00
FF
00
01
01
00
01
01
00
FF
00
02
01
00
01
00
FF
00
01
00
00
00
01
02
01
01
00
FE
FC
FE
00
FF
01
FF
FD
02
00
FE
FF
01
00
00
FE
FC
00
FF
FF
01
00
FF
00
00
FF
FF
00
01
01
02
00
00
00
01
FF
00
00
00
01
00
FE
FF
01
FF
00
FE
00
00
FF
01
01
00
FF
01
00
FF
FF
01
01
01
01
FF
FE
00
FE
FF
01
FF
02
00
01
FF
FF
FF
FF
00
FE
FF
FF
FE
FE
FF
01
01
01
00
02
00
FF
FF
01
01
FF
00
00
00
FE
01
01
01
FE
FE
00
00
00
02
00
00
01
00
FF
FF
FD
00
01
00
FF
FF
FF
01
01
02
01
FF
01
FF
01
02
00
00
01
01
00
00
01
FF
FF
00
02
FE
00
FE
01
01
FF
FF
00
00
00
01
02
01
00
00
FD
01
FF
FF
00
FF
00
FF
01
01
FF
00
FF
FF
01
00
FF
00
FF
FF
01
00
00
00
01
FF
FF
00
00
01
01
00
01
01
01
00
00
00
01
00
00
FF
00
00
01
01
01
00
01
01
00
00
02
00
01
00
FF
00
01
00
FF
01
01
01
FE
FE
00
00
00
01
01
00
00
FE
00
01
FD
00
00
01
01
FF
00
FE
02
02
FF
00
00
FF
01
01
FF
FF
FF
01
FF
01
00
FF
FF
FF
01
00
FE
00
00
00
00
00
00
00
00
01
01
FF
FE
FF
00
00
FF
FF
00
FF
FF
01
00
FF
FF
FF
00
01
FF
01
00
FF
02
FF
00
00
FF
00
01
FF
00
01
01
02
FF
00
FE
FE
00
00
01
FF
00
01
01
FE
FF
00
01
01
FF
FF
01
FF
00
FF
01
00
00
02
FF
00
01
00
01
01
01
FF
00
00
FF
FF
01
FF
FF
01
FF
02
FF
00
FE
00
01
02
00
01
FF
FF
FE
FF
FE
01
02
01
FD
00
FE
FE
02
FF
00
02
00
FF
FF
01
00
00
FF
01
00
00
FF
00
FF
FF
FF
00
FF
01
FF
01
01
01
FF
01
FF
FE
00
FF
FF
00
FF
00
01
00
00
01
01
FF
00
00
FE
FE
FF
FE
FE
03
FE
02
02
01
FF
01
00
FF
FE
00
FF
FE
03
FF
FF
02
FF
01
02
01
02
01
02
00
00
01
00
01
00
01
FF
FF
00
01
00
00
00
00
00
FF
FF
FF
01
00
FF
00
FF
00
01
FF
00
00
FF
01
01
01
FF
00
01
00
FF
00
00
01
FF
FF
00
FF
01
FF
00
00
00
01
FF
FF
FF
FF
00
00
FF
01
FF
FF
00
00
00
01
00
FF
FF
01
00
00
01
00
FF
00
01
00
00
00
FF
00
FF
FF
00
FF
00
00
00
FF
FF
00
00
FF
00
00
01
FF
00
FF
01
FF
00
00
FF
FF
00
00
00
FF
00
FF
FF
01
00
01
01
FF
00
01
FF
01
00
FF
00
FF
FF
FF
00
FF
00
00
00
00
FF
00
01
00
00
00
FF
01
00
FF
FF
00
01
FF
00
01
01
FF
FF
00
FF
00
01
00
00
00
01
FF
00
00
FF
FF
FF
00
FF
00
00
00
00
00
FF
00
00
FF
FF
00
00
00
01
00
00
FF
00
00
FF
00
00
00
00
00
00
01
FF
01
00
FF
00
00
FF
01
FF
01
00
00
00
00
FF
FF
FF
FF
00
01
00
FF
00
FF
00
FF
00
00
FF
00
00
00
01
FF
00
00
01
00
00
00
00
00
FF
FF
00
00
01
FF
FF
00
FF
FF
FF
FF
00
01
00
FF
01
00
00
FF
FF
00
FF
01
FF
FE
00
00
01
FF
01
FE
FE
01
01
00
01
FF
FE
00
00
FF
00
01
01
02
00
00
FF
01
00
01
FF
00
FE
02
01
00
00
02
02
00
01
01
01
01
FE
01
01
00
FE
01
02
01
00
00
00
01
00
01
01
00
00
FF
00
FD
FF
02
FE
FF
01
FE
00
FF
00
00
FF
FF
01
00
00
00
FE
00
00
FF
FF
00
FF
FF
01
00
FF
00
01
00
FF
FF
02
00
01
02
01
00
01
00
FF
00
01
00
FE
02
01
00
00
00
00
01
00
00
FE
02
00
01
00
00
01
02
01
FF
FF
01
FE
FE
01
FF
FF
FE
FE
00
FF
01
02
00
00
00
00
00
02
FF
01
FF
FF
FE
FE
FF
FE
00
00
01
FF
00
01
00
01
01
00
00
00
01
00
00
00
FE
FF
01
00
00
00
00
00
FF
FF
FF
FF
FF
00
00
00
FE
01
00
01
00
00
00
00
00
00
00
FF
00
FF
00
FF
00
01
FF
FE
00
FF
00
02
03
00
00
01
01
FD
FF
00
FF
FF
00
00
00
01
00
02
01
01
00
00
00
00
FF
01
FE
01
00
FF
FF
00
01
FE
00
00
01
00
FF
00
FF
00
FF
00
00
01
FF
00
FF
00
FF
FF
FE
FF
FD
FE
00
FF
00
02
FE
FF
FF
03
02
02
00
01
00
FD
FE
FF
00
00
FF
FE
01
00
00
00
00
00
01
FF
FF
FE
FF
FF
FF
00
00
01
00
FF
00
01
01
FE
01
03
FE
02
00
00
FE
FF
02
FF
01
FF
01
FF
FF
00
00
00
FE
00
FE
FF
FF
00
01
FF
00
FF
FF
02
FF
00
01
01
FF
00
FE
00
FF
01
01
FE
FF
FF
01
00
01
01
01
00
01
00
00
01
01
01
00
00
FF
00
FF
FF
FF
FF
FF
00
FE
02
02
00
00
FF
FE
01
00
FE
FF
00
00
FF
FF
00
00
FE
01
01
01
FF
FF
02
FF
00
01
01
00
02
FF
FE
FE
FF
FF
01
00
01
01
FF
FE
01
01
01
01
02
01
FF
FF
FF
FF
00
01
01
FF
00
00
00
00
00
00
FF
00
FE
FF
00
00
00
02
01
FF
01
FE
00
FF
FF
00
FF
FE
00
01
01
01
01
01
00
02
FD
00
01
00
00
00
01
00
01
00
00
01
FF
00
FF
00
01
00
02
FF
01
FF
02
00
00
FF
FF
FE
FF
00
01
00
00
01
01
FF
00
00
00
00
FF
00
FF
FF
FF
00
00
00
00
FD
00
00
