FD
F1
F2
05
00
14
03
09
F4
07
EB
07
DE
FC
00
FE
06
F6
F8
08
EF
EC
FD
F9
EE
11
0C
FD
EF
FB
00
17
0D
05
FB
0A
03
03
FC
17
EB
17
EF
11
FE
0C
F2
FB
10
FD
06
01
01
0C
EB
05
E5
09
F1
07
FD
EA
04
F6
FF
FA
02
04
F8
06
F2
F8
05
04
0E
04
F3
F6
0B
0B
01
08
0A
01
0A
03
17
F7
06
FB
EA
F9
12
F4
F2
1A
F1
E4
04
F1
0D
0F
19
F6
0B
04
FC
08
F8
FB
FE
0E
F9
EA
F6
FD
FA
18
01
14
12
1F
1F
16
01
04
F6
08
FE
F9
09
EB
0F
07
0D
EF
03
16
E6
FF
FD
FE
12
09
EE
E5
00
F0
08
0B
0A
10
20
FA
D3
19
F9
FD
09
03
12
05
01
FA
1A
FC
08
ED
02
05
06
0A
E9
0C
00
F2
17
E5
19
FA
F9
F5
EF
FA
04
09
0E
EB
F3
0C
03
07
DD
01
0D
1F
F3
EE
02
F0
14
DF
0F
D0
F7
FC
FE
DB
ED
00
25
11
F4
E8
0A
ED
08
03
11
C0
03
0C
08
E5
1B
1C
3A
DF
F7
E2
F0
E8
0A
EE
30
B9
13
02
F0
09
20
17
D6
D6
EE
F9
EA
E4
E1
E9
0A
CA
05
FC
E3
0D
EB
11
E1
00
08
E1
08
F0
1B
CD
FA
F0
0C
E8
07
F7
15
07
FC
03
05
FF
1B
F8
E1
05
F9
10
FD
08
F4
11
EA
2A
09
10
16
13
1B
FF
18
F6
ED
1D
DA
1D
FC
0A
EE
0E
0D
E5
05
06
04
12
12
00
FA
0A
06
E8
FD
08
14
F2
E9
EC
0C
F0
0B
EF
EE
FA
01
EE
05
09
F7
03
04
06
EB
ED
FC
E3
F1
FB
06
FE
02
FE
C7
04
D3
E0
F3
0D
1E
16
FF
FC
FF
12
ED
0A
F6
FB
E8
09
04
E7
F3
05
ED
FA
FB
FE
F5
0E
06
05
0D
E8
08
FB
0C
0A
05
EB
04
01
11
F7
0A
0D
F2
DD
EC
17
0B
01
EF
09
EB
FA
FE
E5
FE
F4
01
04
CD
0C
ED
0B
F7
1C
FE
0F
E8
FB
0E
03
10
0C
F7
0E
06
0F
EA
EE
16
05
1A
09
F0
1A
F9
FE
F7
15
EC
06
0D
09
0B
F0
F5
FA
06
0C
F5
EF
F8
DE
13
F2
FF
FA
FE
F4
D9
00
FA
EA
05
06
E8
F8
00
FA
00
23
14
08
F4
F8
FB
03
CC
05
E6
03
E8
F4
DC
1D
E0
11
F1
09
F6
0B
13
F4
18
09
FB
F1
F7
01
13
18
EA
1A
02
09
1C
FA
F4
FB
0E
EB
EA
03
07
1D
00
11
00
EE
FA
E4
F6
F8
FE
F4
00
18
0A
0F
11
1B
F9
F7
0C
E7
ED
E9
00
DB
E9
09
E6
06
F9
F9
02
13
FF
F6
EF
D6
FA
02
06
E2
E2
09
F6
06
06
FA
FF
15
E9
0A
FB
DD
1F
0D
F3
DE
E8
FE
EB
27
07
00
FB
01
F8
FB
15
0D
09
EB
FC
FD
0B
FA
F8
ED
F3
04
F7
F5
09
04
FC
06
EB
E7
05
03
F6
06
E9
F6
FD
F8
EF
17
F3
FF
F7
F5
F5
00
06
FD
05
03
07
0C
F7
02
D2
E7
EF
FB
0F
06
07
1B
12
E9
D7
0B
17
0C
1D
00
FB
F8
EA
DC
FC
1E
1A
03
0F
19
F9
FE
07
FA
F9
02
16
03
19
E3
E7
F8
09
04
04
F5
01
0E
0B
0D
03
04
FC
0B
08
0B
03
02
EE
F5
05
03
0A
09
FD
EB
03
0D
E6
00
F3
02
F2
05
F3
02
FC
17
FC
F4
1D
DC
FB
F8
DF
E5
EC
F2
0D
04
0F
12
02
E8
F2
13
EC
05
E8
19
FF
00
ED
FF
0F
07
FF
F1
EB
18
F3
08
F1
07
FE
03
F3
07
EE
10
0A
FB
09
F3
08
07
FB
05
FA
0D
03
00
12
FE
25
0B
0E
FD
EA
FC
0E
0F
F0
17
08
EB
16
00
02
00
12
20
F3
E5
DB
FE
05
0F
08
FE
D9
09
FD
0A
0E
F9
F2
1D
E3
F5
FA
03
08
02
01
F7
F4
19
FF
07
EC
F4
0D
F8
FB
0C
08
FD
05
EF
03
06
09
00
E3
12
FE
FC
FC
FD
F6
01
EB
ED
F5
13
00
E8
08
F8
ED
F8
1B
06
0D
14
E1
F4
FB
04
FD
0A
FE
EF
00
04
FE
05
15
0E
FD
0F
FB
09
F4
F7
1A
1C
FA
F6
12
E7
E7
FE
00
10
FD
0E
0A
06
01
F3
01
27
FB
05
07
0B
17
EA
00
1C
F5
F4
0A
E8
ED
F4
EB
1A
0E
F3
0C
FD
13
FD
10
FC
02
07
0F
08
F9
EE
01
1F
F9
02
1B
F2
06
02
DD
F3
ED
E4
14
F3
F1
F2
EF
00
F1
0D
13
F8
09
FC
F1
F7
F9
EB
05
EA
FC
EB
06
09
E8
E8
FA
05
F0
EA
13
07
17
FF
CB
EE
F6
F0
05
11
FB
E0
01
F8
E6
F8
FC
F0
F8
E2
26
FC
FD
FD
06
FB
E3
F1
EC
DD
FF
07
F1
FE
10
E5
13
FE
10
FB
07
F6
F3
FF
F4
04
F1
E5
02
E4
31
FE
FC
EC
05
FA
02
F6
FB
F5
F1
0A
06
DE
1D
02
2A
0E
F0
FF
ED
0D
F1
15
25
F6
FB
E5
ED
F1
13
F0
05
19
D5
D3
05
ED
04
EA
05
E4
DE
12
13
02
0C
FA
05
0E
F1
F7
ED
F1
16
FB
09
08
E7
16
15
F7
F2
FE
F2
00
FA
10
07
06
08
0E
EF
16
F6
FD
F8
F8
08
0A
17
EF
FF
09
ED
07
15
0D
16
01
13
EC
F4
F3
FC
03
0E
09
FE
FF
F9
F8
EB
10
F5
00
14
EF
F1
1A
F8
FE
03
00
0D
FE
F5
06
06
05
E2
02
F4
FC
F3
FE
06
F1
F5
E8
FF
F8
FF
F8
F1
17
FF
F4
FD
10
11
F2
02
20
04
03
F4
F1
EE
DB
F3
F9
22
09
FF
23
27
01
F7
F2
F7
34
1E
FF
F6
1F
0C
F7
11
04
F0
FC
0C
0A
02
E1
FD
34
17
0E
05
05
05
F1
FD
0D
F4
11
0A
14
F9
14
0D
FA
F1
0C
0D
F2
FC
F5
05
FE
F8
0A
FF
E0
0F
03
FE
02
ED
05
EF
F8
02
EF
F6
ED
19
F8
ED
FA
00
10
E3
12
19
F5
09
0F
0D
F3
FA
08
F6
FF
0F
0C
01
F2
0C
FF
0B
F6
0A
F0
1B
01
06
F5
F9
0D
08
FF
12
F3
1D
EC
E8
08
0C
10
E3
F5
09
F1
1C
0D
E6
F1
24
EE
1D
E1
F5
16
E7
05
0F
EA
0F
19
1D
E1
E1
01
F1
1C
FC
C6
0E
1E
13
FA
06
EB
EA
0B
F1
F5
ED
15
FB
EF
13
F1
17
17
00
08
13
CA
08
16
EE
EB
EE
FF
FC
0F
10
03
0E
08
0D
19
02
FD
11
06
F1
0E
06
11
F5
11
02
01
0F
14
F3
15
FC
18
FC
F9
E5
32
1C
FB
F5
EF
F9
EA
12
0D
F2
11
1A
E1
F1
13
FB
03
EA
01
00
17
FD
04
05
F6
FB
07
07
01
DF
12
EF
05
FF
F7
0D
0D
07
0F
E1
E0
ED
FF
12
F7
F2
FB
EC
0B
00
FD
01
F5
D3
01
01
04
08
10
FD
F2
FC
FD
02
F8
F8
FC
00
FA
0B
ED
FE
F5
0E
0E
04
F2
FB
FE
E8
07
F1
FA
0C
FF
07
01
0B
E5
FE
FA
05
0A
07
11
F5
13
12
FF
06
F1
ED
F8
0C
EB
05
16
FD
01
FB
02
E8
11
EF
0B
DF
04
06
F3
FE
DC
E2
02
D7
F5
CA
02
FB
F3
16
F0
F4
EC
1D
15
C2
E3
ED
DD
08
23
0E
DF
EA
F6
F4
D6
00
0E
0F
1F
F5
EA
E4
D2
01
07
2E
CA
F1
0B
10
F3
0B
14
ED
F9
1D
D8
F3
EA
0F
DB
F5
EF
09
01
08
F2
CF
09
CE
C2
04
DE
11
EF
E2
DA
E9
B5
F3
F1
F8
FF
16
DA
FC
F1
F6
EC
03
E8
0F
F6
FF
DC
ED
DF
FA
06
11
F3
ED
0B
0E
F9
F1
EA
F5
F4
18
07
F0
F8
D5
04
FF
24
FA
13
F1
EB
D9
F7
0B
EA
E7
F9
E5
10
EE
FE
FA
1B
ED
E5
16
EE
0A
1A
0F
EE
E2
FA
E1
F7
19
0A
02
DD
00
EF
13
0F
E1
F8
FD
EC
06
09
07
03
ED
F6
09
01
09
0B
0C
06
F9
FD
05
09
0D
10
D3
02
FB
05
D7
1D
F1
07
F3
F8
FD
00
09
DB
F2
1D
08
04
13
0B
CB
F7
FC
EE
11
F8
15
30
F6
00
D6
13
06
F9
FD
08
01
08
17
F8
EA
EB
EF
F7
0C
E5
17
0C
E6
09
F0
01
01
1D
F2
15
0F
DF
04
F9
FF
FC
FB
02
FD
0A
18
F1
CC
E7
F2
FC
17
0A
FE
0F
0D
01
E5
07
06
0C
FF
EB
DB
D3
00
E9
FC
0B
FD
04
F8
09
06
EB
0F
02
07
F7
1B
F0
00
03
0E
02
10
F4
FF
D5
07
FC
F0
22
01
11
06
ED
EB
E7
F7
0B
EB
0B
0A
15
FA
15
03
F5
07
06
D4
F1
E4
14
0B
EF
ED
0E
1F
0D
E1
0F
FF
08
13
04
FA
13
1E
0D
F1
FB
22
F7
03
22
F4
02
FC
06
0B
08
18
F8
18
16
F4
E9
DD
03
FE
F1
19
F8
09
FD
F9
17
06
20
F9
07
0A
F8
DC
E7
F8
F1
E9
19
1F
FF
06
04
D8
0F
DF
0C
04
FB
F9
07
E1
E8
CE
1C
F7
01
00
00
EC
DC
E1
EF
1D
09
2D
0B
DE
EC
F3
19
FF
FA
FB
01
1A
DD
F6
FF
18
15
F0
F6
08
EE
F0
0A
04
F2
F9
05
10
15
FF
01
FA
0B
02
03
FA
00
E4
03
23
01
EA
FE
02
10
F0
EF
02
0C
09
16
FB
FD
06
02
0F
05
FC
F5
E4
DD
06
EF
04
11
1B
1A
10
F4
FB
F4
06
EF
E2
16
13
0D
FC
D0
18
06
FC
F3
F9
FE
E6
0E
03
DD
F2
F8
F0
E9
EC
DD
03
03
17
FA
0F
04
EC
FD
03
03
04
E7
F7
07
08
01
FD
F9
FF
FC
E0
F9
1D
F7
22
F3
F2
08
15
FC
19
EF
D9
F9
0B
00
18
03
19
F7
04
00
FA
0E
DA
EA
FB
F6
00
0F
ED
F9
05
E4
E7
F5
E9
F3
FF
E7
FD
EF
0A
06
ED
03
05
10
F2
FB
0A
EC
F1
12
EC
FB
0D
04
32
13
F8
ED
16
F2
03
FF
20
14
1E
0B
F5
F9
04
FD
1A
FC
0A
18
00
00
01
F7
12
F6
02
0E
F6
EF
FE
D5
DF
F3
16
20
21
05
12
DC
F8
16
05
1B
1B
F9
EE
F5
08
E7
F1
1A
1A
11
2C
FE
FA
FF
FC
EF
0F
F5
06
19
07
F8
F6
F9
01
FF
FD
17
F8
FE
EA
EE
1A
0C
05
15
F8
09
03
F4
E0
F8
E0
0C
02
F1
02
FD
0F
F4
F7
FE
DA
C6
F8
FB
2B
E7
F8
F8
E6
F7
11
19
FE
05
EE
E2
0A
E5
F1
F5
0F
F2
0A
D6
FE
10
DD
20
13
0C
06
04
EE
13
04
03
12
06
E1
00
F4
0C
F1
18
0A
02
EA
12
FE
F0
0D
12
F0
01
FC
DE
F2
F5
0B
0E
1C
0C
F2
F4
ED
D0
06
F4
12
04
C8
FE
F1
19
01
02
E6
F2
0E
20
16
DA
FC
F9
F6
F1
ED
DE
02
EF
04
0D
05
F0
E1
02
00
F1
F5
11
02
11
0D
EF
F8
FA
03
0F
03
0E
04
0B
0B
03
F5
F8
F0
18
08
03
0E
01
08
E2
F2
0F
ED
0D
CF
F9
FD
01
08
17
E6
18
DF
0C
19
12
E3
14
E7
03
FF
F2
03
07
FE
09
FC
FD
F3
09
0F
FB
E9
0B
01
03
FB
2B
F0
0C
03
05
0A
0B
FB
F5
F3
F0
F9
F0
19
12
2A
28
05
04
DD
F5
07
12
2B
0A
F3
12
13
EC
FF
11
FF
13
10
0B
10
1A
FB
02
FD
13
DE
10
F8
07
E6
FE
EE
01
06
03
15
FC
F3
F0
F1
13
FF
0E
FE
04
DD
EE
07
0C
FD
03
FB
ED
08
F2
F1
F6
FB
F7
08
FD
0D
0B
19
10
05
F5
F2
FA
EF
08
12
05
0B
FB
F2
FB
F6
FA
01
FD
F3
0F
1D
14
0B
FF
05
FC
FA
11
22
03
F7
11
FC
EB
F6
08
0B
1A
0B
0D
1B
09
06
F8
DF
13
0E
1E
FE
06
03
F1
F2
17
E4
0B
13
E5
0D
F8
F0
03
11
2C
03
1D
12
E3
F4
FA
EE
DB
08
FD
01
12
F4
E6
EB
F6
F8
E7
FB
FB
24
05
16
F6
19
F2
FE
E4
EB
01
FC
1E
0A
03
F4
1E
E7
01
19
08
20
06
00
E9
02
11
04
E9
DF
FC
EF
FF
DA
06
FF
04
FB
F3
0C
FD
D7
02
12
02
E0
17
04
02
EC
13
F8
F5
F4
0B
10
0B
ED
E6
0D
DD
20
DF
C9
D5
09
D4
03
F2
00
D2
11
FD
FE
04
11
E0
FD
DF
F5
0C
F0
CE
11
D9
F6
E0
03
E7
10
ED
F1
DA
F9
FC
08
0B
FF
01
06
F8
F1
11
D9
CD
08
17
22
FC
19
18
E0
FE
F7
01
03
0C
0F
00
01
EB
1A
07
F1
FD
0A
F9
03
F2
F0
01
0B
FF
FB
02
0D
07
0E
FC
F9
F2
00
09
FE
F8
FA
F4
02
02
FC
F1
06
EF
FF
FB
0B
F5
FE
F3
00
FF
07
0C
ED
01
F9
F3
F6
F9
F1
FB
F0
F1
02
F7
F2
EE
0C
0A
F9
F2
04
F7
05
F5
00
07
F1
F3
0C
00
01
0A
FE
F8
F8
FC
01
FF
06
01
FA
02
06
F0
F9
02
FA
F2
ED
F4
F5
FF
09
F7
0A
ED
F8
FA
06
F8
F2
04
EC
08
06
06
F0
08
02
F5
F6
0E
FA
04
08
01
04
05
06
F7
FC
09
FA
F4
0A
01
01
FC
F8
0C
F6
F3
F1
FD
F7
00
F9
F5
05
FE
F6
F3
EE
FE
06
F7
03
FE
0F
EF
08
FF
02
F0
F3
F5
04
07
F0
FC
0B
0A
F7
FA
EE
07
F5
F1
05
EE
0E
F1
F5
F5
EE
F1
F7
F2
02
04
0A
F4
02
FE
06
FF
F5
F1
01
FF
05
F9
F7
FF
F5
FB
F2
0B
06
0A
FE
03
EC
0C
0B
F1
08
F6
F0
0C
FE
F3
F7
03
F5
04
0E
08
06
FF
F9
F4
08
06
F1
EE
02
F3
05
F8
07
F7
F6
08
06
FF
F0
EE
02
FB
F1
01
F9
00
0A
01
F6
05
0B
F6
09
00
0B
F6
F6
06
F6
03
F6
13
0A
EE
EC
F9
03
CE
1B
F9
16
F3
F1
EB
F6
E3
0C
01
11
F4
09
FD
E3
E6
FE
EB
FF
EC
13
FE
FF
E5
0B
2E
F5
0E
FF
FE
00
EA
0A
EE
E7
08
0C
F9
F0
0B
F8
1F
0A
EA
05
F8
27
F8
18
DD
DC
06
14
E7
00
12
08
F3
EB
E9
17
0F
E7
F6
E0
FA
04
04
EC
FF
F3
E4
0E
1F
0F
F2
14
FD
0D
0E
E9
FF
F9
F2
FD
0A
FC
E9
E0
03
06
08
F4
F9
05
1B
06
EB
EE
01
14
ED
EF
F7
D6
FB
EE
E7
02
10
09
22
F9
EF
F9
FB
0A
DB
F8
0A
F4
F4
FD
E5
F5
F3
0A
0F
0D
17
E6
0B
06
F4
F8
00
12
F2
FB
DB
EC
FC
04
0B
F2
FF
E1
FC
23
0A
F6
21
FB
E5
06
0E
1B
12
FF
09
F4
08
0C
15
FC
FC
F0
13
E8
E8
E9
FE
F1
02
01
1A
18
1E
17
F2
F6
FE
FF
25
0C
E4
11
F9
F6
10
07
08
10
11
15
FE
0A
FF
00
FB
FF
F4
02
F6
ED
F1
EC
02
02
0A
EC
F7
EC
FE
E4
10
03
01
15
25
FD
F9
0A
12
10
12
05
0B
E0
F5
14
0E
07
02
21
03
EE
FB
FF
FC
02
21
11
FB
0A
FF
F6
FE
FE
EC
FB
00
F2
05
F9
0D
16
E6
F8
1C
D9
FF
FF
0D
FE
E9
10
12
FB
21
1B
13
04
FF
06
FB
C5
09
ED
19
F7
D8
FC
FA
28
0F
07
1F
13
11
0B
FD
0D
11
1C
26
FB
F0
F8
05
06
00
E2
14
0F
0F
04
06
14
F8
F6
02
FC
02
12
E5
FB
02
F8
F5
08
E0
09
F0
07
FC
16
F2
0B
FD
08
08
E3
FA
E2
EC
F9
EB
07
ED
08
F9
02
E4
10
F4
04
F4
F9
FE
ED
DC
0F
10
06
EC
04
F8
01
0A
F0
0C
06
09
E5
0B
FF
EA
04
04
0B
FA
0F
E4
10
FB
F4
F9
06
E4
09
FF
F6
F7
CF
E5
0E
F4
EB
03
F1
01
FA
0A
0B
01
EF
05
E8
F0
03
07
0E
F9
0F
0E
12
E5
25
EE
F8
0A
FC
F7
E6
F4
ED
10
0F
FB
F2
11
05
FC
06
0F
FA
FD
EA
EA
FE
F4
EF
F9
FA
17
11
E2
FA
F1
09
19
F4
15
E2
E5
F6
E3
0B
EA
11
F8
0D
E3
F2
F7
15
FA
FA
F2
F6
F7
F5
EB
05
0C
04
FE
EE
FD
0A
F9
FC
F1
F8
FE
F4
F0
F3
00
03
01
11
12
06
E3
0C
17
F5
FB
F2
E7
1E
1A
02
17
F6
05
F7
F8
0E
F7
F1
11
F1
F0
01
FD
16
16
01
12
FD
FF
09
F6
D9
FF
00
00
FE
EC
04
1A
02
E9
02
0A
FB
14
07
0A
E3
12
F9
ED
15
EB
08
1B
02
F0
01
06
F9
09
0F
03
EF
05
E6
FA
34
16
0D
05
07
04
DD
03
FD
06
09
F1
EF
24
13
FB
08
F6
0F
07
10
FD
09
EF
02
00
F6
11
03
0B
F6
1A
FF
FE
05
1E
05
0C
F1
F7
07
01
FB
FC
F8
13
09
0E
0D
E2
11
F1
FE
E9
FE
FA
06
F8
0A
0F
E2
E6
F7
04
12
1E
F0
0D
0B
E0
13
DE
F3
DB
07
2B
F0
00
EF
FF
F0
06
F7
03
05
07
0D
12
18
FC
FC
0A
F2
0F
22
01
F6
FE
06
EE
F4
05
09
10
FC
F3
FA
01
FB
F4
F3
F7
0C
02
FF
04
FE
EC
05
F2
F5
05
21
0B
11
F8
F2
0C
0F
F9
F3
EC
2C
EF
00
FE
F8
F2
F0
0F
EB
F3
DB
FA
ED
0D
F8
16
E4
02
10
0A
1D
FE
1D
DD
EB
F6
F7
F9
01
F1
07
F0
EA
08
EF
FB
0B
03
30
D9
08
01
FE
0D
20
08
0A
DE
04
02
CC
12
07
F2
1D
F1
1B
E5
15
02
F3
F2
DD
CC
07
FD
FE
13
ED
D7
F9
06
FF
F2
E2
02
FB
37
08
EC
F6
05
E0
EA
F5
09
00
F6
20
DE
FC
01
01
25
F4
F5
18
F9
F7
E5
D2
0A
04
EE
10
E2
EE
04
FF
18
FC
07
0F
DE
03
E5
E9
E1
E8
04
07
F2
F9
FD
06
20
CF
0E
09
BE
16
F7
EE
EB
BE
18
F4
23
11
00
0C
12
10
09
01
FB
E3
FD
F3
F6
06
15
05
F0
04
06
02
F7
03
F8
F6
02
E7
0E
F4
04
07
F9
26
F7
F4
F9
01
15
23
10
12
02
04
12
FE
05
F7
00
FB
F6
E7
FF
05
FA
FD
FE
1D
FB
02
21
1D
0B
F0
F9
18
ED
DD
05
08
15
15
F3
FF
04
F7
F4
19
FE
0C
10
14
1A
12
F5
10
EF
0E
E5
F6
F9
12
0B
0D
1C
00
10
0F
F6
FD
16
11
FF
05
FA
15
0E
01
04
FE
15
0E
01
0C
F4
0E
03
09
EE
02
06
EF
F8
0B
0D
02
17
00
0E
FF
EB
12
F7
E7
06
05
04
08
F3
FB
FD
F6
05
02
08
03
25
FD
F3
0D
0C
13
02
0F
0C
05
0A
E3
F8
16
F8
F1
EF
FF
FF
F9
08
04
FC
17
01
0E
08
08
0D
06
F6
FF
0C
10
0A
0A
F9
FE
F4
02
05
F8
F4
F5
F7
ED
00
0D
EE
0C
04
01
22
E3
FA
EB
04
FA
EA
FA
E6
F5
E8
FB
FC
F3
0A
13
DD
03
07
F2
FA
FA
0F
17
E3
06
10
BE
00
F4
08
05
1F
FC
01
E1
F7
EC
23
FF
0C
0D
0D
FF
FF
05
0F
02
03
FC
0A
F4
13
07
22
E7
08
1E
19
E4
06
0D
FB
F5
E0
F8
09
0C
F5
FA
09
17
F0
0D
FB
DA
F4
EA
12
11
DF
0F
15
09
02
0A
F0
1D
02
FC
06
EC
ED
06
0A
F8
10
11
04
0E
06
0B
F9
0D
16
08
13
1E
FA
0D
0C
0D
FB
1A
FA
FE
07
FC
1C
F9
12
18
F1
F3
09
0F
FE
0B
05
04
ED
20
FF
05
0F
F0
03
09
DD
F9
FA
0D
F8
EF
05
11
01
08
F1
0F
E7
00
1E
FE
DE
E5
0F
18
E1
F6
1A
03
FE
F3
E0
10
DD
01
00
FD
DC
10
1B
FC
E7
2C
08
00
01
CC
ED
F1
E7
00
DE
EC
E7
FD
10
0D
DF
FE
20
0D
1C
DD
E9
08
EB
22
F9
05
E7
E0
FB
06
00
05
21
16
21
F3
F0
F4
CA
F0
11
15
EE
17
09
14
FD
0A
09
2D
F7
EB
DE
F4
E7
FC
E5
01
E7
0A
F7
0C
D8
07
0B
EB
EF
D1
EE
08
FD
DC
D4
F8
C9
DE
07
F1
F2
F6
07
05
EE
12
E2
F3
03
FA
0B
F5
0A
EF
16
1A
19
FE
05
FF
FC
17
00
12
03
0B
F9
FB
03
F4
1B
1C
03
FE
0D
0D
0B
0C
0D
16
01
0B
F9
EE
EB
FD
0D
00
01
FD
FF
11
00
E7
FB
15
01
27
F4
FF
E8
F2
02
06
02
F6
06
FA
DE
2B
E7
1F
F0
CF
E2
D6
EC
04
11
0E
EE
E9
00
F6
FB
00
E2
1B
E6
17
EE
F5
E8
00
18
FE
D1
E7
07
FC
00
F7
D8
0E
EF
09
03
09
D9
E9
F3
02
F5
01
02
11
03
01
EF
DE
E5
10
E3
F0
0E
0C
E7
F9
F3
E5
FB
EE
03
E2
D4
15
FF
F9
EE
05
E3
F4
09
E0
BC
F4
14
EE
06
D7
AD
13
FB
EF
15
0F
F8
F2
0F
DD
E3
FC
22
E5
FD
DB
BC
09
DF
CA
09
15
FD
E5
04
FB
E6
01
0A
02
15
FC
C6
FD
D8
C8
D3
C6
07
E3
FA
FC
E2
03
F6
16
0B
0C
04
E7
11
1C
04
1A
14
D6
14
0B
0C
08
F0
F2
06
0A
0D
F2
0D
E0
00
F1
0B
FB
02
08
10
0C
F9
F2
F9
0A
EB
F4
0C
DC
E1
FB
26
F1
09
FD
0C
E0
E3
EF
EB
F2
FE
FE
19
06
E5
ED
2B
EF
01
07
13
E1
D8
FF
F1
01
F8
04
1C
17
F6
F3
18
01
F9
FF
05
E3
EC
15
F2
09
F8
08
1D
03
F4
05
13
F2
E7
F5
18
1C
EC
0E
F9
10
14
0B
0B
07
06
1E
12
0B
FB
02
07
E8
FF
FC
F7
1E
15
0D
0D
00
13
F7
0A
17
F1
FD
03
09
02
FC
E5
0D
02
F4
12
0D
0A
FE
F2
DB
05
0D
F5
07
13
09
ED
E2
F3
F6
0E
02
E9
FB
FA
1C
05
F2
ED
13
FC
F2
EE
02
F1
02
00
15
FE
FF
FD
E9
0D
08
FC
F2
18
E8
04
04
12
12
EE
03
0F
01
FC
02
02
EF
05
F7
0E
07
E0
F2
E5
FD
DC
F2
DA
F0
02
20
FE
09
FB
EC
FB
F9
E3
FE
EA
EB
F1
FD
F8
EC
08
15
04
ED
1A
2C
F6
02
F6
01
F5
E2
FD
FD
01
12
17
E0
E9
F1
F0
FD
FA
FA
FF
07
F2
FE
06
DF
F5
02
FB
02
04
F0
E3
E8
0C
FE
F3
F0
12
FB
F7
11
DD
11
05
FA
FE
DC
F4
FC
F8
01
F7
01
02
FD
17
04
F8
0E
EE
F3
EF
14
01
11
01
F1
05
05
FC
FB
EE
FF
F8
FE
E5
0B
EF
1D
D8
08
0C
EA
F4
12
05
14
FD
09
E9
ED
E1
F8
FD
00
EB
15
F0
17
F4
12
24
F0
12
0C
08
1C
10
FD
F5
14
0A
E6
FD
E9
FE
24
02
05
0F
FB
FE
F3
FB
18
F2
05
EC
FE
F1
0A
FD
14
F2
10
0A
11
E7
F3
FE
EB
08
06
0A
F9
F7
F6
05
01
E6
31
14
E3
FA
DE
11
F3
0E
FB
09
11
FD
10
08
07
03
FC
E1
F5
F6
1B
FB
DD
FD
00
07
E2
F2
F8
FC
FC
FB
EB
0C
03
F9
0D
06
F4
0D
19
0C
12
E9
06
00
F0
F2
0E
05
03
ED
EE
02
08
FD
FB
FB
EA
02
E1
F8
09
F2
1B
15
07
F9
EA
EF
01
F7
06
02
FD
17
FB
E6
E8
F8
04
F5
E4
F1
FB
FE
F7
17
05
F5
13
21
FC
EB
03
09
00
EA
F5
0E
08
EF
FD
04
EF
F6
D9
E3
E3
04
F6
F7
02
10
FD
03
E5
FC
08
EB
0A
0B
D6
08
F7
02
0A
16
14
20
14
F4
F7
F0
0A
F6
E5
06
00
1E
ED
EC
DD
EC
FD
FF
ED
F2
ED
F9
07
03
ED
06
E7
13
F4
FC
E3
0E
F0
0B
03
FA
04
03
15
FC
F8
0B
E3
F6
F8
1E
EC
05
06
2E
0A
17
E4
07
F2
F7
F7
F9
F7
05
1A
15
FF
FC
03
FD
20
1E
04
07
12
FD
FA
F2
17
D3
07
01
F2
09
03
EB
F7
0C
F3
F2
10
0E
F1
FF
18
F2
F1
EF
F4
F7
0B
EC
FC
E4
04
FC
03
F7
06
12
F6
F5
F1
EC
E9
F3
EF
07
15
EE
FE
F3
17
ED
05
ED
E7
FB
DD
F5
F0
ED
1C
03
F7
F5
DE
10
F0
14
09
FC
F1
E9
F2
12
05
0E
F5
FF
0C
FF
05
07
E4
EA
F9
FF
00
EF
0C
15
18
16
01
16
05
02
05
F1
E2
FE
03
F7
F2
09
F1
F1
E7
0E
FC
00
EC
FE
F8
EA
F7
ED
F3
02
05
FD
DE
F2
08
F6
09
20
FF
EC
08
E7
E7
FB
04
09
F5
12
0D
1E
EA
F5
0E
00
03
0E
0D
E7
F5
1C
F0
F5
00
0E
05
18
04
FC
01
FC
09
0B
09
F6
EC
09
19
FF
FE
06
FD
F0
E0
03
FC
03
0A
0B
01
D6
F7
EF
F8
F9
FE
FD
FD
00
F6
FF
F3
F5
17
0D
05
E5
02
F4
EC
EC
F6
EC
0D
F9
11
02
FA
08
EB
FE
16
F6
E4
F8
10
03
FB
16
F4
E5
EC
F4
ED
E4
EF
17
05
FA
FF
F3
04
F6
0E
DF
04
13
E7
0C
D4
FD
16
0A
07
0D
02
F6
FC
EC
12
10
07
15
04
FB
EA
03
FA
18
0E
0A
FE
07
0C
FF
F2
FA
F4
F1
F9
0C
FE
F0
FF
F6
07
F7
FA
F7
F9
00
F3
F2
02
F9
F3
F8
FA
08
02
ED
02
09
07
05
0C
02
0B
F1
FA
EE
0B
FF
07
F8
08
E8
02
EC
FA
06
01
09
F1
F7
F6
F1
F4
F1
FB
F7
FA
F9
F3
FD
EC
FE
0B
EF
01
0C
F5
F8
0F
F0
02
07
F1
05
E8
01
FB
F5
03
F2
F5
EC
0B
FA
F4
10
00
ED
F6
FD
FB
F6
F6
F4
EB
EB
F3
FA
F9
FF
F6
08
F1
F3
0D
07
EB
F7
06
F0
F2
FF
F7
ED
EF
EF
0A
F2
EF
0C
F0
F8
F5
F1
0D
0A
FA
F1
F1
0B
09
11
02
09
03
02
02
05
F9
F9
F7
07
0D
FF
F6
00
F7
FF
01
EE
EF
FD
FE
F5
EF
FD
F8
09
FB
FD
E4
05
0E
08
F8
FA
05
F4
03
01
0B
F9
EF
EB
01
FE
0D
F1
F1
01
F4
02
F1
F7
ED
F5
F5
FF
08
09
09
0F
0B
EF
FB
FA
04
00
F4
02
05
F9
F9
FA
08
F4
04
FB
FA
07
ED
09
05
F9
F3
09
0A
FE
03
07
FE
0B
06
EB
06
FA
FE
F2
F8
F1
04
06
EE
F5
FA
EF
03
FD
0F
07
F3
F6
01
FE
FB
F5
04
F9
0C
00
00
0A
FC
F1
FE
01
02
EE
E7
FF
F4
F5
12
F4
EE
CD
F9
F2
DE
1D
FB
EC
F0
EB
F4
08
E9
F0
F5
FC
10
EE
03
07
DF
0E
F1
F4
01
F1
11
FE
F6
09
05
10
04
1C
F9
03
FC
E7
FE
F9
EF
08
10
F6
EB
F7
E0
FC
F1
1E
0E
EA
FA
EA
F6
E5
01
E5
F9
F4
F2
FB
20
0A
05
01
FB
FA
07
18
F9
09
F5
CE
E5
E8
FF
04
F0
FA
0C
FF
F3
1C
EA
0F
18
0A
F8
FB
F7
02
F9
05
E9
FB
E9
04
FD
15
D9
13
14
E7
F4
14
01
0D
EC
09
DF
EC
FF
07
07
0E
0A
0B
18
04
E2
C9
04
CC
0D
1F
1B
1C
EC
17
D3
F7
0D
D3
D9
23
FF
DA
02
F9
11
1F
FD
0F
F5
F0
EE
09
DC
F6
DB
02
EF
11
08
E8
05
07
02
00
08
00
E0
F6
ED
0C
FE
0B
0D
03
12
00
E4
F1
EA
FC
F3
F4
F2
FD
F3
FC
06
F8
06
F3
E6
FF
07
FD
EE
20
FD
0A
F8
13
0B
FF
F4
F3
F5
F2
F8
0B
FE
00
EC
06
10
F1
F2
00
F9
F3
F4
F4
F0
F6
00
05
F7
E9
F4
05
07
F7
10
F6
F0
0E
0A
FF
F8
11
FB
00
FA
00
DD
F3
FF
FF
07
F1
FE
02
10
00
05
2F
06
1F
03
DE
E2
E8
03
16
0C
F8
08
02
1D
05
15
19
00
0B
F2
ED
E9
D6
FE
10
F6
FD
06
02
ED
06
FB
1D
F0
1A
F5
DE
FE
F8
03
F6
F9
05
F9
FB
F1
FD
01
0D
1C
00
0F
0F
0F
08
0A
F2
F2
07
15
F1
01
F9
0B
09
F9
03
EC
21
EE
F2
0B
01
0A
02
12
F3
07
EE
06
08
0B
EB
F1
FF
F0
F4
F9
13
19
0D
08
EC
C2
EE
EA
0C
FA
1A
02
F3
F4
0B
FB
F6
FB
0B
F4
FC
EC
F1
F8
F3
05
09
0D
FE
E3
19
17
02
F0
22
F9
1F
09
EC
06
F7
05
06
E6
18
F4
EF
09
E6
FF
E8
22
F4
E5
06
09
F2
12
07
0B
F4
E3
E4
F0
EF
26
FD
F4
FB
07
05
FE
05
F6
F4
05
0D
F3
FF
18
F6
DD
E7
FD
03
E6
18
F4
F2
E4
F9
FA
F0
FB
10
01
0F
02
02
FB
19
15
EA
01
D1
01
0C
EF
13
F5
F6
FF
E8
0E
F3
13
D9
02
F8
2E
E1
F6
E6
0F
18
FB
F0
02
FD
15
FA
EE
DA
F5
06
09
F5
D5
E2
0F
14
F9
FA
ED
15
EE
00
0A
F7
EA
1C
FA
FE
00
F8
F9
00
F2
04
F6
06
EC
00
F8
F0
10
00
E5
DB
06
E2
12
14
29
19
33
16
F1
12
1A
F4
09
11
E7
0C
1A
F2
09
08
23
FE
FA
29
0D
0D
F9
F1
09
10
0F
04
22
FE
14
03
12
EF
F2
20
17
09
0D
DE
FE
1D
07
13
F9
17
FE
D6
E6
E6
07
06
FC
1A
F3
1C
01
EE
F9
1A
F5
E0
06
FD
15
0C
F8
E9
14
06
F9
02
26
E9
08
28
EC
E5
E6
EF
15
06
07
EF
F2
F8
0C
10
0A
14
0B
10
02
EE
15
FE
05
02
F4
F2
02
07
F0
07
01
19
0E
01
FF
F0
2A
FD
03
04
09
05
03
1A
04
07
F4
F8
0D
15
0D
E9
FC
E8
04
DF
E9
F3
F6
FA
08
1C
FF
FB
09
08
F8
F1
F8
FB
F1
FE
F3
F1
05
F3
10
00
F7
08
0F
01
07
EE
19
FE
05
00
17
02
08
19
F1
FB
0C
0E
F7
E6
1F
0D
35
0A
1F
13
04
F6
0B
07
E7
F4
FF
13
0C
16
13
FD
DE
FA
08
02
EE
00
00
EF
F6
F5
06
FF
F7
11
1B
06
E1
02
EC
04
0C
F8
10
F9
FC
02
EE
0B
FF
00
0F
F1
FE
02
DD
18
08
F7
12
FA
10
F5
EE
FE
01
03
EF
09
02
E0
E6
E5
11
F0
FB
DB
0E
00
F8
00
E1
F5
03
11
FE
06
08
13
09
1A
01
28
0F
F5
0F
0B
D3
02
E4
02
0F
05
11
13
06
16
F9
03
0A
0D
16
0E
F8
10
04
E3
06
04
FE
0D
E5
05
00
FF
25
EB
FA
10
F1
00
F4
FF
F5
CC
FF
EE
EF
FD
F7
06
FF
0D
01
D9
04
13
DE
DA
03
FA
0F
03
FC
F4
D8
EF
FA
F0
21
F3
07
05
09
FE
EB
05
01
07
0E
01
E7
FA
E1
F9
03
F9
F3
12
04
01
08
F6
03
0B
03
06
F6
1A
1E
05
14
0B
0A
F3
DD
F0
1A
0B
FC
2F
0C
FB
0A
1F
E6
EB
E3
FB
F2
1F
0D
FB
ED
E0
F0
01
F0
F8
EF
0A
F8
25
F8
EE
10
02
FF
13
F9
01
03
FC
04
1C
ED
FE
FD
18
FA
F7
0C
04
F6
06
0F
F5
18
07
0A
00
FC
EE
EE
F5
0C
07
1E
D9
0B
FA
26
07
29
14
F7
05
EF
01
F7
E3
0D
27
11
F7
14
0C
EB
F6
F5
E5
F7
0D
FF
F4
11
F3
FB
F0
F8
FD
18
FC
F6
F1
F6
0A
01
02
0C
F7
FC
06
F4
0B
0D
11
03
F7
EF
F6
03
F2
14
0E
1B
01
15
07
0B
F2
FE
E8
F4
E3
00
E1
FB
EF
FF
E4
EE
F8
17
F3
07
02
11
EF
13
FA
08
02
FA
0C
0F
E7
0A
0C
FF
FC
E3
08
FF
F7
FE
06
03
02
F9
0C
F8
F8
04
FB
ED
0B
FC
F5
19
10
09
F2
1C
F3
F8
F9
06
E2
ED
0E
17
01
FC
0A
F4
0A
CF
E7
18
E5
1B
06
F1
F5
F7
01
E9
08
F4
F2
01
F7
03
ED
FC
03
DB
07
02
DC
FD
F1
16
E9
0D
12
01
06
0A
E1
0A
FC
12
14
07
E9
07
FA
01
F9
F1
FF
EF
FC
14
F7
06
F8
FD
F5
F5
F0
0A
FB
0F
F1
E8
1C
0A
F2
F5
E1
F4
0A
0E
F0
0F
FC
00
EF
09
E8
F3
FF
EA
FF
E4
E6
F2
1A
F0
08
DB
23
EF
FB
0F
DF
FF
EE
17
F6
00
DC
F3
F3
02
DA
F6
1B
15
E2
19
EE
0A
F0
13
05
12
FE
DA
EE
FA
F4
F4
04
00
EB
13
DD
F1
F4
13
E2
2F
0F
F9
FF
FC
FE
08
02
14
FC
01
EC
EC
E8
E5
07
F7
F2
EE
08
FD
1F
1D
0E
08
19
EA
F5
EC
08
0E
03
00
12
EE
10
F1
15
C5
11
FA
14
FC
F7
00
0D
04
09
13
0F
09
F8
F2
FA
D2
F1
EF
FF
13
0F
EA
FF
FF
03
F7
16
0F
F1
EF
0C
FB
FA
13
0F
F7
FF
FD
FA
FE
06
F9
FC
EA
EB
FD
F7
F4
F1
0C
F6
0A
EE
FF
EF
07
F2
F7
F7
F6
0B
08
0D
F4
F0
F3
FA
05
F8
06
F1
FB
01
F7
FB
F6
F5
F3
FA
FF
05
02
EC
F3
FD
0A
F6
EE
08
FA
F0
F5
01
F2
F7
00
00
00
F0
0A
F1
FB
F8
F2
ED
FF
FD
FC
FC
F0
F3
FA
FD
FF
FB
04
F6
FD
F9
F8
02
FA
F2
EE
EE
06
EB
F3
FD
FC
04
05
05
F4
0B
FB
FC
FD
03
05
0D
F4
06
FD
F1
F7
01
F5
FC
F5
F2
0B
08
F6
0D
F4
FE
01
F5
FB
F3
08
EC
03
FB
FD
0B
08
01
08
01
F6
F2
ED
FD
F2
0D
07
F7
F2
FE
F5
05
E9
05
F0
03
05
EF
ED
F0
F4
07
EF
0A
F0
F4
F0
FB
0C
FE
F4
FE
FE
F2
FF
F9
FB
FF
05
F2
0C
F4
FC
F5
02
EE
08
F1
09
F5
03
00
EE
EC
03
07
FB
F2
FF
FB
FF
11
EE
FC
F4
06
F6
F8
F4
05
02
F2
0A
EF
F0
FF
ED
FA
0A
FA
00
E9
F6
F3
EB
FF
09
EA
0A
0A
F8
EF
06
F0
03
0C
05
F7
FE
03
FA
04
04
F1
F1
F5
06
07
FD
EE
01
FE
01
EB
F5
FC
FC
01
0A
09
F9
08
03
F4
05
0A
F0
06
FD
FF
03
FD
00
06
07
FB
09
F6
F3
08
F8
04
FA
0A
03
0B
FF
FA
F0
05
FB
0D
07
F0
FF
07
FE
F3
FE
FA
FD
F4
01
04
F8
F9
FE
EF
F7
EF
F8
EE
0A
F6
FD
F2
FB
FB
F1
01
FF
FC
F5
F2
FA
05
FF
F3
EF
F5
0C
F6
04
EF
F4
ED
07
0C
F9
EF
F7
FD
FC
09
05
03
06
08
01
F2
FD
EC
FE
EF
FE
ED
F1
EB
02
F6
FA
F8
FC
F4
F3
03
05
01
FF
00
09
02
0D
FE
ED
00
F6
04
05
09
FD
FC
FE
FE
FB
EE
F7
FA
F2
FD
07
EF
0A
04
F0
F8
0A
0B
F3
F6
EF
EF
06
FB
F9
05
EF
EE
FF
FA
F8
0A
F4
FB
F9
EE
EF
08
FA
07
FC
03
F0
EE
F4
0C
FE
F7
05
0A
F0
07
F9
F2
0A
FB
09
FF
00
FB
F7
FB
FC
0B
01
FA
FD
F0
EC
FA
EE
07
06
03
EA
F8
FF
F2
09
F1
ED
FE
F5
09
FB
08
EF
04
F0
06
EF
00
06
F8
07
0D
F5
FE
FE
FE
EB
FF
04
F6
F6
01
F0
EF
F4
F0
FE
F4
F0
EE
F5
F9
0A
07
F0
ED
FA
02
08
0B
0C
FD
04
02
00
EC
F5
F6
09
0A
05
03
01
F9
F8
07
22
E9
15
24
EF
0A
FF
FA
E9
1F
1F
E9
15
FC
FC
01
19
DF
02
03
0B
03
EF
03
FD
F4
0A
E9
0E
06
E3
14
17
E5
E9
FF
F6
E3
DD
EC
F9
15
FC
F2
F9
FA
0C
FD
20
10
07
F9
F1
FF
D8
01
EC
06
FF
0B
EE
13
FF
00
07
EA
0E
18
EE
14
10
01
F7
12
10
F5
03
EE
FC
17
19
D6
01
20
17
25
F8
F3
12
FC
17
F9
0D
0C
F5
F6
FB
F5
E2
FB
0C
03
0A
E5
00
03
05
FF
03
EB
09
EF
0D
FA
E9
0E
0C
F4
FA
EA
0D
EC
0E
F9
EE
0C
08
F0
00
0E
0E
3D
F2
0A
FF
18
0A
00
02
03
D6
22
14
01
FF
08
EF
1B
0E
0C
0E
F9
13
DF
07
07
F0
FC
1E
0B
F8
F0
DA
F6
F1
05
05
FB
03
ED
ED
F8
11
F9
05
E8
E4
F1
F7
EC
FC
F3
1A
F1
F7
EC
F6
F8
16
08
F0
E2
16
F6
FE
0F
01
02
F8
FF
09
F3
0A
01
08
1C
12
11
F9
FA
E3
04
EF
F4
F2
E9
14
03
E5
0C
0C
0B
01
ED
F8
F8
D8
FE
F5
00
FD
1D
0E
FD
DB
0A
F5
09
EE
07
04
06
FD
0C
F4
FA
0B
09
FD
FD
E9
F7
15
02
0C
08
15
01
FD
FD
01
F7
1E
F8
F1
DF
EB
E3
1E
FF
EC
F1
FB
11
05
07
07
03
14
F5
10
0F
0C
07
EA
11
F0
04
FC
FD
EE
E9
EE
0D
F6
FC
16
0B
03
FA
0F
F5
05
F8
D2
F5
EE
DF
FE
18
08
05
04
14
FE
03
03
C8
F1
EC
E2
E6
EC
0F
05
E5
E2
20
FE
FA
F1
31
E7
0D
EC
FC
F8
F0
0B
09
F8
26
E6
1F
E8
14
17
14
E1
01
F4
E0
0B
1D
FA
16
EA
F9
E5
FE
0F
01
EF
FB
13
F5
12
F9
ED
F7
FD
00
06
F8
EB
05
FE
0B
04
17
EC
08
13
07
0B
02
F4
1F
17
05
F8
FA
23
F0
29
04
CB
19
F0
0D
0B
FF
F2
13
10
F1
FD
F3
1C
F5
FB
07
E0
0E
1E
02
EC
16
00
03
15
F8
0B
FD
FF
F2
F6
02
0E
FF
13
0E
DF
F1
FB
F6
11
FF
1E
10
ED
F3
D8
12
F3
0B
0D
FA
25
EB
11
E9
0F
11
0B
FC
FD
F9
F7
ED
11
DA
F2
11
06
EB
CB
E4
F2
FD
0D
FA
05
E9
E9
11
13
F1
EF
FB
D6
F7
D1
F6
F5
FE
08
F0
EC
E7
D2
15
18
F8
F3
06
E8
06
06
07
09
03
1A
01
19
02
D8
FF
03
F7
09
EF
FC
03
06
F8
1E
F7
0A
F1
F9
28
01
FF
22
FE
FF
0E
E4
24
E0
0A
FA
E7
14
F9
FE
05
0E
FC
0D
00
FF
F6
08
1A
0E
02
17
0C
FF
05
F1
EE
FD
0A
FE
F6
01
09
29
0B
13
05
15
FB
16
0F
02
F6
FF
11
FB
16
14
07
15
08
11
11
F7
0D
04
13
02
03
07
05
FF
EA
0B
09
0F
08
F4
11
F7
FC
E2
0F
E6
12
03
07
0A
05
F0
F5
F3
19
0F
0F
08
E5
05
F1
02
E2
FD
FD
FA
05
F8
F1
08
1B
FD
11
0D
ED
14
07
FC
E4
EA
01
02
14
FB
00
18
16
16
FE
EF
FA
ED
08
01
01
20
F3
EA
09
1E
F9
09
0E
04
0A
EF
F0
F2
07
F7
07
04
04
13
03
F6
02
F2
F6
F5
10
EC
08
0B
F9
F5
F9
02
FE
F2
12
FC
ED
F0
E6
F7
F9
0F
04
FC
0D
01
ED
FC
F7
F0
06
E7
D7
00
F9
05
28
07
00
07
E0
FB
D9
16
EF
F9
1C
22
03
0D
FE
2C
FC
FF
06
FA
F7
14
F4
1A
EC
F7
FE
F3
05
0B
F5
11
DD
0C
FD
F4
F7
F6
12
07
F6
0D
0C
F6
F7
0A
EF
01
D5
06
FD
EF
00
FC
09
02
FE
14
FE
00
0F
09
23
1A
04
07
D7
C4
F1
FA
FB
0F
DC
E7
00
F2
F4
09
0D
01
1C
F4
E1
F0
E3
F3
18
F5
E8
0B
F3
E0
02
EF
FF
E1
0B
F7
06
0E
F0
06
F4
F5
09
F2
13
F1
24
FB
DF
F0
F1
08
22
0A
0F
00
EF
06
02
EF
F3
FD
12
08
0D
1C
04
E4
F6
C5
C6
0E
FB
08
FF
EA
07
01
08
FD
F6
03
F6
EF
DB
F5
D6
F0
0B
14
F0
01
E8
E7
F7
F7
FC
0B
0D
13
0C
05
F0
07
F3
FA
FB
FF
F0
F6
F3
F5
EB
05
F8
01
0A
FD
07
2C
00
FC
F6
F5
DD
E9
0E
FC
FE
1D
F5
EC
17
EB
E4
F2
F7
FC
FC
1F
09
ED
10
FD
04
F3
EB
E9
F9
E6
E8
F9
09
00
F5
0C
EA
01
05
18
F9
06
06
0E
EA
F8
15
F9
07
03
07
FD
E9
F7
13
00
E9
FB
0B
E8
F7
FA
0C
03
F5
0A
07
F1
FD
0C
1C
F2
FF
F5
E5
EB
12
05
04
F8
0C
E6
01
1B
D1
EE
EA
0D
F0
FA
E4
F0
10
00
0D
E9
E5
F1
FF
0C
EB
FB
F0
0D
05
F2
02
13
F8
0D
06
03
02
11
0D
FC
EA
12
0B
E2
05
E2
0D
0C
F4
08
EA
F3
0C
ED
09
F9
12
0F
F1
FE
02
09
0D
16
1C
0A
12
12
19
03
09
FB
F2
02
13
EE
0F
F6
F2
0B
05
F7
FE
F9
FD
0A
0F
F5
F9
14
06
08
10
0A
F4
0D
03
0B
FE
FB
FF
FA
1E
E0
02
06
13
FA
F9
FC
FB
18
FA
24
14
EA
EB
E4
17
00
18
0D
F0
02
F5
00
DF
2D
11
0D
0A
1C
10
01
17
F1
F5
17
04
10
07
FD
FF
01
0A
0B
18
FD
FF
F5
13
0E
FC
10
13
E1
1C
0E
09
10
FB
02
F0
FA
07
F2
17
1C
05
15
11
00
F1
02
0B
16
09
0F
02
12
0D
03
FA
15
0E
11
0C
09
09
1E
DA
FE
12
11
FD
07
FC
E2
F9
EB
01
21
F7
0A
0A
14
FE
02
00
0B
10
00
FF
F4
FD
EB
09
0B
FD
0D
F0
06
FF
14
00
00
F9
05
09
EF
0A
17
05
F6
05
FC
00
1B
F6
04
FE
04
FA
06
EB
FB
FC
F9
EE
0F
04
F7
22
13
10
EB
E6
F3
FF
1D
E2
12
FA
F8
0C
FA
DB
EF
17
1E
1C
FA
FE
F2
F4
06
14
21
DA
FA
0F
0F
E0
FE
12
1D
01
DF
F0
ED
11
12
F6
1B
EC
24
0A
F7
D7
00
F3
E6
15
E7
F9
DC
10
F6
EC
08
CB
08
04
F2
F6
EF
FA
FB
F6
01
02
04
FC
F7
F7
05
F2
0B
04
04
F5
E3
04
FB
F9
EB
E2
F1
F5
FA
FF
F1
12
01
EB
F0
EE
FA
F6
F3
F8
ED
F2
04
02
F7
E2
FC
03
EE
F5
D3
E8
EC
04
F4
08
F5
19
F6
05
FA
F3
13
E6
02
01
0D
E9
FB
05
FC
03
0B
18
00
FB
14
05
FE
07
06
FD
F5
09
E1
F2
FA
EA
FA
03
EB
08
12
08
FD
0C
EB
FC
F6
F9
07
E4
05
04
EF
0A
EE
07
00
F7
0C
08
FB
F8
F4
19
F1
F8
FC
F1
00
0E
E8
E6
F9
F3
05
0E
FD
05
F6
FD
F4
00
01
00
FA
F8
00
F3
08
EA
FB
EC
07
0E
06
FA
FB
EF
08
EE
F7
E8
FD
EE
FE
F5
17
01
E7
F9
02
F8
EF
FC
FB
07
0F
07
E8
02
FA
F2
FB
EE
F5
F4
05
08
EA
FA
F0
FA
08
12
09
06
F7
FC
FE
FA
FE
00
ED
02
FD
FD
01
07
F8
E8
04
EA
FB
0A
10
05
F9
F1
FE
FB
06
02
0E
F7
09
05
07
0A
F4
FC
F1
EA
EB
F2
F7
F4
EB
F8
EE
EF
F9
06
0A
FE
F5
F7
F7
0B
FA
07
FF
F4
E0
03
F4
08
E9
01
0B
04
17
FD
F5
EC
F6
11
00
F6
21
F6
10
0F
EE
F9
FE
E0
06
FA
09
F6
FF
FA
EC
16
EE
EC
DF
F3
0E
F7
E1
F2
FD
CE
E2
02
FC
02
F7
04
E9
DD
F2
04
01
F9
11
FF
FA
E7
F6
0F
F6
E8
FA
F5
F6
E6
FC
E3
00
FE
07
01
07
0B
13
FF
FD
EF
FE
00
06
EF
F5
FB
0E
13
EB
F1
E8
F2
01
0B
F5
F1
EA
FF
0D
F2
0E
00
FD
0D
E8
04
E6
0C
F0
04
EB
07
FA
E6
F4
F4
FB
EE
FC
FF
EC
F8
03
E6
EF
1F
F2
16
07
F8
E1
D9
D2
02
11
16
09
07
FB
00
01
FF
F2
0B
FA
00
07
08
0D
04
F8
00
01
FE
1C
FD
11
05
F4
0B
05
FA
E5
FB
EC
EF
11
F6
EC
02
F8
FC
F4
FB
FA
08
F3
E9
E1
04
07
03
1B
F3
0E
F1
EA
FD
E9
01
15
04
0B
12
FC
D8
F5
DB
0C
FF
19
EF
18
F0
EE
1A
F4
DA
F8
08
F5
DA
FE
FB
02
14
FA
00
FA
EA
12
EF
F9
F9
F0
F5
F1
16
DD
EA
06
EB
DF
FE
04
11
0E
FE
12
FC
EC
E7
ED
F5
FD
EE
F6
F0
09
00
07
09
0D
FD
14
F1
DC
F3
F7
DD
EE
04
05
17
05
F1
FE
F3
17
07
FB
09
FE
0C
08
20
11
26
F5
D6
CB
05
DA
2B
11
D5
D5
FD
03
DB
0A
0F
06
19
F6
D1
DF
F6
DA
20
0F
EF
11
11
03
E8
1A
0B
10
13
F9
E3
03
E4
EA
0C
FA
F2
0A
0B
ED
F6
13
F8
ED
07
E3
02
FD
FA
01
03
0E
F3
05
21
04
02
06
09
01
35
03
06
D9
E7
FB
16
19
18
FC
19
03
17
F9
F6
EA
22
FD
D6
E8
E1
FE
0B
FC
06
F5
02
F7
07
EF
0E
0B
FC
02
EC
FE
EB
10
F6
08
15
F2
EA
0B
05
1A
FD
F7
01
ED
1A
F5
F9
03
11
0E
10
FC
F6
EF
12
0C
03
10
17
20
15
0D
F8
0A
16
0E
01
ED
F7
05
12
F8
FB
F3
09
1B
FE
FF
05
13
F7
0C
11
00
FD
DE
F2
FA
FF
00
FC
13
06
06
06
EE
06
02
01
06
0F
02
E7
13
FD
02
F5
06
F6
F0
02
02
F3
F6
0A
EB
06
09
06
03
E3
F2
00
01
20
0B
FF
12
01
16
F7
06
04
0C
05
08
F9
F3
FB
08
EF
0C
0A
0B
E5
01
00
FD
05
0E
F6
0B
1D
FA
ED
02
04
04
DE
01
FF
F6
06
E7
F1
0D
14
09
FD
16
E6
F1
05
F6
DF
F8
FA
FE
09
06
F4
0A
00
09
F1
06
EF
F6
FC
F6
05
06
F1
07
EE
0D
FA
F9
EF
F8
EC
F2
FE
02
F1
07
F7
04
0B
09
05
0D
FA
F8
F7
06
07
EF
08
F5
06
FA
F1
0A
EF
EE
ED
04
F0
F6
FD
FB
F4
02
05
F8
F1
FE
F0
03
02
F3
04
FA
09
FA
03
F8
05
F3
FB
F4
07
EC
08
FC
FC
F5
F9
F6
04
F6
F2
ED
03
02
F5
E9
F4
FE
F4
F5
0B
02
04
F5
F1
03
F6
FF
F3
EE
EB
FE
EE
05
F0
0D
EF
F0
06
06
F4
F3
07
0A
FD
F3
F7
EC
0E
F0
F4
03
06
07
F9
EB
F8
00
03
FA
ED
08
F9
04
F2
F9
F0
F8
F1
06
EF
04
0F
FB
FC
07
09
FE
01
04
F5
F6
03
F3
0E
F4
03
F4
06
EF
07
0A
0B
0C
F2
F2
EE
F9
F4
EC
07
FE
FF
0C
02
00
F6
0A
0B
00
F4
03
F1
04
EE
F2
03
09
08
F5
07
01
03
F0
F5
FF
F3
FD
ED
07
02
F3
F4
0B
F9
F0
FC
F9
FD
EC
F5
EF
0A
05
FA
F1
ED
FE
04
FA
09
FD
FB
FC
FC
03
0E
00
FF
07
01
F8
05
EC
F0
FF
FC
F5
FA
06
F6
EE
01
F8
02
06
FE
08
05
03
FC
FC
FA
0D
01
FA
F2
F9
DD
11
E7
FF
F8
00
F8
15
0A
F2
E6
24
CF
ED
06
05
E4
13
F3
FB
01
FB
DF
F5
0A
0C
E2
03
01
EB
EC
11
FE
10
11
F3
F4
01
00
11
08
03
DC
07
03
E1
D8
14
06
F8
07
DD
F5
0D
FE
F4
0C
03
E0
05
08
E4
DF
FE
DF
04
13
F6
FD
ED
FC
0C
04
17
FC
DC
F2
EA
F2
10
FA
E5
20
EF
EF
0C
00
0C
FE
FB
F8
F8
05
03
FE
FC
EA
F8
04
DD
ED
EB
07
0A
0A
00
08
EF
08
0F
07
F8
10
E8
11
EE
F2
C9
EB
FA
0B
F8
08
F4
09
F3
1F
0D
05
18
16
00
E9
F6
05
02
F1
F5
04
FD
1F
1E
0E
FC
F8
01
F7
F7
07
0F
08
FE
07
E9
FF
CE
F2
09
14
0E
03
F4
E5
0C
FC
0E
EE
05
FE
0F
0A
F7
F9
04
04
0A
03
FB
CD
08
25
FA
FB
0F
EC
FE
0B
F8
D9
D6
03
F5
3C
EB
0D
0F
06
18
E5
ED
FF
FE
F6
02
10
28
00
FB
07
00
EF
ED
05
0C
FC
0D
EB
01
D3
1F
0C
15
10
14
E6
0F
DF
F4
16
FD
EF
0B
01
14
E2
E6
FA
F1
EC
14
EE
F9
E4
0A
14
07
10
0E
04
FB
F7
05
FC
F4
04
F5
14
06
F6
09
E6
F7
FA
F2
FE
FC
F6
F4
F7
03
04
E2
1B
01
FA
E7
FD
EC
05
00
FE
FC
06
07
E9
FF
FE
E9
FD
EC
E5
EE
0E
EE
EF
E5
09
08
EE
FC
F9
EC
E9
EC
E7
0F
F2
FE
F0
0E
F7
F4
E8
F1
E6
0C
F6
F3
FB
02
06
F9
FE
05
02
EC
0A
E8
0E
0A
0F
00
FA
F2
02
F2
0B
F4
06
F8
F7
EF
FF
F8
FE
F1
01
FB
F5
FA
07
10
F3
FD
0D
F0
ED
F2
F6
E7
0D
ED
0C
0B
03
F3
ED
14
E0
F9
FD
0A
04
FA
1C
03
F9
EB
11
EE
F9
E7
FB
05
17
F6
F1
F8
0C
FD
0B
FE
06
E6
00
F8
0B
09
FD
ED
F4
02
0F
FB
14
03
F0
15
FE
05
F8
EC
E5
F9
09
FA
06
04
07
EE
EE
F2
0F
03
F9
F5
0D
EA
EC
DB
00
05
00
12
F6
F8
01
F0
22
15
EA
0B
F7
EF
FF
FF
08
E1
F7
E8
00
F5
EF
03
E9
FB
F9
00
F1
09
0A
08
DF
F3
EE
ED
07
04
0C
03
F5
F8
FB
EE
EB
FF
EA
EF
0E
EF
02
08
FF
08
0D
12
17
04
F1
F8
06
06
F3
E8
07
F8
07
FF
FC
07
FD
03
0D
10
F3
0E
13
E0
11
09
14
E9
E8
D5
EA
F0
F0
FD
08
01
E0
D6
04
32
07
F8
F5
E7
E2
0C
DC
F1
EB
03
0F
04
FC
EC
F1
14
F9
0E
DF
23
1A
1A
EF
F9
DB
F0
EC
0E
17
00
FE
FF
02
FE
DD
23
32
11
18
E7
F1
CF
EC
F6
F6
FE
F8
F9
0B
1C
03
DB
07
D5
DE
F5
F9
09
F4
14
10
E7
05
22
05
EF
0D
00
E3
12
F8
FC
FF
01
FC
ED
E9
F5
F3
F2
18
0E
F6
E4
FB
F0
03
02
07
EA
1B
EB
EE
F3
05
0C
1C
0E
E4
D9
01
D1
F8
1E
F2
FB
1B
0B
E1
EA
0D
01
19
0F
FA
F4
DD
F5
F1
E6
0B
FE
08
E1
16
FB
19
0A
FE
E8
F5
07
FA
09
F5
DA
17
F6
04
F1
F5
F8
EF
09
13
01
FA
F8
ED
09
0B
FE
08
EA
E2
17
1A
FF
01
E1
F8
FD
F4
EB
04
07
0E
E8
FD
F7
FC
0C
27
FB
FC
0A
F2
04
F9
FE
DC
F2
F5
16
1B
05
0E
F8
0B
1B
1A
F2
06
E3
1D
FD
E5
E7
12
20
F9
F7
FC
00
0D
0E
08
E6
04
0B
0E
EE
14
EA
07
06
00
0D
E9
08
F9
F6
EA
F3
0E
1D
07
06
27
18
FC
0C
DC
09
E5
F6
EB
E6
F2
E9
FE
15
0C
0B
06
05
FA
F5
F1
FE
F3
FF
0A
0B
00
07
F5
F3
0B
01
09
F7
FB
FE
FB
F0
FF
FF
F7
F1
00
FF
09
02
F2
0A
0F
EF
F1
F9
08
0C
00
04
F2
02
FF
02
ED
F6
01
07
F2
EE
FD
F0
FB
F5
F9
FC
FD
F7
FE
F3
FD
FA
F4
FE
06
04
FF
EC
FE
08
02
00
FD
F1
F7
03
F9
F4
03
01
F9
F9
01
08
F0
05
FF
0A
FE
FC
EF
F4
08
F0
FF
00
06
F3
09
F2
F8
09
02
0D
05
F8
FE
F6
FA
09
FE
01
F5
01
F1
F5
0E
F8
EF
04
F7
FC
F2
FE
E8
FD
02
FE
EC
03
FA
FC
F4
0A
FD
FA
F2
EE
EE
FE
F1
F8
02
F3
F1
F7
F3
F2
F9
FC
F4
F6
02
0A
06
FF
F1
FA
F0
EF
EF
F1
F8
F0
FD
F6
F5
0A
FE
F9
EE
00
F5
EC
10
FE
F6
FB
00
F5
F5
F8
07
FE
00
FC
F8
F4
FF
EC
03
F9
F9
F4
F8
F9
06
F7
EB
00
ED
F2
0B
06
FB
F6
F4
F9
F3
FB
0B
0D
F1
ED
F1
ED
FC
07
05
F9
FB
EF
F8
FA
FC
F0
FC
05
03
F4
F7
F9
09
F9
F4
0C
FE
0B
ED
FA
03
F1
0D
FB
EE
0A
08
FF
0A
0F
07
03
0D
0B
F6
24
00
01
08
EA
F3
F9
EC
06
E1
12
0B
C6
2E
08
0C
0F
FA
E8
16
06
FF
05
25
29
CB
FD
0D
B7
1E
05
16
F3
00
F4
0F
12
04
F1
19
FE
FA
F5
1C
F4
1B
06
FC
D8
EC
EE
F3
15
21
0C
25
0D
0A
13
0E
FA
F4
F2
10
FE
E3
14
E1
FD
FD
02
0B
F7
FB
0A
F9
10
F0
EF
0C
FB
01
FE
02
0C
10
00
0B
0B
F8
F7
09
02
E9
EA
09
FA
06
FE
FF
FC
1C
ED
02
06
1B
FD
EE
00
07
13
14
01
FC
E6
FC
E4
FD
F4
FE
F2
0E
FF
ED
0B
03
23
09
07
F7
FE
0D
0A
0B
F0
18
E5
24
0D
0B
EC
E8
E4
0C
00
F2
0C
11
01
02
04
ED
FA
09
FA
08
F1
08
01
00
F5
FD
06
10
F1
10
F3
EE
13
06
F1
E7
01
06
EE
05
00
17
12
F7
CB
FF
E2
0A
05
FA
F0
D6
11
0D
FE
EC
FA
ED
E9
1A
0A
F5
07
F8
09
FD
FE
F9
F1
08
00
08
FC
FE
11
02
01
03
FC
EF
15
1A
F6
0B
EB
02
F2
F2
0A
03
09
F9
ED
EC
F0
F8
F2
08
F8
10
15
FC
F3
F9
F9
00
0B
13
EE
13
F8
F2
F4
0F
08
FE
0E
F0
14
F7
EA
0B
0F
F6
09
04
16
04
02
06
F2
EC
3A
F3
FF
09
EE
13
FE
04
FE
20
0D
02
03
32
F4
F9
40
E5
FD
F6
0D
0F
0D
00
ED
07
04
F1
FC
1E
09
03
0B
EE
FE
EF
12
18
1E
05
DF
F3
F1
D2
17
05
0D
F3
26
F4
08
EF
FE
FD
EB
F5
FC
D9
FB
03
F9
03
F1
14
F7
0C
15
00
1A
19
F0
0D
F9
ED
F6
15
F6
FE
F6
13
ED
00
FE
FF
1C
13
FB
0A
00
E4
F1
F5
F6
F5
FA
12
08
F8
F5
F3
12
1B
12
06
08
EE
E1
EE
F9
FA
FC
19
02
03
E0
02
F9
FE
06
13
F7
E3
05
FE
1F
E7
10
F8
DD
2D
10
FF
EE
01
00
0D
0E
08
0C
26
17
01
00
01
ED
10
0B
14
12
F5
15
FC
0C
09
FA
08
00
09
FF
00
F4
09
FD
F4
0E
05
FE
01
1E
08
EE
F2
07
06
EC
07
F8
FD
10
05
25
06
1B
03
13
15
FC
E8
07
F3
E9
01
FB
F8
04
05
02
F6
F3
F9
ED
FF
0F
F6
12
FA
FA
F8
FF
10
08
0E
0B
FC
F8
E6
12
02
05
FE
15
F8
08
EC
E4
0B
16
09
02
04
F0
E2
20
03
0A
11
F1
EA
EF
F6
F4
09
FC
0C
0D
05
07
FF
18
1E
F1
03
17
05
12
F5
00
EC
FD
03
EC
D9
E9
15
F8
00
FE
0C
FC
F6
0A
07
E3
08
04
0F
EA
06
F7
F4
1E
0C
09
20
00
EF
F1
11
F4
07
F9
10
0D
DE
04
FA
19
EA
0E
1E
03
00
EE
1A
08
07
FD
FB
08
14
15
E4
08
10
05
08
FA
F3
0C
EE
E4
00
13
00
09
23
FB
FF
FE
FC
E1
F6
10
10
E2
08
14
FE
04
EF
EF
05
0B
09
F8
EF
0A
FA
FF
F9
F0
03
FE
04
F6
F8
09
0D
FD
FF
14
F7
09
19
FD
F7
F2
07
12
E8
F3
FF
F2
1C
03
E6
FB
E9
15
D6
DE
F1
F0
15
DE
12
19
EA
02
17
F9
FA
EC
FE
FB
E3
FC
09
FA
F4
0D
17
21
FD
FF
04
05
12
E3
FF
F9
FD
01
FE
11
03
EB
08
FD
09
07
FA
02
00
F0
F1
14
FF
ED
1E
13
FD
E7
FE
10
01
FB
25
25
10
E3
F1
FD
00
F9
E6
EE
E0
00
03
04
E5
F3
07
25
13
01
DA
ED
DF
F4
23
19
E9
F1
03
15
E8
0B
13
0B
04
0B
F8
DF
E9
F6
01
10
DA
0E
FE
08
F0
07
0C
D7
04
F5
FA
0E
09
FF
F9
02
C1
07
EE
EA
FE
FD
0A
08
F3
E8
E3
E1
E3
13
E6
F7
09
F3
E3
ED
00
07
FF
FA
0E
06
E6
E5
EA
FA
00
E3
12
F5
F1
F0
FE
04
EF
02
FE
15
02
F7
EA
FD
05
00
1F
FE
EE
13
18
F2
02
EB
15
F4
ED
06
0C
00
E3
11
1A
F7
FA
F7
16
04
E1
FF
EB
F6
00
03
DF
14
E9
14
FF
F4
1E
ED
11
09
0A
F3
07
FE
E8
EB
F4
0A
F0
FC
03
F5
0E
21
F0
E4
01
E1
F8
26
11
08
FC
0B
F3
FE
07
F4
18
10
04
FF
E3
FC
FC
3C
FE
20
F8
18
FE
F2
DA
E2
26
F9
20
F9
F6
FF
DB
F7
11
1E
0B
00
E7
FC
F3
F2
F4
FF
12
F2
02
DC
E6
F5
21
F9
FB
1C
E5
FA
02
FF
EC
EA
07
DE
E8
EB
02
FD
11
F4
0B
FB
F9
EC
EF
26
D7
E8
06
02
04
D5
DF
F5
ED
12
FF
EF
EE
DB
FB
FD
E7
F1
FD
F7
DF
E2
D7
F8
0A
01
10
10
F0
DF
0D
16
04
F8
EB
01
0D
E0
FE
F0
29
F4
08
11
30
0A
F2
01
FE
05
F1
E9
E5
FF
01
E6
1C
EC
0F
0B
1C
01
FC
11
E9
FA
FA
E9
E5
E9
EC
F6
F9
D5
0D
E5
14
F1
F5
00
CE
04
1F
EE
EA
04
13
E9
17
FF
DF
09
0E
F7
00
2C
E3
F3
F0
FF
FE
13
06
FD
06
02
EF
04
02
13
FB
1F
E8
15
F0
F3
F1
FC
EC
20
02
09
F0
0F
F7
F1
F3
0A
01
EF
1D
13
FC
CB
E8
11
DA
18
EE
EF
EB
FC
15
F9
03
FD
12
0F
E1
FF
08
14
F0
F4
05
0F
09
FB
19
00
FF
0B
10
1A
11
09
F3
20
08
06
FA
F0
F1
0B
09
F5
0B
04
F2
1C
F6
1B
E5
0C
FD
0F
F9
0C
E7
11
04
FE
E0
0B
03
FC
04
E3
F9
1A
0A
21
FD
EF
06
FC
E3
09
E2
E5
FE
F7
F8
F7
00
00
EA
13
FB
FB
0F
E4
FF
23
02
0F
04
F6
F4
F6
EC
0F
FA
18
0B
FE
11
02
11
F3
F4
F4
FA
12
E8
21
12
1B
0D
06
0E
F4
0A
17
05
0C
E3
FD
F5
FF
1A
FE
0D
01
0D
FE
EB
0A
F8
17
0A
11
08
FE
F4
E7
1F
00
14
F9
F5
F3
2B
04
0C
FA
1D
E0
13
EE
01
DF
F7
E6
0F
F9
F8
FD
14
0E
07
EB
04
09
15
0D
08
02
08
19
13
04
0E
06
0B
FC
10
05
0A
06
FA
0B
FA
F2
FE
F7
01
FE
01
FC
0E
E8
F9
08
EE
06
E9
F7
F7
06
0E
FE
0A
0E
F1
ED
0B
F5
0B
F3
FD
0C
01
05
F9
0A
02
07
F4
F4
FB
F2
EE
F3
02
F8
FA
03
F0
0C
FE
ED
FA
FE
FE
F2
F2
02
F8
F1
F2
02
ED
F9
07
00
FF
FA
04
ED
F2
F2
FD
01
FD
01
F5
F6
F9
F5
06
FB
F0
F5
09
EF
02
F6
F8
FF
F9
09
08
0A
F8
04
07
F5
FA
03
F0
FB
FE
EE
FD
ED
FC
FC
0E
0A
06
F0
FD
FD
F7
FF
0B
F8
0A
FF
FF
08
F6
FE
F7
01
08
F5
0C
EB
F0
F8
02
05
02
F2
F6
00
F7
FD
03
04
EF
01
FA
F2
FE
07
F3
07
EF
F2
F4
FC
05
00
F1
FF
06
EE
01
05
FE
ED
03
F1
08
F1
03
FB
F2
01
FD
F1
F5
F4
EF
FF
0E
F7
FE
07
FB
FF
03
F0
02
06
07
F0
F5
03
00
FC
0B
0E
05
06
FC
01
FA
FD
07
00
ED
08
EC
F6
F8
EF
F1
09
00
05
FE
FF
F0
02
EF
07
01
F9
FB
09
F3
0A
FD
08
FD
FF
F0
FA
F8
F1
EE
FF
06
FE
EF
00
EC
0A
09
09
F0
F0
FA
EB
04
0D
F9
03
02
06
00
F1
FA
FD
F1
F6
FB
FB
FB
FE
EC
F2
08
F6
09
FD
EF
F4
0A
06
F6
FA
F1
08
ED
1B
06
FF
F8
17
EA
16
11
25
24
F7
12
04
FF
F0
EA
14
ED
F1
19
0B
05
FA
F9
FC
F8
11
EC
01
FF
F7
F9
1A
F3
EE
F8
FC
EF
E1
0E
0B
13
0D
F4
DE
0F
FE
E7
1D
C1
21
0A
E4
E4
D0
14
08
03
1A
02
0C
F0
FE
DD
0F
03
FC
FF
08
F0
E1
FC
17
FA
09
15
F9
F6
00
ED
F4
07
FB
FA
07
F3
17
F4
EE
06
0C
F2
EC
FD
FF
06
FF
FD
01
F2
04
F8
FA
10
08
FF
01
F7
D0
D2
EC
06
00
FC
0C
0F
F6
ED
EA
0A
FF
FD
EC
FE
E8
E3
F3
D9
0F
FE
0D
05
EE
02
D8
10
14
FB
01
FA
1F
FD
09
E5
FB
11
18
11
FF
04
F3
0B
E5
FC
18
1A
F2
E9
17
F5
05
00
05
FD
F7
13
F8
10
F5
F1
FD
04
01
00
18
FE
F5
07
06
09
1B
23
04
07
13
F7
10
09
D2
18
F8
EB
11
02
1F
1B
F5
08
F9
12
E4
21
02
F9
F7
0F
FC
12
05
F3
FE
17
0D
05
F6
06
EB
11
FA
04
E2
12
F4
26
13
F4
11
13
12
21
FE
15
D7
10
21
01
00
15
15
20
07
F4
06
05
11
17
05
0E
F0
0B
09
FC
0B
ED
EC
0F
E0
F1
08
EE
03
ED
FD
04
F3
10
05
08
0E
D8
FE
F9
F4
06
F8
0E
02
EA
03
0F
CD
FC
14
0F
F6
F6
02
F3
F4
ED
F6
0E
10
EC
F3
0F
D2
03
08
0E
D9
08
E8
F9
1F
F4
1B
29
F0
00
F0
11
D9
08
F7
18
07
0E
08
EC
07
1C
1B
E5
F9
F0
FC
FC
0F
EB
FE
0A
05
F7
FA
F5
FF
04
F5
01
0C
E6
03
07
0C
07
0B
F3
E0
FF
E7
FF
00
0B
F9
12
F1
12
FD
09
FB
0B
13
EA
DB
FC
E5
09
05
09
0A
09
09
07
ED
F3
F0
0C
24
F8
F5
ED
F7
F2
02
02
06
07
D3
0D
F6
0C
FF
FA
E6
12
FD
F7
0C
13
06
06
0B
02
07
F0
03
14
E8
05
08
19
EE
0C
05
F3
F7
02
F3
08
0A
F8
F9
0F
18
16
EF
1A
EA
F5
EC
07
B9
09
FC
F8
10
16
FD
E7
03
FB
04
FC
FC
EF
FC
06
FA
F0
F7
15
09
07
FC
F5
E4
0A
F8
0C
FE
FC
FA
0A
17
F8
04
F4
FF
08
EE
0A
E4
12
03
F2
FD
05
1E
21
03
EE
12
FD
08
FF
FE
F6
04
17
FB
DF
04
22
2B
01
DB
F4
E4
F0
FD
06
18
CD
04
EE
07
0D
04
F6
09
EF
06
04
F8
01
FA
09
ED
FF
F4
0B
0D
F9
F0
FB
F9
08
FE
F3
03
08
F5
07
F6
F3
09
F4
05
F1
08
FA
EF
F8
03
03
08
FA
09
F4
0D
F3
F5
FB
FB
0A
FE
11
0A
0C
F5
F7
07
0B
0F
09
0B
03
ED
F8
0B
F9
F7
01
F2
09
FD
EE
F2
F5
07
03
07
08
F5
0C
F0
FA
06
09
F5
01
04
02
03
F3
04
F1
EF
FF
F9
F0
03
0C
05
F1
0A
F5
F7
F6
F0
00
F4
00
02
F1
FF
04
FD
00
0A
F7
F9
ED
FF
00
F7
EC
FE
FD
FA
F7
F6
F8
FD
03
05
F8
F6
FB
F2
FC
F7
06
F7
0F
0A
00
08
F3
F0
FE
FB
EE
F2
08
FA
00
02
F2
F1
F8
02
07
01
FB
F8
F1
F5
F7
F6
FD
F8
0E
07
08
F5
0A
FB
F8
09
EF
F8
F2
F7
F7
F1
02
F0
FF
02
F3
FB
0C
03
F5
F8
0A
08
F2
F6
FD
F8
F4
F1
F6
FA
F4
FE
F5
FC
06
F0
F2
00
F0
03
F1
F7
06
FE
09
F3
FC
0E
0E
0C
EF
03
07
0D
03
F2
FB
03
F8
F9
FB
F6
F4
F3
EF
FF
04
ED
F7
FD
00
FE
EC
F0
04
F3
F1
F6
00
09
FC
08
03
FF
0A
F2
F1
FB
15
05
F7
F2
DF
FE
03
EF
00
00
12
FD
12
13
F6
0C
01
FC
02
FF
09
F5
FF
16
EE
F9
F9
FC
16
EB
0F
EB
FD
05
0D
0C
08
EE
0D
09
07
0D
F8
11
05
0C
FA
FE
FD
0A
E4
08
1A
F4
F5
1C
F4
18
11
12
D7
DA
01
F0
FE
FB
F8
E4
E7
09
15
E6
E5
FF
F6
F5
12
08
E3
E6
07
06
E4
EE
0B
FF
1C
F5
05
12
F7
EC
F6
F6
F8
15
19
EF
07
FE
FF
F5
FE
15
17
07
E7
F2
10
07
03
15
0B
15
11
0A
F5
EC
0C
00
F9
16
0A
01
10
FF
E3
0B
F3
09
15
E8
E2
F7
F5
02
DA
07
FE
F8
18
FC
03
FB
FB
0B
10
FE
FF
EB
F4
00
F7
1C
EA
05
05
08
F2
02
08
F5
FA
E5
FD
EE
FA
F6
19
05
EC
ED
06
0A
12
F9
F9
FD
F8
0E
F6
F2
11
E5
F5
F4
06
05
10
0D
07
1E
EF
F8
EF
F7
FF
F6
DA
EA
FF
F8
F2
16
EE
F4
FE
0A
D9
E9
DC
F7
0C
0B
F7
12
DD
E0
04
05
F6
ED
FA
EB
E6
CF
00
04
02
02
17
0C
F6
F3
0F
00
FF
0B
24
FE
04
F8
01
17
07
03
00
09
0C
EB
1C
EE
0E
11
13
01
18
18
11
E4
FF
D9
DD
0D
0B
06
DB
FD
00
11
F1
0A
12
03
07
03
F0
E4
ED
0B
FA
1C
F3
0E
F5
06
FF
02
11
F0
16
F3
FA
E8
FF
03
E9
F2
F6
FC
FF
0A
00
F5
FB
F2
F9
08
F3
11
0A
F6
F9
FC
E8
0B
FA
F6
0E
10
EE
07
F8
07
0D
04
E9
0E
FD
14
E2
F6
E6
DD
FA
1A
F1
09
00
05
0A
00
F1
F3
FD
F3
0E
0A
E0
FC
13
FA
F3
01
07
06
0A
F3
11
F4
16
FA
0F
17
F0
1B
F5
01
F4
DF
0A
EE
FD
FC
00
06
12
F7
E4
11
00
FE
F1
09
EC
09
F8
0E
11
01
0D
05
13
F5
1A
25
D2
02
12
E4
DD
FF
F2
10
F7
1F
0F
09
ED
E3
02
F4
D3
FC
F2
13
07
14
03
00
09
F8
F8
01
E2
21
12
EA
FA
FB
F7
20
FF
01
E5
D1
F9
CC
09
10
1C
07
09
07
FD
11
18
F6
F5
ED
10
0D
11
F3
07
F4
00
FA
17
ED
FC
00
F8
F2
13
01
15
09
F3
13
11
F5
01
15
FF
F1
FD
EF
FB
19
1C
2E
0C
10
F4
0F
EE
F3
F7
1A
F2
11
E9
ED
F8
13
F1
0B
F3
04
1F
EA
08
06
EE
0B
09
0A
DA
F1
1C
E5
CB
F7
EB
10
17
10
E8
26
E2
F5
0F
29
01
EB
FB
0A
F6
08
02
18
08
08
E4
1B
10
FF
06
1B
FD
17
E8
FE
0D
05
F5
06
06
1D
01
01
0E
08
FA
07
FB
F9
01
17
FE
12
07
13
E8
FD
FD
02
E8
0C
06
0F
F5
EF
01
F3
E7
DD
CC
26
EF
18
E9
F5
F6
D3
02
07
1B
08
FB
14
03
FD
D8
06
08
10
EF
F5
FA
FF
FE
FE
0B
18
F7
F7
F7
11
F6
06
FA
FD
0A
0B
E6
06
09
1C
16
F6
F9
FA
E9
FA
FC
17
16
0A
FA
06
F3
07
FC
F2
EB
04
02
E9
DA
D6
E0
FA
E5
0F
FC
EA
06
E3
12
23
F5
F5
12
00
F4
F2
B5
01
03
FC
23
DC
E5
EA
06
0E
FF
F6
0A
03
01
10
F5
FE
0B
F8
1D
F0
FF
1D
01
15
E4
08
FE
03
0B
07
15
11
08
0B
FC
0A
02
08
F7
17
E9
F7
0D
DA
EC
E4
FD
F7
0D
F3
18
EA
21
FB
26
E2
05
EA
FA
DD
F0
F7
12
01
00
01
0A
F9
0C
F3
0D
E1
0B
02
13
03
0E
1E
12
FE
02
FC
1A
10
15
04
FC
0F
13
01
F0
FD
15
FB
07
FC
02
E6
02
09
11
09
01
01
F6
10
FC
08
04
00
EF
FD
F3
16
E8
06
F1
F5
FD
17
02
0D
EE
10
06
FF
00
F5
0D
1B
02
0A
ED
E1
E5
15
17
20
FB
03
12
0E
12
0D
1D
11
F3
15
FD
0A
E9
EE
19
23
F0
EA
14
07
F3
FD
03
0B
F8
0A
01
12
04
03
DB
FA
F8
EC
F8
F7
13
F4
D5
0F
14
C3
E3
E5
09
FC
22
E7
F3
EC
0B
FA
EE
E3
EB
FD
2C
FD
FC
F6
FE
DF
05
F0
FC
0B
1F
EA
04
F0
EC
15
0E
FE
02
FC
02
03
0B
F6
EE
08
1B
0B
00
FB
F5
F6
00
08
ED
F7
F4
FA
1B
F3
EA
F4
01
FA
17
F9
DC
EF
0D
0F
E0
0E
00
EB
16
0B
EE
07
01
20
08
0F
FA
FC
20
08
04
06
08
F1
0E
1A
27
FE
02
07
07
F6
19
00
1F
F9
08
02
F8
FE
00
09
08
E8
FC
01
F5
0A
0B
07
F7
01
0D
F1
FC
0F
0B
07
F8
16
FD
15
F4
03
08
FD
F4
F5
00
03
F0
FE
02
FA
FD
11
04
0A
EC
EE
04
0B
E1
FF
06
F5
0F
07
07
09
FE
E1
E9
F8
0C
F6
1B
08
0D
14
15
F8
F5
FD
07
0E
07
03
E5
1F
F6
1E
16
11
0F
12
15
F2
15
0E
F9
FB
1B
04
36
0C
0A
E0
E0
C1
FB
F1
F5
F4
E5
E3
EC
E4
EF
0C
0F
14
0B
E9
FA
F3
11
E7
1F
0F
ED
10
F3
FB
02
F3
1D
EA
0E
D9
F4
FF
0D
F5
14
0A
01
14
09
EF
07
14
DB
0E
14
DE
08
F9
02
25
06
F5
0D
09
04
FE
0B
08
06
1F
13
D9
E3
D8
EB
0B
02
19
FB
E3
FF
F1
F4
02
FC
14
F3
E7
D7
FC
F4
11
03
15
F1
12
0C
ED
18
EF
FA
F9
05
08
12
F9
02
14
EE
E3
03
F7
12
EA
1F
FF
F7
0A
ED
06
14
0E
0C
06
FB
FD
17
EE
DF
FD
22
18
F4
17
03
C5
FB
DE
E3
0D
00
19
FB
2C
FD
F0
FD
FF
ED
E2
FD
F3
F2
D6
ED
00
FF
05
04
16
E8
F5
04
F0
F1
E5
09
00
FA
F6
00
05
09
E4
0E
FB
E5
F6
08
E9
FF
04
FF
0A
FF
F6
FE
08
F3
02
09
F5
FB
12
14
FD
D7
03
E3
00
04
01
E7
FD
21
20
FF
12
DE
FD
F5
10
F5
EE
1D
06
06
F6
0E
FE
ED
08
09
FE
08
FD
0B
F9
17
D2
08
06
FE
0E
07
ED
1E
C9
FE
F0
F1
05
0A
06
05
E2
11
1C
E6
FF
FC
F8
0E
FB
08
07
13
0E
02
F6
EC
02
F0
F6
F9
FC
04
0B
FB
04
F6
0B
FD
F6
F3
F3
F8
08
06
FB
EC
F2
F9
FE
F6
F3
FF
FC
F4
EF
FE
F7
FA
FE
EC
09
F8
FA
07
00
FC
ED
EE
00
FD
F9
04
F7
06
09
F7
04
03
0C
08
03
FC
00
04
FE
F7
0D
FB
F0
ED
FD
02
F9
F1
02
F5
FA
F2
FB
F6
09
FB
02
02
F3
F9
F6
0A
FA
0C
FB
04
FB
F0
FF
EE
03
FA
FB
F1
05
F0
08
F8
F1
FB
ED
F4
0C
09
06
09
03
00
0C
00
F1
01
FC
03
F6
FA
F2
F8
F8
FF
04
EC
FB
F7
06
F4
01
F8
F0
07
0B
F0
FC
FA
04
FD
00
03
F9
F1
02
FF
F8
0C
02
F7
F5
FF
FD
EC
05
09
F4
F9
F1
FD
F6
FD
F7
F9
0D
F3
FA
F7
F1
06
FB
07
FF
FF
F4
EE
ED
08
05
0B
F5
06
0B
00
ED
FE
08
EA
EF
F0
F4
0B
FF
F3
08
FB
09
01
FE
EF
FE
EF
F4
F9
0C
EB
06
01
F0
FE
F3
F8
05
02
08
F7
FB
EE
F7
FD
FE
06
06
FF
F8
EF
F8
F2
06
FB
FD
F0
03
02
F5
F7
F1
02
0A
F8
05
0D
F2
F1
0A
FD
FB
F8
FA
F8
F5
EF
FF
FE
F5
FD
F7
FF
F9
1B
F8
00
06
FE
19
09
FE
FC
F2
0E
12
F5
1E
F8
FD
EF
E3
01
F9
16
00
EF
FD
0A
08
01
09
0B
14
11
E0
E4
FB
05
0C
1E
13
01
0B
03
F9
07
F2
F3
E2
F6
EE
EE
0C
F9
F6
08
00
01
14
10
0C
12
16
E0
E7
F6
F5
09
FE
FB
1E
F6
07
08
E8
FC
EC
09
08
FB
1E
FB
EA
F7
FB
F6
FE
05
0C
0B
FE
FD
F9
0E
F9
FB
0D
01
07
F6
F5
0D
07
ED
0F
0C
0E
15
09
F9
FD
F9
E0
12
1C
0E
05
03
0D
EF
ED
EF
FC
0B
03
0B
F4
00
E6
F0
00
23
DA
17
F3
DC
08
FC
0D
EF
1F
09
D5
22
03
E2
E0
FB
F9
15
F6
FA
F4
0D
08
F9
F6
EF
FB
FF
16
0B
1C
03
0F
04
0B
07
08
1B
02
FC
F6
07
E5
0B
00
FF
0E
02
06
1F
28
01
FF
10
E7
FA
FE
0C
E2
F6
08
11
24
F5
08
FE
F3
F7
01
F3
F8
D3
E9
F8
F5
0E
0E
00
FB
F5
09
03
F5
EE
F8
F1
01
F6
FE
FD
EE
19
14
FB
0F
F0
1A
DB
FC
FF
F1
F4
0B
EC
01
FD
EC
FF
01
01
FA
F7
FE
E3
FE
0E
01
0B
18
E7
E8
06
0C
F8
14
FC
0D
12
F7
14
F5
F5
F8
EB
FE
FB
07
05
F1
0F
0F
0A
16
FC
E4
07
01
10
FF
FB
F7
F1
F8
18
FA
14
F7
F8
F1
07
E9
02
FB
F3
EA
FD
20
F9
ED
10
0D
09
F0
EE
C8
E3
FC
DB
02
02
04
05
21
FA
EA
FA
0A
CB
EC
02
F9
05
07
F4
08
0B
12
13
FE
FB
00
17
EB
F4
FA
1C
0D
F4
00
ED
15
0D
12
07
F0
18
01
EF
FE
E8
DB
01
E9
12
F8
0B
FE
03
07
06
15
FB
E8
EC
07
11
F5
F3
EA
01
17
F7
F4
EB
FC
19
03
FD
FB
FB
07
03
FF
F0
0B
02
08
23
E9
FD
F2
0D
25
DF
0A
FC
EB
15
E5
F9
01
0F
0D
1C
12
08
F8
13
FA
1E
19
01
ED
0B
1D
F8
FA
0C
EB
0E
F0
FD
0E
01
12
03
F9
02
F1
FB
F9
EC
E8
F3
E4
07
01
F4
08
FB
F7
F5
F2
1E
FC
0E
06
05
09
F0
06
04
0A
02
02
E7
06
F3
08
F1
03
09
03
09
20
EA
F4
E0
0D
09
F4
FE
00
07
FB
FC
16
11
0B
F8
EE
ED
DB
F6
FD
0B
14
05
EE
01
D9
14
0F
F2
FE
1D
DF
EC
EF
FA
23
06
16
19
FA
04
D0
2D
FA
EE
10
01
0B
D5
02
24
F2
21
01
FC
1C
F6
0D
06
FD
19
12
19
FB
F2
F9
F8
04
E7
FC
06
F2
F7
F5
00
DF
EC
03
12
FE
EC
F5
E1
00
EA
04
FA
EC
FF
0C
13
E0
EB
F7
FE
06
EF
E4
0C
0A
F5
08
06
EA
01
EF
13
D9
22
09
12
F2
E1
FB
13
F9
22
0B
09
04
06
09
06
10
CE
15
10
05
EE
1D
0E
FF
23
F4
EC
FD
F0
1A
FB
06
EF
1E
13
FF
0D
E1
E9
02
00
00
F7
02
FA
0A
E9
FF
07
0C
FE
E4
F3
05
E8
03
FF
18
01
EC
D7
D5
05
09
0D
12
12
06
18
F7
08
08
26
0E
1C
F9
18
FA
03
E6
0B
FB
12
FE
08
03
F5
11
FE
01
FE
12
05
01
14
ED
10
FE
F4
EA
EE
F7
F2
FF
10
0D
F2
09
F1
EC
06
07
FA
D8
0A
F9
FB
13
EB
00
18
11
22
F7
02
F9
EE
17
EB
ED
F8
01
0B
F6
EB
FB
FE
06
F4
FA
E8
02
EF
08
00
E9
1D
01
EC
F0
E7
EB
E9
03
06
0B
F8
E6
F9
0A
FE
FB
F5
F4
ED
03
0C
FD
EF
F1
02
24
07
F9
05
E8
0D
F5
EA
0C
13
3A
19
D6
EB
F9
F0
1D
11
0B
00
EC
05
02
00
F1
F2
07
FD
F7
10
F8
F3
F8
05
0F
06
01
F1
FF
17
1D
FB
06
06
05
0E
F9
E3
20
15
11
05
08
10
10
EC
01
15
0F
12
0D
05
0F
EB
0A
02
13
F4
13
00
0E
E3
1C
07
0E
E2
F5
EB
F0
CE
13
FA
14
EC
13
E1
F7
F1
03
0A
08
F3
15
F4
FF
EE
FD
01
05
F1
00
F8
0C
00
02
09
F8
0E
18
EC
11
FD
13
FE
07
F6
02
FD
0A
F3
F9
FE
12
07
DC
F4
E3
D1
0C
F8
0B
E4
15
E3
F8
E3
F6
0C
FD
FC
DE
E3
F5
AD
CA
05
FB
C5
11
F1
FD
E8
FA
27
0F
14
0D
EC
FF
F2
0F
ED
F7
0E
23
FC
0C
E9
0A
01
01
00
ED
EE
11
EE
F8
04
00
1C
05
F1
11
F8
01
0C
ED
05
EC
EC
12
D9
EC
06
21
11
1B
D4
F6
D6
06
F4
11
07
0C
FB
ED
ED
E6
F4
ED
0E
08
12
D5
11
00
18
05
0F
0F
FD
19
FB
08
DF
EB
FB
DF
FB
FF
FF
0C
EF
19
01
0B
05
08
13
E4
17
09
05
03
19
13
FC
1F
D0
3B
08
1A
1C
09
00
D3
FD
0F
16
19
EF
F9
EC
0F
C9
F8
F5
1B
0F
10
1D
E4
FC
01
17
FB
0D
E3
1B
05
07
F2
E9
0A
FA
10
F9
0E
E0
FE
11
2B
00
FF
18
0A
FB
02
07
FA
1B
16
04
14
15
F0
16
F4
00
FA
F4
E5
FC
08
F8
F7
01
07
F7
02
F3
E9
04
11
01
F4
04
FE
F6
04
E9
E0
FC
10
FC
0E
F7
FB
06
05
E0
00
EC
0B
E5
E7
E9
0C
E5
01
EA
EB
F0
D4
FF
07
12
0B
DB
00
05
F2
D5
16
FE
06
E4
11
17
04
03
E9
10
E8
EC
FF
E8
10
17
08
FA
05
0D
F9
14
04
F5
18
F0
03
F1
FA
1A
F6
E9
F5
FC
E9
00
01
04
13
E7
F0
F1
11
F4
F7
E9
F2
E8
15
E0
01
F4
EA
F5
DE
17
F9
FC
F5
FA
FC
FA
FA
F9
01
FD
0E
12
E0
FD
F2
11
F5
10
10
0C
03
0D
F2
FF
E2
F8
00
0E
F2
FC
F5
0B
01
14
12
EE
E9
0E
FF
F0
F1
F6
F5
08
0C
0E
FB
19
02
F5
E5
FD
EF
19
D9
F9
0B
E9
FC
FC
03
FF
E8
17
07
F6
F0
F9
FA
05
05
23
03
EC
0B
F1
F2
0C
D7
05
E5
F1
0A
F9
FA
EA
E1
2A
FF
21
0F
0C
F6
18
03
F5
F1
09
F0
13
E9
FF
14
0F
0C
11
FE
08
17
0D
FA
10
F3
FA
05
11
F5
F3
EA
05
0C
01
F9
F9
F6
FC
F1
FC
08
F1
F5
F0
04
06
FE
EC
EF
FB
EF
03
EC
FA
08
0B
F8
07
F3
F0
07
09
04
F0
F7
FB
FE
FC
F4
FD
F5
0A
F2
EA
F9
03
EB
F2
0D
01
F5
ED
F0
E8
F1
F8
03
F8
F5
F4
07
08
EA
F4
F8
FB
FB
F8
0D
0C
03
F4
EC
F3
F3
05
F8
FF
FC
05
08
F5
05
09
FD
F5
00
EA
F3
0D
0A
06
09
EC
01
06
F2
06
F2
F8
FC
F1
F8
F3
EB
F6
F9
EF
FF
FE
10
07
FB
F3
06
0A
00
FC
F0
F4
F1
F2
FF
FE
F1
02
F8
F5
0B
F9
10
0F
F5
F1
04
F0
06
0D
F1
FA
F1
0D
0D
EE
05
F1
01
05
F4
F2
F9
0B
07
F7
F4
09
FA
07
FF
0B
F9
F7
10
EB
07
07
0B
F7
E7
F0
EF
F8
F2
04
FD
F0
04
FB
0A
F9
03
F2
F4
F9
05
09
03
01
F7
05
FD
FC
04
F1
0B
0F
F3
09
FA
F9
F1
F1
F4
F0
FC
EF
F9
06
FB
0A
FC
0B
ED
02
F6
EF
0D
04
03
ED
0A
F1
EB
F7
F9
E8
02
FB
EE
F8
F2
E8
03
09
FF
FA
F4
07
FD
05
F6
08
F8
F8
05
07
06
ED
FF
F2
F9
FC
01
FD
0B
09
FF
FB
F1
0B
F2
EA
07
04
EE
F3
F9
06
FD
09
0C
F2
FE
04
EE
F3
F0
E7
02
0A
0A
FA
FF
0A
FB
FF
E9
0C
FB
06
FE
FA
0A
F7
EE
ED
F6
FD
F6
FD
F2
FA
EB
0D
00
F8
F0
FB
07
EB
EE
F3
F6
EF
EC
ED
FB
00
F8
08
0A
07
FE
EF
F5
F0
F3
0C
FF
0A
0D
F8
08
0A
02
F8
F2
02
03
FD
F2
FC
00
F1
07
F2
06
EE
FD
F4
FB
F3
F5
FB
FD
FB
0F
FA
FD
E6
EC
F9
FB
0A
EC
02
EF
EA
0A
03
0C
10
FF
13
FA
F8
F3
F4
F6
FA
FA
19
0B
F5
F9
ED
F6
00
02
19
04
F4
F8
09
F0
F1
F7
15
F3
0A
FB
0F
06
05
05
EF
FA
F1
F1
FD
0A
05
FE
FF
EB
FA
F0
F2
FC
F2
FD
F2
0F
FB
F4
03
F9
10
F4
04
00
0D
E6
00
17
F8
05
FB
02
0C
0A
F3
F9
0B
06
FD
09
F0
04
0B
FB
0E
FE
EB
0D
02
F8
F2
F4
F4
FD
FE
EE
EC
0C
EF
F7
0A
F8
F1
FC
EA
FD
E6
F5
E9
E4
FF
F3
F8
EE
FE
FA
E8
0D
00
EF
EE
0E
F8
F1
F5
00
09
F5
F3
FF
16
01
F6
09
02
FB
F1
0C
0E
FE
F6
F2
FC
E4
F4
FF
E7
10
01
06
23
FF
0B
F5
0C
13
09
0C
FA
EF
F8
02
F8
ED
0A
05
F7
09
16
0E
03
0A
EE
1A
F5
F1
F4
10
F0
06
09
F9
FA
05
08
03
FA
F7
00
E5
02
0E
E8
07
EB
F3
0A
E0
02
20
1A
1D
FE
01
EB
FC
07
F0
FA
F8
01
10
DB
11
F1
03
0F
06
08
10
0F
18
01
FB
1A
FE
FE
EF
E9
06
0B
F4
F8
F9
FC
0D
02
09
F7
0D
F2
F0
D6
03
FB
0E
FF
FB
00
03
08
0D
0C
00
02
19
02
11
FD
12
10
08
E6
F7
07
13
09
06
EF
DD
F4
F2
07
EB
EB
1A
EB
FA
FA
F1
09
E5
F6
18
18
27
FC
E9
06
E2
F7
0C
FB
01
21
05
FE
E8
F7
03
EB
EF
FD
05
ED
0A
03
FA
07
15
23
FB
E9
F7
0E
FF
FE
04
F6
23
09
1B
2B
0F
0A
FC
FB
03
F6
20
11
EE
00
01
1B
18
13
F7
FC
EE
F2
EF
16
F3
01
0E
F3
14
F7
11
FC
05
E6
EE
1E
FE
F6
0C
09
0E
0A
FB
04
03
F7
05
F6
0A
0C
1A
F8
0A
F9
03
04
17
F5
23
F6
F0
0D
03
09
08
F8
0B
06
FE
FC
EE
F9
F5
E6
05
FF
08
0D
05
DC
19
0D
0E
18
00
12
FC
FA
13
EC
15
08
FD
FE
09
06
00
F8
DE
0B
2E
10
0D
03
EF
E8
03
00
08
F9
0E
0D
D3
FD
CF
D6
1B
0C
00
0D
F8
D4
CE
18
F8
F2
F1
0F
DA
DF
CC
DC
02
00
18
FA
F3
F8
F2
FA
F0
0A
F2
0F
06
E8
0A
E7
0E
14
01
20
EE
E5
FA
0A
FE
F2
08
FD
F8
FE
DC
E1
0F
05
FB
21
00
0D
FD
09
3A
D8
0A
F8
DA
F6
04
C5
E0
0C
09
02
15
07
02
EF
2A
F3
DF
0C
01
D5
01
D7
DD
0D
12
14
06
09
0C
ED
0E
ED
EC
F9
09
22
FB
03
FE
F8
13
FE
F4
04
08
01
14
FB
F3
F7
08
F9
DA
FD
08
05
09
11
F3
05
D3
F6
06
0C
FD
FA
11
DE
1A
03
F6
05
FA
1B
0B
E5
26
F3
F6
EC
FF
00
0D
0A
12
15
FF
0B
0A
F7
FD
FF
06
06
F0
F4
EC
07
F3
1B
FF
F8
EE
F5
FC
00
0F
FC
EA
FF
F5
09
04
07
DC
FB
F3
E3
FE
02
EF
0E
08
08
E0
FF
FE
FE
E7
04
0D
00
1D
12
F0
E6
05
00
0A
1E
0C
FB
E1
1D
0F
FE
F7
0B
0E
23
14
F8
12
04
18
00
F6
FB
02
02
11
0D
EA
10
EE
EA
03
EC
11
FA
0C
0B
E5
0E
0A
F4
02
00
FE
EE
0B
03
F1
17
0A
07
00
EC
05
0B
0B
F8
01
0B
ED
DE
09
FF
13
1E
F0
01
1F
F7
12
07
EF
05
02
F5
E4
04
0A
FB
FC
0E
ED
17
03
1C
09
05
01
DE
FC
E8
00
F1
F0
F8
01
E7
19
09
D5
14
FE
F4
02
12
05
00
F7
08
EC
02
FF
F3
F3
13
F9
FA
F7
06
E6
10
01
ED
F6
04
05
02
F1
0C
02
00
FB
0B
F4
FE
FC
13
07
EF
0A
09
00
19
FD
F1
FD
FD
03
11
11
02
FC
08
0F
F0
0E
01
10
FA
F0
F0
FC
F9
F8
D4
11
09
FB
FF
E8
0E
14
12
0A
16
F8
F9
F2
0E
02
01
0E
ED
F1
14
06
0B
05
EE
03
00
F9
14
EB
0E
F0
1B
F4
EF
03
10
17
07
F6
0E
E0
10
13
08
01
F2
EB
04
F8
0A
08
FE
02
0D
13
F5
04
F9
0A
F6
EB
0F
DD
0F
EE
FF
21
01
FB
13
FD
FC
DF
F3
0C
F1
08
07
0B
E2
F8
0F
09
0A
12
FF
EC
F2
BE
04
FA
11
0B
16
15
F2
EC
E9
FE
18
08
14
F7
FF
0F
03
FF
F9
06
FB
18
F1
F8
0D
15
03
0D
0B
0F
FE
15
27
E4
16
0D
10
F6
14
1E
F4
EF
0B
EE
07
08
1B
F9
1A
EF
F5
FF
F6
01
10
06
0B
FC
F7
FD
FF
0F
E6
04
0C
D7
FB
0F
00
F6
05
F2
05
FB
F8
FF
F3
20
0E
17
0B
F3
17
F1
FD
FA
FA
08
1A
FB
0B
0F
10
F8
C5
02
D9
12
1F
17
17
00
21
E7
02
08
EE
06
1E
F6
E9
12
EE
20
20
18
1C
EC
00
14
1E
FF
E6
F6
20
F8
F2
EA
EC
02
FB
05
F2
F4
11
02
1B
E9
08
0D
FA
FB
0B
10
07
F7
04
EE
FC
F3
00
F3
24
F1
29
0F
E0
DF
D9
F8
0D
FA
1A
04
13
1A
02
16
DD
FE
F2
0A
03
F4
DF
F7
1D
0B
1F
08
1B
12
E4
22
DE
EF
FF
F8
03
04
1C
F6
F1
14
02
FE
FF
FD
EC
0C
08
07
11
F5
04
13
F1
05
DF
0C
E7
1B
05
FF
F7
F2
F2
12
23
0A
E7
FC
01
05
18
03
E1
F0
0D
F8
F5
02
05
0D
06
04
08
15
0A
F8
FB
F5
EC
D7
04
2C
0A
F2
FA
02
04
05
08
F5
08
E3
06
E8
F0
DB
07
FC
F5
0A
FE
29
19
F8
FA
F6
18
0A
E4
06
F3
FF
FA
02
05
FC
E6
11
F5
01
E9
09
0B
0D
02
FA
FB
EF
F7
05
F7
FF
F0
FC
0B
03
0B
F3
05
03
01
F4
EF
F9
00
F3
0F
FA
07
FC
F6
F3
0B
05
08
07
F7
FD
F3
02
08
F5
FE
EE
F5
F5
06
F7
F5
00
EF
01
09
F5
F3
05
F7
0D
05
0E
FC
06
FC
EF
06
F6
08
ED
F5
0E
0B
FF
FC
F5
F9
F4
02
FE
F6
03
EF
08
FB
01
ED
03
FB
03
F0
01
0D
01
F1
0B
02
F9
05
F8
09
01
F9
09
F4
08
08
F5
F6
F4
F6
0D
FA
FC
F8
F2
F5
FD
F5
0B
EE
FA
05
01
FB
EF
01
F9
01
FC
FC
02
FA
F9
F9
09
EF
EE
EE
F0
FC
F6
F5
01
FE
02
FA
F4
0C
FC
F8
F4
FC
FB
06
03
07
F6
FF
F2
FE
06
FA
F3
FD
0B
06
F4
02
F3
FD
02
F6
04
F4
F6
FD
F2
F9
FF
03
F7
01
03
00
F3
F5
0B
FC
07
F2
F6
F8
F3
FE
0C
F3
FF
F4
02
FB
FA
01
0B
EF
02
06
F2
05
02
02
F9
FA
F5
03
F5
0C
0B
06
FC
F9
0A
F1
11
00
06
FA
0C
F8
F3
F2
FB
FD
0B
06
F9
0B
0A
F1
F2
F3
F4
F3
03
F2
FA
FA
07
0C
FB
FA
0B
09
06
EF
03
FF
FE
0D
FD
07
F7
0D
0B
F4
FE
14
09
1F
11
1A
1F
04
06
0F
0E
1B
F4
0B
FA
04
F6
00
DD
03
ED
FD
22
FB
FE
F6
F8
14
08
04
15
FA
0F
F2
F3
10
EC
04
08
F6
F6
11
25
FB
26
1A
01
FD
1E
F6
0C
F5
F0
28
F2
1C
09
F8
F8
04
0C
FC
0B
21
FF
FE
ED
04
10
18
F8
F9
08
02
04
10
0C
F0
F2
13
0B
0D
FF
E8
17
F6
0B
F6
F4
F3
0B
1C
FF
03
F9
E4
1D
FF
0F
EB
04
EC
12
08
FD
11
0F
10
0C
09
15
F8
1C
02
03
03
0E
0B
FC
10
08
04
F4
0B
01
10
D7
F2
06
00
21
DF
27
FE
D6
07
11
E3
02
F7
FC
25
F1
14
FC
1A
02
10
27
EE
F1
0E
FA
0A
09
FA
05
03
E3
13
FE
16
25
13
F6
0B
F2
F8
00
03
D8
EF
DE
01
27
F5
0E
14
12
FE
D8
21
FA
01
F6
F5
2F
04
25
18
F2
F4
F1
D2
06
D3
0F
DD
03
FE
28
12
11
E7
04
E6
FD
FD
F8
DF
1B
F3
FD
11
FF
EC
0B
F5
10
EC
F8
F7
04
FD
F4
01
18
1E
F4
01
0A
F6
0F
04
FA
00
04
DE
0E
F8
21
FF
03
01
F0
EC
05
08
12
21
21
FF
FB
19
E5
02
E5
DF
DF
0B
1F
EF
E5
11
20
FF
0C
1D
E4
0A
F8
D8
F3
F0
EB
DD
04
FC
F7
09
02
01
FA
EF
EF
FD
07
E7
EA
F3
F6
EA
D9
11
EE
0B
FD
E9
EE
F8
04
F1
0B
02
0D
0C
06
F1
F1
19
F6
FF
FA
07
0C
DE
19
FF
07
15
18
F4
EB
F6
FE
02
01
FD
F4
21
F9
E9
F5
FB
0A
0F
ED
05
F8
20
06
00
ED
E8
DE
0C
F4
01
E6
08
F2
FF
09
0A
09
F2
F4
0F
FE
FD
F6
F4
E1
F2
25
FE
00
F8
0B
16
0A
F2
F6
0D
07
1A
0A
13
04
F8
0B
00
03
1F
0D
06
13
DF
13
EE
D8
08
E9
09
0E
09
04
14
06
18
F2
13
0E
F1
1D
07
F9
02
E4
EE
EA
FE
EE
10
F7
10
F7
0A
14
11
F4
FC
F4
18
02
FD
CE
FB
ED
EF
F6
06
06
FE
03
FE
E1
E0
10
15
FC
ED
19
E2
01
F7
00
06
16
EF
FA
F5
11
F1
1F
25
07
02
07
EF
0C
F9
1A
FE
E7
FC
04
0A
0C
F7
F6
FA
FE
F9
E9
E8
C1
E2
03
0F
EC
09
16
10
F2
FA
0F
F8
FA
0D
0F
FB
0F
02
E5
07
EF
FB
08
0D
F3
FE
0F
06
12
11
01
00
F0
EF
DF
F6
EE
FC
FA
FF
07
E8
CA
F9
E7
F0
F8
FE
01
0D
E3
DC
EB
F4
F7
16
13
FA
08
0C
F9
D7
05
21
FC
04
E7
DB
D6
F5
16
0B
0B
EE
03
F4
F0
DB
F4
10
F4
02
F6
EE
09
0B
F0
ED
F0
D5
08
0D
F6
E4
01
07
06
12
0B
F8
FE
EC
08
FD
13
F4
DE
00
F2
19
17
F6
FE
08
0E
07
07
EB
F2
1F
06
01
F9
F4
12
28
FA
FD
05
0B
16
19
0C
1F
FD
10
F3
11
0A
F9
0F
09
EA
01
F9
FC
DA
E7
F9
F8
01
0B
EA
06
05
0D
12
FB
30
15
26
F6
11
0E
F8
E2
0D
03
14
E3
EC
FA
0E
1F
F0
F2
01
06
01
12
F9
02
00
0B
FD
15
EF
F7
E9
FE
02
EC
05
04
16
07
F9
F0
FD
02
0A
10
F9
06
09
E1
01
0D
0E
E8
15
0E
FA
F9
03
EB
DF
0F
FE
E2
E8
0D
18
ED
FF
15
F3
0A
09
F2
F6
06
19
F6
03
02
F4
E6
07
15
03
09
08
F7
0B
F0
EC
F6
16
E6
ED
0F
0E
F5
12
0F
F7
F6
17
E9
14
F1
00
FF
04
E6
ED
E9
FB
F1
ED
DB
F7
D3
FE
FA
04
E7
07
F9
F0
EB
FE
EA
D8
01
19
F8
FD
18
F3
FC
FF
DE
EB
F5
24
E8
F4
18
0D
0B
13
F7
F8
0D
0E
D8
E7
F1
F9
06
F7
EE
FC
07
FD
FA
1B
D9
EF
F0
DF
EF
FB
0A
0A
04
0B
01
E1
FA
05
E2
EC
0F
08
F7
F7
F0
EA
00
0F
13
13
E5
0B
EE
F0
EC
08
F1
07
10
0A
1E
14
F2
FE
29
0E
12
21
07
FB
27
02
EC
F7
19
10
0D
06
F5
09
F7
FA
1D
02
01
F0
FA
F0
EE
D4
F0
1A
14
F8
F1
EE
04
FA
0A
F0
0B
14
FE
0E
F1
DF
00
F9
0D
F6
E9
D8
01
F8
02
FF
0E
10
07
F8
FF
E9
17
19
1D
0E
0E
02
1D
0A
FC
E3
FB
14
1B
F1
02
05
19
07
07
F6
10
0B
F4
FE
FF
00
02
F0
F8
E8
01
FF
1A
FF
F5
FD
FE
F0
E3
F9
03
0E
05
FF
FA
2D
0A
08
07
E5
F9
FF
F0
F3
04
15
E9
06
FB
EE
EE
04
06
08
1D
06
F1
0E
1B
0A
FD
05
03
0C
0C
FA
FC
05
07
FC
F9
F6
F7
F8
08
FA
26
05
01
FA
14
FE
E7
09
0F
04
13
F0
FD
EC
F7
05
F8
00
02
0A
0F
F0
FD
07
19
0F
F7
FA
01
D6
0A
F6
FB
16
F4
F2
F7
00
01
EA
FC
F2
F8
FE
0A
FD
0D
E9
03
FB
09
F3
0C
F3
E5
F3
D2
19
05
08
F6
FC
10
0A
1D
E9
F5
E5
06
F7
05
FC
D2
E1
F0
12
11
0B
07
08
0A
F2
FC
F6
F9
F3
13
01
C7
04
E2
03
22
0F
19
13
0A
12
11
F0
ED
D2
1E
03
F7
FD
07
F7
D9
EC
EE
06
1F
19
06
F6
11
F6
E8
F1
07
F9
12
FA
F7
0E
01
EB
25
F2
ED
18
08
03
10
11
F5
0A
D4
FE
14
0E
0C
F6
FD
F1
E8
03
E3
FE
13
11
F1
16
EB
07
18
02
E5
F4
FE
0A
FE
E5
C7
D7
13
FF
15
E9
22
10
F6
F2
F1
16
19
F7
F6
12
1E
F5
0A
EF
EA
E8
04
13
F6
01
F4
01
04
FC
00
10
E4
05
02
FE
05
F0
ED
F1
EA
09
07
EE
F2
00
0F
03
F1
1A
F6
23
09
FD
00
FC
04
0F
EF
EF
F9
07
09
E4
05
19
F8
03
0A
DD
E4
16
08
0D
0B
13
2B
EA
0E
E8
FC
F7
F8
C7
F0
C9
FC
F2
01
19
00
02
EE
B8
06
08
EF
EE
0A
E1
FB
C1
FC
FA
E1
0B
F2
08
F4
DF
E9
DA
FD
F9
FC
DB
FC
F0
F9
08
E4
20
0F
F9
EA
CD
EE
D9
F5
08
05
DC
F9
F3
EF
F9
05
16
06
04
F3
E3
11
25
00
FB
F0
EA
F3
F5
EB
F9
06
00
F5
04
14
01
FF
0E
FE
19
03
05
E6
0D
E7
E4
03
EF
E7
01
0F
04
EE
F2
E8
F4
00
07
F1
18
05
E3
06
D8
F0
04
1D
1E
ED
1D
E4
FA
0C
EC
09
FA
FE
08
EF
FE
EF
08
25
01
FA
09
13
F4
EB
00
11
06
00
EE
F6
F9
FF
03
00
11
09
F6
20
09
F0
29
EE
00
EB
19
19
E9
FB
01
FB
15
F2
F9
0C
16
13
08
02
04
EF
05
0C
EA
EB
EC
08
0B
05
FE
D4
E6
20
0E
02
F5
09
05
F0
08
E9
C7
0E
EB
07
0A
16
1C
F7
F4
0E
F3
00
00
0F
00
FD
0E
00
E1
08
05
05
EB
00
E9
08
E8
F8
0A
01
F9
17
EF
07
E2
15
03
FD
05
08
09
F2
0C
0C
17
05
08
05
05
F5
1E
05
14
07
01
09
22
2B
05
F2
08
04
FA
FA
F4
0A
E2
13
ED
F1
05
FC
E0
FE
CB
0D
13
FB
06
F8
EC
01
E0
04
09
13
14
04
FD
03
1D
F6
FA
14
1B
06
12
E5
EB
0C
E9
F1
04
FF
02
09
1E
FA
F8
16
08
10
0B
14
0E
06
FD
14
04
F3
06
32
FE
0E
0D
FB
0F
25
0F
F3
EE
12
DC
1A
15
FB
E8
0D
01
F5
09
22
07
1E
00
03
FB
09
19
F2
F6
0B
E4
E6
EF
ED
11
0E
17
09
FA
09
F2
F4
20
08
E3
05
DF
E1
ED
F3
F7
F3
F9
F9
F9
F6
FF
F1
10
D6
F6
F2
FA
19
FA
F7
04
E1
05
03
0B
06
08
02
07
00
07
DC
08
15
0E
14
DC
05
00
FB
0C
08
0B
EE
07
F6
FC
E7
05
F6
FF
FC
F4
16
E2
F8
16
16
F9
02
11
FA
FD
EC
FD
EB
03
FA
FD
F3
FC
DD
FA
0A
FC
FC
01
08
04
04
24
FE
12
1B
E5
F3
F1
E9
EF
DF
23
EE
EB
0B
FE
0F
0D
FD
F3
0E
FB
D9
E4
F0
13
0C
04
F2
EA
F6
EF
EC
15
FB
01
F4
E0
F0
F9
EA
FD
EF
F0
0C
02
01
0B
03
11
E9
F6
09
05
EE
03
EE
E3
EC
DA
00
FC
02
EA
06
28
F4
12
D5
F4
14
F5
E1
DE
FB
07
EE
FF
EE
0D
13
01
E1
EE
F1
10
03
EF
EE
06
FE
F1
FE
EB
01
F5
0F
F5
1A
F2
F6
F8
DD
0C
00
FA
DE
E9
09
EE
08
FF
0E
0C
D1
00
FD
FC
02
18
1B
07
D8
E2
04
F0
F6
FB
16
00
E4
0F
DA
E0
17
0F
1B
F1
1B
FA
F5
18
EB
FF
06
13
B6
15
EF
D4
0F
09
04
E4
F6
1B
06
01
E1
E0
17
EE
D1
F2
FA
07
FB
E6
03
F0
E9
05
0B
FE
EA
F7
05
0B
D4
F5
05
1C
05
F0
0B
EE
FD
F7
01
EA
FC
DE
0E
FB
E3
26
07
EC
19
03
F9
11
FA
FB
11
0A
F2
0B
11
17
04
13
06
EC
12
EF
EC
F9
FC
01
E3
07
0F
15
FA
F6
EE
EB
02
E3
1A
02
06
12
F1
FF
F3
E8
0A
05
0B
F2
FF
0C
F8
F8
FF
0A
FB
08
04
10
09
F2
01
04
10
0A
03
04
19
F6
F3
FF
ED
0A
06
0C
FE
D8
21
E4
0F
1D
1E
F3
0C
08
01
05
F3
10
02
0E
F2
FD
0E
02
FB
02
F5
F4
15
E6
08
ED
EF
14
DD
ED
FE
FF
FC
02
E0
EB
0A
ED
F6
F8
F5
11
F3
0D
1F
F6
D5
0B
FE
1B
DD
08
F5
F3
0D
02
F7
14
02
02
F4
09
12
E7
0F
01
11
F6
FF
ED
F7
0F
F4
F4
09
14
0C
EE
14
03
05
12
E4
F6
FD
10
07
EE
DC
01
F1
E0
FA
F0
00
19
07
FF
D6
0B
15
18
17
F0
F1
18
DB
EF
01
EC
C7
01
05
0B
01
F8
FE
17
FF
1B
ED
DD
00
F4
0D
05
FA
EF
1C
FE
F3
05
0E
21
0F
FF
FD
F5
FD
FB
DE
02
EB
D5
00
10
F2
09
CC
FA
02
F9
08
F9
EB
0F
00
F6
E6
F2
1A
13
FE
03
DD
F7
EA
F4
15
EB
F0
0E
11
18
F5
FA
13
11
1C
03
1A
17
0C
DC
E0
F2
FE
0B
13
F0
04
EA
02
0B
EF
09
20
05
01
F0
ED
06
E9
DC
FC
00
CA
FD
0A
03
FC
12
0F
EC
EC
EC
DD
F9
E7
FF
04
FB
AF
FA
E8
0B
FE
1F
FA
18
0F
DB
1B
07
B5
00
06
0B
DC
F3
ED
DB
09
07
FF
0B
1D
DC
F4
CB
FA
F9
21
0D
07
0A
08
E1
DB
F2
17
E6
01
E3
D8
D5
D9
00
09
F4
01
02
E9
EB
C4
24
EB
01
13
CF
E1
F6
FB
E8
F1
E9
E5
05
00
FA
DE
19
08
0C
15
D6
ED
1B
C0
DC
ED
0B
DE
0F
FC
06
E2
01
07
03
F5
05
FD
EA
14
23
47
01
19
2C
EB
F1
0F
ED
F7
EB
F4
F8
07
02
F1
E0
1A
D2
1B
36
08
10
E3
F0
05
FA
1A
FC
D9
01
EF
F5
FB
DB
13
F8
08
F5
D9
F1
0A
F7
12
F3
CD
F5
E1
CE
EF
FC
E7
F6
08
0E
E3
F1
E6
FF
F8
11
0E
EE
2D
12
02
08
0D
F2
06
E9
18
F2
ED
E9
00
F9
EE
14
0F
CA
04
03
09
DB
E5
04
21
F5
D8
03
07
13
08
17
03
F8
FC
FC
15
ED
01
E4
05
06
E6
EB
0E
F5
04
EF
05
0A
F7
FC
1A
09
17
F1
0B
00
16
1A
FF
FF
F3
07
FB
12
09
08
01
FE
EE
32
DA
29
1E
FA
12
EB
F1
12
FD
DE
24
F7
CD
0E
08
0E
10
1B
EA
03
F0
15
F3
1B
FD
FE
F1
02
F0
EF
07
F1
0D
15
08
1E
07
32
0A
11
18
1E
15
01
EB
00
07
0D
E8
14
19
01
03
0B
FD
FA
FA
E9
03
EC
D4
0A
13
1A
D0
04
0C
06
F0
05
FF
06
DD
F5
F9
ED
D5
27
DE
F5
DA
0C
04
FA
06
E5
EB
0C
FE
FE
F6
01
D5
F5
F0
E8
F9
FB
10
0A
FC
FA
06
13
E4
F4
14
FC
DF
F9
02
FA
0C
10
2D
FE
F8
EE
F6
F4
DC
F3
E2
0F
F4
FD
EF
12
E6
01
F0
03
0F
E6
ED
D8
D2
EC
16
FF
DB
F1
0D
02
F1
17
04
2F
FA
FC
F2
FA
E0
F3
03
01
E1
00
09
10
DA
24
04
F7
17
FE
E4
FF
DC
FD
09
1C
D0
E8
0E
EF
DB
0B
00
19
EC
E2
14
E9
E7
0D
04
15
09
F7
FC
03
09
F3
F1
F3
F9
12
E1
E1
08
00
D5
E9
EC
ED
F7
16
E6
F1
FC
ED
F0
07
F5
08
F4
12
DA
C7
01
EB
FB
F7
FF
0E
1F
F7
EC
10
D2
1B
F2
F4
DB
E8
04
E2
19
0A
1C
0C
CD
18
F4
16
17
EF
F8
0D
D5
08
1B
EA
02
FD
08
FA
19
F8
07
12
07
F2
16
F1
FA
00
14
F0
F8
1A
08
E3
F5
13
FB
05
F0
FD
0F
FE
C8
F5
12
18
E5
01
F6
FD
F9
00
DF
03
05
1A
09
04
E0
F6
F4
FA
DF
F3
09
14
10
FA
03
03
F1
0D
F1
FA
F3
F0
23
F6
1A
04
01
08
1C
EF
EE
FF
FD
1A
FA
F7
02
F6
08
EE
F0
EF
13
F4
F9
FA
0B
0C
0B
13
1A
FD
FD
0F
1D
02
EF
FA
16
F1
F0
F6
F5
00
17
1E
04
18
0A
FE
03
03
F9
E1
FE
0E
13
05
F7
FB
F8
04
01
08
05
02
06
FB
27
0C
0D
DC
0B
DD
02
F3
0A
07
FE
FC
17
ED
F9
16
02
FE
02
F5
05
F7
2E
03
00
04
06
1D
0C
F2
FC
EE
18
12
EC
02
F1
16
03
02
0C
0E
0C
1B
16
F5
07
FD
FD
F4
03
01
E3
FA
F7
E9
23
E9
F2
F6
05
F4
EB
3A
DB
C9
05
15
02
01
F1
FB
03
09
E1
DA
E9
03
E3
34
06
ED
FF
FE
05
03
FF
E3
07
14
E2
ED
F4
0B
02
11
FD
F3
E6
EE
06
CA
E5
EB
F3
1D
FA
F0
FD
0B
07
09
08
E5
FB
09
CC
0A
2E
04
F1
F2
07
05
FB
10
29
E4
07
E4
F8
14
EB
F5
1D
F6
1E
FB
1B
06
13
07
08
F2
F5
F3
0E
0D
FB
F4
E5
FC
FC
E4
FC
EE
07
1F
09
F5
D8
E5
16
F3
E2
03
E2
09
F9
0F
F2
DE
05
EF
EF
11
EB
D6
F7
F9
1E
EF
21
1D
F0
FB
0A
02
F8
01
EF
E8
24
1A
F2
0B
05
14
F5
10
FD
FD
16
0E
E4
11
02
F8
DE
07
0F
14
0B
07
E9
04
13
04
00
0C
1D
18
02
09
DC
01
F8
FC
E1
ED
FC
07
FD
F6
1A
F3
FC
04
FE
F6
F8
E2
FE
E6
1D
07
F2
12
0E
09
10
0D
F9
FD
FB
13
F5
01
F6
04
DD
15
01
09
F8
FD
03
EF
00
E9
F7
16
18
FC
08
F3
FB
02
FD
F8
23
08
01
13
09
00
FF
F5
06
FB
14
1A
D9
14
EC
10
12
19
12
03
07
FF
03
EB
0F
0A
0F
12
3A
16
FD
0E
F8
14
FD
0F
ED
11
FC
E3
14
21
FA
E5
17
EC
01
FB
FC
1B
06
1C
0C
F2
E8
F8
09
0F
ED
E4
F4
E9
F1
FF
0B
07
FE
04
16
F9
FE
FB
04
F7
05
EE
D9
13
DD
FE
0C
0F
FE
F9
04
06
F1
07
F5
EF
1C
0C
15
FE
F6
1C
E3
03
0C
F2
E9
EA
FE
0B
15
FD
EC
05
17
F7
FC
D6
E7
11
F1
02
0E
F5
F3
1A
00
0E
E4
06
01
F4
FD
CE
FB
EC
E7
09
FC
09
FD
F2
F4
FA
F4
F9
EC
F6
F2
00
FC
F7
D4
03
15
04
F7
FE
FA
FB
0A
F9
08
0B
12
F5
E2
FA
F3
E4
F0
18
F1
D0
07
F1
F4
E3
1D
02
1F
EF
F2
DD
1C
17
01
0A
F6
EE
0E
EC
03
05
0A
07
1D
E6
D7
F1
F6
E2
07
F8
FD
F7
EB
E3
F0
12
08
08
22
FC
DD
1A
E9
F4
0A
E9
FC
FB
04
ED
FB
31
09
25
22
FF
E7
F0
DA
F0
10
15
E7
02
11
14
13
04
E7
FA
06
FC
02
E7
E4
17
F1
13
00
13
0E
F2
18
FB
0B
FC
03
FD
EF
F6
01
DC
F2
F4
12
ED
F6
08
16
07
E7
F8
12
FC
0E
00
27
FC
F6
D7
33
FD
26
12
24
01
07
00
0B
FD
E2
E0
13
E0
02
FC
15
0B
15
F5
EC
01
08
F8
FF
EE
0A
F8
11
07
04
F6
0C
10
02
16
0B
09
F6
1C
F3
F6
03
11
F6
FE
02
FA
00
14
04
F7
00
08
06
F0
10
EF
02
03
FB
01
01
05
0E
07
0B
02
FA
F2
1A
FB
0E
E6
E9
D2
E8
19
EF
0A
EB
F9
0D
0D
E1
00
09
13
E3
00
EE
F7
EF
08
FA
F8
E7
24
EB
FC
F8
EE
F0
F8
FB
F6
09
0C
04
F2
F1
11
0A
18
FC
0B
19
FC
03
09
F7
05
FE
05
0D
FC
F5
F9
10
06
E9
E4
0C
F4
21
F2
FC
09
0D
05
EF
D6
F8
EE
09
1C
EC
22
01
F3
E3
1B
D5
07
FD
EA
15
FB
01
03
06
0D
05
FD
09
0D
0A
0F
E5
E8
E5
FA
16
F6
07
05
1A
03
EE
FB
07
F3
F1
06
EA
13
0B
10
FB
0C
07
08
18
EA
07
F5
0E
F1
18
EC
F8
01
0B
F2
0D
FD
0F
04
FE
E7
FC
F7
05
06
E0
18
F8
F9
07
10
01
13
F3
09
E8
07
F7
F9
F8
17
13
0E
F9
09
F8
F7
00
04
02
0B
06
07
F7
F8
18
F9
08
D2
FF
11
FB
04
FD
F4
FA
DA
EF
F9
0E
00
DB
E2
15
FA
09
F2
E1
EC
E5
F2
EE
FB
03
13
FA
06
04
05
01
E5
F8
17
F6
FB
FA
E6
E6
EC
F7
0D
F1
F8
F0
F1
EA
F4
0D
EA
09
06
F1
FB
D4
EF
03
10
0E
F9
F9
D4
F7
DA
E9
17
14
13
F9
1E
F0
F1
F2
F3
04
F4
08
00
FB
E3
0C
FF
FD
DD
FC
E3
F4
EF
03
02
07
F6
09
19
FA
1C
F2
17
EB
F4
01
EB
0C
F6
FF
12
F0
E6
EB
0F
EE
04
00
05
04
FA
FC
F7
0C
FD
08
08
E9
E7
12
1F
ED
FB
03
FF
F3
0D
15
F1
04
ED
0E
E8
E3
DD
18
00
F1
E3
FF
EE
FB
F5
0B
09
16
EA
09
04
FB
EA
FF
E2
EF
F4
FA
FE
E7
0E
0C
03
09
F3
1A
F5
F6
F7
FE
0B
04
11
0D
05
03
02
18
EC
05
0B
01
FF
03
0E
F8
0A
0F
00
04
15
06
13
FA
09
FA
F1
00
EF
03
FE
14
07
FD
0E
EB
14
0E
0F
F7
16
10
EE
F6
13
0B
12
08
06
EE
05
13
F7
F1
13
0D
FE
1B
E0
F1
FB
10
12
0B
F9
0E
07
F5
FC
FE
14
00
07
13
F4
ED
EE
F8
09
16
F1
EC
E7
F3
EC
01
FD
0C
16
05
D5
FD
06
EA
06
17
16
E5
16
06
D9
F1
ED
F5
EE
FB
1F
DA
EE
F8
FF
FD
1A
0F
F4
1B
D8
FC
E3
DF
12
05
15
F6
ED
FF
F9
FF
17
0D
0C
08
ED
EA
E4
07
ED
0E
F3
F1
EE
ED
E4
F5
12
11
14
01
03
F6
F8
08
DF
0A
EA
E8
03
F3
DD
F3
12
08
02
2D
01
F6
04
F6
FF
18
0F
F0
19
FD
F3
F8
F9
FB
F9
0E
FF
F8
04
F0
10
14
01
0E
FA
EC
F6
16
F3
F1
03
02
0C
03
FF
EC
EE
01
F5
1F
EE
0A
1E
F4
08
13
ED
16
03
F9
F4
F9
DE
0B
01
17
E9
11
1B
FC
00
0E
F0
1E
F8
0C
06
F9
03
0D
F5
07
FA
F4
07
10
FC
F2
00
01
0A
06
F7
FA
09
D9
F6
07
EF
F9
FA
F2
F3
00
FD
E6
13
F9
FB
F3
FE
F4
EE
12
E8
08
00
E6
FC
F9
E3
EF
EF
F8
0A
05
04
FB
09
F9
FC
01
E8
F3
03
EE
F9
06
15
10
0A
01
01
F9
15
F9
F2
00
04
FB
F5
0A
18
06
14
F7
15
F4
0B
EC
04
02
F3
EE
FC
08
F9
0B
2C
03
FD
F5
F8
FD
EA
08
F6
F4
0F
E5
E5
14
17
EB
33
E2
EF
0C
01
FD
F7
FB
1D
FE
FB
FB
EB
13
0A
FE
DC
D3
FD
F9
02
06
EE
F6
CA
16
15
F6
EF
1A
FE
0B
F2
F1
0A
15
FB
F9
E7
05
EE
1C
26
F9
EE
FA
12
CA
FB
01
F6
F8
0B
EB
14
05
FC
15
1C
1D
03
E7
D5
F5
01
05
0D
04
19
09
1C
08
0B
04
FD
D6
ED
0E
EC
D6
F3
01
18
DC
EC
0E
ED
ED
F5
0C
0A
01
EE
F5
F8
FE
0F
F8
05
F1
15
0C
FA
0D
FE
08
E1
15
FE
E6
16
1C
E2
0A
08
E6
13
0B
F7
11
03
EA
EB
FB
03
FB
E7
15
16
10
06
DF
17
F4
14
E8
FC
06
11
F8
07
08
01
FF
00
00
10
03
01
19
23
E2
F6
02
F2
0F
22
1C
F9
03
EC
15
13
FB
1A
FE
12
11
ED
0F
DF
10
0A
16
DA
17
E7
0A
F4
20
02
06
F4
0B
EC
06
F7
17
29
EC
E8
FC
00
01
14
F4
14
F9
DE
DD
D2
FC
F9
15
05
FE
12
22
1A
DD
26
04
FB
F6
05
00
E9
00
11
F4
1A
F3
05
0E
C7
F1
09
11
2A
F7
EC
FE
E6
FB
EB
09
13
03
DB
F8
ED
EA
05
13
2A
08
F8
D8
EA
F1
F5
03
F7
EE
EF
EB
EA
03
EE
EF
07
11
02
FB
E0
E9
ED
0D
F1
E6
0D
CC
03
08
F6
0F
E9
ED
EC
0F
05
15
1C
0A
16
19
03
F2
0C
F3
08
F6
05
F4
04
FD
09
08
02
08
0C
09
0F
F4
11
08
0E
F3
09
FB
F8
08
0B
FA
0E
07
0C
ED
07
01
17
0D
F5
F0
03
FF
05
0F
FD
16
04
FC
F8
03
F5
D8
02
08
EF
18
1E
FB
E8
15
F3
07
02
EE
15
19
F8
F5
01
F5
F9
04
0F
0C
08
00
FF
F8
DE
0E
00
F0
01
02
F7
E9
FD
EA
F5
F7
FA
02
0B
F9
07
07
1F
EF
02
FD
E4
07
F3
FE
0C
F1
F9
E7
D9
03
0D
1A
FE
07
F2
EE
03
11
03
E9
F9
03
0D
00
0A
0F
11
EA
F7
FE
E7
15
FA
05
05
1D
01
F8
0F
E2
09
F0
0A
07
16
FE
E7
06
F3
E2
FF
01
EE
FC
19
03
03
04
FB
01
E9
FB
CB
E6
01
DE
FF
FD
0C
0A
DD
F2
ED
11
20
12
FA
E7
F9
ED
EF
FB
0D
F2
02
19
EC
09
F1
F6
00
FF
EC
17
09
E9
ED
DA
0F
FD
FD
00
04
00
02
11
0F
FD
EE
0E
F9
F0
D9
EE
F4
0A
03
11
01
FA
F1
13
0F
11
E9
F5
04
0F
F2
09
F5
0F
EA
FD
0B
15
0F
01
FF
0A
FA
12
F6
19
ED
FA
FB
FC
04
FD
EF
FF
06
F5
06
F7
0E
EB
E2
05
F3
F7
E6
DD
15
03
F6
FE
E7
EE
0A
E1
FF
F7
EA
E9
0A
E2
E6
D9
FD
FE
FF
DD
FE
0F
09
10
FC
FB
00
FE
0A
11
FD
05
09
F1
0C
FB
06
09
E2
21
0D
F7
F7
08
D8
20
E7
06
F7
00
18
FF
02
ED
09
02
0C
DB
ED
F0
1F
EA
09
EB
FC
02
04
F8
FE
F5
01
FB
03
08
F7
F6
F3
FA
F6
F2
11
F3
FB
02
07
0D
F1
16
03
F1
0B
ED
05
E5
F8
FD
24
13
08
E0
FA
04
EC
02
09
F8
F1
EA
D8
0C
E9
13
D9
FD
E3
09
E4
05
13
E6
EC
03
FA
E5
03
FC
FA
EC
F6
EB
FF
00
07
13
F6
D7
06
07
FC
19
F4
F2
10
E6
F1
F7
FA
0A
EF
02
01
E5
E8
0F
F6
08
FB
F9
FC
E3
02
FB
F9
DC
EE
11
01
10
08
03
E5
FA
F0
FB
07
09
02
0C
19
F2
F5
F7
D3
EE
DB
15
F0
F5
08
03
0E
F8
F4
10
F5
EA
EB
FF
09
EB
F7
FF
F7
E6
06
FD
0A
04
F8
06
EA
EE
EC
0C
E7
06
FF
07
E9
F6
F4
0F
03
02
17
03
FA
F5
D6
0E
EB
10
FD
FD
F9
F9
09
F9
08
2E
EF
FA
FA
02
0C
CF
06
E3
E4
E6
F8
09
1D
F7
02
04
FA
04
F6
02
10
E7
EF
D2
E7
FB
06
F5
09
09
09
FC
F4
F8
E9
06
18
EC
04
05
EF
1B
25
07
FC
22
01
FC
FD
F0
01
F5
12
01
11
2D
05
1B
0A
0F
22
01
E8
01
E6
07
0F
07
04
07
F2
EE
F8
06
13
02
F3
0F
DB
EE
F1
E1
08
01
FC
E6
FE
FD
17
DF
FB
19
01
10
E5
F7
F1
E2
1F
07
06
EB
EB
19
0A
0B
FA
FD
FD
0F
FD
04
1D
F8
09
21
02
F0
12
FE
04
FC
1B
0F
16
17
FD
FA
EB
E0
FC
1E
FC
03
0B
20
05
E9
F7
04
F9
01
FE
FF
0D
DB
0E
FF
F7
0E
F0
EE
08
FD
1B
F1
08
05
FA
F2
07
FF
FC
FB
00
1C
F8
09
F6
E2
09
17
0C
F6
0B
EF
E3
01
ED
05
F9
FF
07
17
FD
E4
FC
0D
0B
19
0B
08
00
06
08
11
FA
0E
03
1C
FA
EA
0D
19
15
15
FE
F6
F8
E3
EF
08
FE
EE
1F
1C
F8
E3
02
11
0C
06
E3
E2
1A
E6
F4
0E
04
D4
F1
FF
09
E0
FA
08
EF
E6
F4
F0
F9
D6
EB
E8
0D
D4
04
D9
EE
F6
F6
FF
04
E1
E8
13
FF
F7
F4
FC
F9
D0
10
D5
F6
F3
18
26
0A
15
E3
17
E2
F3
E7
11
1B
F0
30
F7
04
FC
E3
0A
D2
07
DC
04
E2
F9
E7
F8
F8
D7
37
04
03
F2
E7
E7
E7
D6
10
06
16
00
F4
DB
02
08
E8
E7
D2
F2
1A
EC
05
12
E0
F6
08
F7
0E
F8
FE
FB
F6
ED
EA
DF
FE
FA
0D
17
FA
1D
F0
0E
0A
1E
08
ED
EA
FD
F3
FF
0C
0B
05
F5
EC
06
00
0D
0A
0B
0B
FF
1D
01
DD
F9
0E
E4
F5
F2
12
01
13
24
00
07
07
FE
EA
11
E5
1B
0A
F2
10
EF
00
E7
08
DF
09
04
07
D7
03
FE
0E
FA
01
08
05
07
EB
0B
13
DA
F7
0D
14
EB
EC
F4
15
F8
0E
05
EE
F9
FA
FA
EA
E8
04
FF
09
F9
10
DF
DB
FE
1E
05
07
EE
F9
02
1D
EA
0D
F8
06
E2
FD
FF
FB
FF
FC
23
F4
00
F1
F2
04
F3
FB
02
0D
E1
01
F6
F8
D6
F6
25
0A
0C
E6
FB
FD
E6
F3
25
16
E9
33
FA
04
E3
13
E4
0C
08
F0
16
04
0F
F7
05
16
EE
09
F4
FC
EF
02
F1
FF
E6
0F
0C
EA
0D
E7
FE
11
16
02
01
E8
17
01
DE
F9
FA
DD
EF
F8
14
F9
FC
00
01
07
09
0A
FB
FC
DA
0C
F9
E5
FF
05
14
05
F8
F7
F5
F7
00
F7
0A
FB
C4
FA
06
08
09
F3
0F
FD
11
0C
F7
FB
F0
0E
08
FE
E0
05
F6
F3
18
F0
01
0D
FF
07
01
F7
EB
E6
0F
FB
FD
17
0F
DA
F6
FE
05
02
F3
17
F3
07
0B
FB
09
F5
DE
06
F5
0B
18
08
0A
F6
FA
07
E9
11
08
F3
FD
FB
E6
F4
E2
0A
04
F7
FD
20
F1
F2
EF
06
0C
0A
16
FC
0E
0F
0B
FB
16
0A
E1
F8
FC
FB
FE
01
F7
0E
11
12
03
14
15
E4
05
F4
E8
FA
F4
15
01
01
14
F8
0F
0F
04
F1
1E
02
04
FD
EB
06
F9
0B
04
FC
08
EC
F2
E7
ED
EB
13
F2
F8
FE
E0
F3
EF
D4
01
F7
0D
EE
DD
EE
04
F8
FF
14
F8
29
E8
09
F7
00
EA
08
15
FF
E1
25
E3
E2
F5
1F
16
F6
F4
02
0A
00
08
1F
FF
F8
0D
EF
EA
D4
D4
0F
08
EB
05
1E
E4
F2
19
0E
F7
05
04
DD
03
BC
F3
02
FA
F5
08
E8
03
EF
16
F9
02
00
06
F2
15
0E
02
09
EC
1C
09
FB
FA
E7
FD
00
0C
F8
F7
04
01
FD
DD
F7
F2
E1
FA
E1
25
FF
E1
F1
E0
EB
FD
1E
01
04
12
EA
01
ED
F8
21
FD
0B
F7
30
03
F0
04
18
16
00
10
CA
EA
F4
FD
05
FE
F9
02
0C
07
04
F9
11
06
F6
0B
F1
F6
EF
DB
FF
F6
05
00
06
02
0C
EC
F7
F6
04
FC
F8
1B
0B
EA
FF
E5
00
F7
F6
FF
EA
03
10
F9
12
0B
0B
FD
0D
07
0D
03
10
F9
03
EE
E5
08
FD
FA
F8
00
06
14
F3
09
0F
0F
1C
F5
02
F6
11
0E
0B
0D
12
F6
07
E4
E8
EB
EE
00
F5
FB
FA
FD
09
F1
FF
E9
0D
04
08
FE
18
E6
FB
D9
FB
C5
17
FE
02
02
12
F9
0C
04
E8
05
06
E2
28
07
26
DE
10
E5
27
08
02
FA
F9
07
FB
F2
FB
F3
F4
0F
1C
E7
00
E9
01
EE
EC
03
DA
FA
FF
F8
0E
EF
F5
F7
F8
E9
17
03
EE
F1
01
E0
0B
E7
DF
02
07
D7
FC
DF
13
FA
F7
C8
F6
01
09
1C
FA
05
FC
10
FD
F1
DF
EB
05
00
0E
FD
00
04
03
F3
0A
F4
0F
0A
DD
FE
03
0C
F1
15
06
FA
08
EF
18
FE
FA
0A
FD
16
EE
0A
FE
05
04
1C
08
E7
05
04
03
1E
FA
FD
03
EE
E6
E8
E3
FA
02
F5
0E
F6
FF
FB
F9
14
09
0A
14
F2
F9
D7
F7
03
09
FA
FC
09
01
FC
03
25
FC
05
0F
F5
13
EB
E6
E2
EE
FB
0A
0E
18
03
E7
06
F0
06
09
E8
21
07
E8
EE
C3
17
FC
12
04
01
F7
FF
EE
0B
14
E5
EB
FE
E6
FE
F8
1C
EE
FC
FB
07
03
05
08
FB
04
E7
E7
04
F8
FB
05
05
FB
F3
F5
14
F2
10
08
15
E8
E8
EE
0F
FF
0C
F2
19
F3
05
F5
01
FC
E4
07
EC
03
04
0E
23
12
ED
F7
EF
11
F4
EE
0A
07
12
0F
EC
0A
04
FD
EF
F6
02
08
0B
13
FB
01
FF
03
F7
02
E5
EA
DD
09
EE
FC
1D
F2
0B
15
F6
03
E4
FE
1A
FC
0D
0D
00
FC
04
00
14
0B
FC
09
06
FC
0D
F0
E2
00
E8
EA
F4
E4
04
17
FD
F9
EF
15
FF
04
13
E5
F2
00
E9
FD
F7
02
F2
13
06
03
F5
15
FF
EB
FC
14
07
F6
06
01
04
FF
08
E4
1D
F3
F3
02
12
07
FD
F1
FE
E7
F3
12
F8
F4
FC
F1
16
F1
F9
FD
19
03
F8
F4
F5
FE
0E
02
FC
13
E9
01
F2
EE
F3
F9
08
10
FF
03
F4
F2
F8
EA
02
0B
F8
00
F6
1D
FA
DA
03
12
F8
08
F1
00
18
F1
F7
FC
F8
17
00
F9
FB
F0
10
FF
F2
E8
FB
04
FD
F9
0E
F3
0F
01
06
08
ED
00
00
EF
08
EF
EE
F1
FB
16
FC
0E
14
03
0B
FA
EE
ED
0F
00
F0
0A
12
F6
F4
FC
F5
1A
E6
10
0A
FD
E9
FE
00
F7
F4
F0
F4
0E
EC
E7
0F
EA
F1
07
05
1C
00
E0
11
11
FC
FA
10
F5
05
FA
E7
F2
02
E8
FE
F6
EF
08
09
0E
ED
E4
FB
ED
04
15
05
1E
14
0C
F0
E0
0F
03
07
FD
02
FB
F1
FC
F7
01
F4
0F
E8
D5
FD
04
1A
F4
1B
F7
EA
10
FC
03
00
F0
0A
0C
E2
F7
FA
FD
01
F1
0E
17
E2
F7
E6
FA
ED
E8
02
EC
04
15
0C
F1
E3
F3
F0
D4
FB
E7
EB
00
0B
F4
12
F5
09
F7
1B
18
F6
03
E3
DB
F4
12
1B
F3
F9
E2
FC
F8
10
F6
23
F9
0D
0A
14
E3
06
F9
F1
FC
03
E5
F1
08
F3
FE
F0
F6
18
04
F4
05
0B
FE
F7
11
30
F4
EA
F9
03
14
1A
F0
03
DB
F9
17
14
21
20
3D
11
DD
12
F5
F0
0B
24
19
EB
F0
07
04
F5
FE
07
16
03
01
F7
F8
23
FD
F8
08
FB
FD
14
F5
E6
0A
DA
FD
02
FE
1B
17
1B
F6
FA
FE
10
FD
F2
F3
11
00
E9
EA
FC
05
18
05
F7
F2
0D
03
06
11
0B
F4
0D
F8
EE
E5
E7
F5
15
18
14
FA
F5
FB
FE
0E
08
06
0C
02
04
17
F5
12
F4
E8
F9
24
F3
05
01
0B
07
1F
EE
13
03
F7
F2
EF
04
EC
DF
F4
FC
0B
DA
17
08
1B
E1
13
FE
F6
F3
FE
12
0F
FA
0E
00
F6
CD
FD
EC
FB
12
06
09
FF
EC
F7
13
0D
EA
02
11
20
E5
FD
D9
E3
0C
FA
03
16
2C
F4
0E
08
E3
F3
0C
07
E4
0F
1D
F2
F3
0F
1A
11
19
DD
FF
F4
F3
FE
1E
0C
D8
0B
F2
F0
00
1B
FA
02
12
CC
F6
FC
FD
F5
01
08
F3
0F
D8
F2
F8
F1
FB
16
F6
D6
00
13
EA
06
F2
04
13
FD
F0
F0
F0
16
27
06
09
E9
07
F2
EB
F7
18
13
0B
FB
FC
13
FD
02
04
E7
02
F2
F6
F4
02
FE
07
05
08
16
F9
14
FE
F2
0C
F2
0E
F2
FA
E7
0D
E7
F2
EF
13
F4
EB
FB
1A
06
13
F4
0C
12
ED
05
0B
F2
F8
EF
F9
F7
1A
10
FB
09
F2
05
0D
E6
DB
D6
01
04
E1
17
0E
D0
0C
FD
F9
0E
05
FF
11
E5
F5
EC
1E
0D
E6
0C
04
BA
09
05
06
ED
E1
F0
02
F3
07
DC
14
F9
F8
06
0C
E7
04
1D
FC
F5
0A
EE
F9
03
24
F8
2B
F4
16
10
06
FB
DD
DE
18
05
01
1A
00
F6
F5
F2
F6
04
EB
0D
FD
03
EB
FE
13
04
08
08
FD
01
04
FD
FD
F8
FB
12
FD
03
F3
FE
01
F1
EA
F1
FD
0E
00
EF
0A
F5
0D
F6
EB
0B
F6
00
1B
EB
F2
FA
F4
EF
13
04
0B
EF
09
FB
EF
F3
0B
24
F6
04
E7
F9
02
F6
0F
F4
F7
06
0B
19
11
FB
DD
F1
0F
0E
E0
FB
0B
0D
FD
0C
E2
05
F6
03
09
07
07
0C
FA
E9
F4
04
F9
10
01
FC
ED
0E
F9
08
E6
08
10
F7
FE
F0
13
F5
E4
E4
ED
12
F5
F7
F3
F4
E0
15
23
11
F5
FF
EA
F6
E8
F8
02
03
FB
FA
0E
F3
07
F1
FB
FA
FB
09
FB
01
EB
03
0A
13
06
14
F9
F9
0E
E9
F9
F5
DC
F6
F6
F6
FB
E6
FA
04
FD
EB
F1
F4
F8
0E
EA
E6
F0
FB
F9
11
FE
D9
FA
04
F3
F3
1E
FE
FC
0A
0B
0D
E1
00
FC
1A
FD
04
1A
F8
24
25
3F
0E
08
44
CA
F7
0C
F9
0B
08
FA
EE
0B
E8
FE
D4
34
08
07
46
DD
EF
2C
FE
02
00
08
00
F7
F4
F0
D7
00
FF
0C
1A
DF
EE
1A
1D
FC
07
13
E3
C5
01
E9
E9
F8
ED
0D
01
04
EF
E8
11
19
12
0A
17
07
F0
07
F6
17
FD
1D
0D
F0
1D
10
2D
01
00
14
F6
17
0B
F5
ED
1F
0B
F7
1A
0D
14
0C
10
FA
0D
05
14
0A
12
01
05
F0
13
0C
02
F0
E5
04
20
0B
22
0E
2F
03
19
F0
FF
0E
0C
08
F8
1F
EF
EB
05
16
09
F3
F9
F7
21
E7
0C
F3
EE
ED
02
27
02
F4
E9
2A
F9
02
03
03
FE
02
0B
1E
FD
F4
22
11
04
02
05
03
FE
07
02
F8
09
0D
1C
F3
0A
FE
03
FA
FB
F1
17
0F
08
EE
1D
04
2B
E8
FC
F5
0B
E4
F1
FD
04
01
0A
17
15
0E
E2
DE
F6
FD
FC
D3
09
EB
06
FE
0A
F0
08
10
E7
FA
EA
E1
F1
E1
0D
FA
FF
E0
FB
02
02
F6
F5
08
0C
ED
ED
08
FE
05
0B
05
1A
EE
05
08
FC
03
02
0F
EA
F7
F4
F3
DC
0B
F7
FB
FF
EF
14
04
FC
05
FB
21
DB
0A
F4
EE
FE
0E
FF
F7
DC
EA
05
F8
20
E1
E5
0D
FB
DD
F1
F5
F1
02
03
D8
E5
EE
1A
FD
02
E3
1F
07
10
03
F6
0B
EC
01
EA
17
08
E2
F3
F8
F7
EF
27
11
ED
06
F1
DC
EF
F6
0A
FD
F5
DE
11
03
FC
E8
E4
30
E6
03
FA
EA
FD
0A
F7
FE
D2
FF
ED
E8
04
F5
1B
04
00
0A
E7
DF
FD
08
FF
F1
04
ED
0E
F1
F3
E7
17
06
06
1E
F5
FB
EB
FB
03
12
FB
D6
E3
0C
04
DA
F9
16
17
EB
09
F7
FE
06
FC
FF
EE
F9
07
EF
01
00
F7
09
0E
FD
08
EA
F1
F9
E8
FA
F5
02
00
0C
EB
EE
06
F5
1F
F4
F4
E4
06
E7
16
0B
FD
FB
FD
F9
0B
F3
06
0E
F7
FD
E6
F9
F6
D2
00
09
0E
08
F2
F0
01
F7
F2
F7
02
DF
F1
0B
F9
FA
02
DC
FA
FD
FE
0D
DC
11
06
10
07
01
FD
E7
FC
DE
F3
F4
09
F9
12
04
FA
EB
18
01
04
F3
FB
13
F6
F1
E1
04
06
F7
03
01
E9
FB
F9
15
F3
E6
F5
E8
06
F2
F6
F4
F7
13
FE
DA
04
FC
FA
FE
19
09
06
02
15
1F
EC
F8
E9
09
F9
FF
ED
0D
F7
0C
F3
FC
22
0B
10
EB
01
C6
07
FD
09
0D
00
E7
F6
06
01
E5
0F
09
08
04
0A
EF
05
00
EE
F7
04
02
ED
FF
09
09
0E
0D
08
FD
00
F8
13
FC
0A
FD
0D
10
E9
F0
FC
F7
04
0A
19
F3
F5
09
F3
10
07
FC
FA
F9
F1
01
EA
BF
00
03
14
F6
F1
E8
FF
F5
19
FE
FE
EF
19
F7
E7
F8
08
FF
F4
09
FE
FC
04
0D
EB
F5
14
FF
FA
05
F5
23
27
1D
F8
0D
07
0D
F3
00
0F
1D
1E
01
EF
EC
FC
09
1A
F9
29
F3
03
F2
DC
F1
07
0E
12
FF
F3
DD
FF
C9
0B
08
0E
E5
CF
10
C6
06
37
DA
F9
0E
F2
EC
08
F2
12
FF
1F
03
DD
EF
D3
00
03
09
EC
F3
EE
09
FD
F0
1C
0D
09
F6
E4
F6
14
0A
F6
06
07
20
F5
F9
05
F0
ED
F4
EA
07
05
03
F2
EB
07
02
F7
ED
D8
E7
D7
11
EB
EB
F2
2E
E5
22
F7
22
EE
03
FF
0D
E4
28
EC
1C
E2
F2
FB
1E
EA
06
E6
FA
E7
12
FE
0B
01
0B
FF
18
E7
08
FF
FA
09
12
13
F6
10
04
0C
F5
FC
13
F1
1C
F0
FD
ED
02
FD
07
12
FC
03
F7
FE
E3
EE
01
05
03
05
F8
05
F6
02
FF
FA
FA
FA
F5
F4
F0
06
05
EE
F8
F4
FF
03
FB
00
FB
06
00
EE
FA
F0
08
F7
FC
EE
F6
F8
0A
F0
F5
F4
F3
FF
0A
F1
01
FA
06
07
00
F4
EF
0A
F5
F9
05
F6
F3
F7
08
0B
F8
0E
F8
FF
FB
ED
F6
F8
0F
FF
F6
FB
FF
02
04
08
FE
0D
EE
FE
F9
F9
FC
0F
F2
0A
08
F8
F9
F2
FA
F4
F0
F2
03
0A
F4
FF
F8
F3
F5
0B
FA
0B
F7
EE
02
F9
0E
F2
08
01
F4
02
F4
F6
F3
F2
0A
FB
07
F4
F9
FD
FE
F1
FE
EE
F7
01
0B
0C
EE
F4
07
05
EF
08
FF
03
05
00
00
06
F8
02
FF
F2
FE
FD
02
F1
FF
0C
08
06
06
08
0C
00
0A
FD
F8
F8
EE
EF
F4
F8
F5
01
F9
0A
F4
04
07
01
F3
08
09
01
FE
0C
F2
F5
FD
FA
06
F3
03
05
F5
09
0B
01
0D
F3
0A
02
00
F5
FB
FA
F9
F3
EF
FE
F5
05
F4
04
FC
03
00
06
F7
0C
F6
F1
FB
FB
F0
09
01
04
FF
F8
FC
0A
FE
FD
F4
FE
0D
FC
07
0B
F0
EF
F3
0B
06
02
FE
FF
F5
0A
02
F1
F0
F1
FA
00
FB
F9
07
EE
E4
F0
E2
11
0C
16
14
07
F4
EA
1F
F5
1A
09
02
E8
FD
FE
00
EF
16
13
F8
18
2B
F8
01
08
F7
19
01
0D
10
29
EB
05
00
12
13
17
26
2A
09
0A
EC
13
E9
0B
25
2B
10
F8
F1
D7
08
FD
1B
05
FA
16
F1
18
E9
F3
24
D5
D3
07
EF
0B
EC
F5
09
DA
EC
13
1D
18
F0
E3
F0
FB
D1
FE
F9
17
09
20
F5
F4
03
E9
03
08
04
0D
F8
F6
FD
03
05
FB
10
01
01
F8
20
DA
2A
0C
E9
00
08
EB
01
0C
FD
EC
F8
09
FF
EA
1E
ED
11
13
EB
E3
ED
FA
D4
E7
F5
13
E5
D7
08
CF
04
25
E8
01
F9
FA
DF
FB
D4
FF
11
F1
02
E5
DC
F9
01
0A
1C
F4
15
FD
10
FF
F6
13
F9
00
FB
FC
FD
F0
13
E9
0F
FF
17
E9
F2
04
EF
01
FF
EA
F8
EB
04
00
01
0F
F5
08
05
F5
DC
ED
F7
FB
FF
02
14
DF
18
EB
08
0A
F0
E3
F8
E0
FF
0D
0D
EF
01
0A
F9
06
F3
12
0D
E0
F6
FB
F5
02
18
FF
13
05
0B
EC
07
EF
EE
17
ED
01
15
01
FF
F8
10
F7
0D
FB
F1
EA
EE
0F
F4
0A
E2
F2
0B
0D
EC
C3
FD
F1
DA
B3
C0
E4
D9
E8
FE
CF
E2
17
C1
FD
EC
03
FD
27
EF
E4
F7
D8
F4
FE
E8
F5
F3
FD
F0
F5
D9
1D
FE
FF
05
D4
F9
BC
FE
F9
07
17
E8
1D
15
EF
E6
21
11
FF
20
EF
FE
EE
EA
E7
FA
19
E5
F8
11
10
FC
E2
F1
FF
FF
F0
E5
F8
DF
FE
0B
03
0D
F3
FA
E9
EE
0D
D1
1B
0A
F8
EA
EB
DB
0A
FA
FE
EE
EF
FC
FD
DA
26
04
21
17
EC
F1
EB
CF
01
1A
11
D9
0D
03
16
EC
18
08
2A
00
03
E2
E9
F6
D6
14
E4
E2
FA
04
F3
0A
FF
EE
05
05
F6
ED
F1
F1
0A
E5
F6
06
FF
07
EF
DB
F5
34
02
0D
FA
E8
06
ED
FF
11
03
CA
F5
0A
1A
E4
FC
12
F8
EF
E1
EF
EC
9E
05
0C
F8
E6
09
F5
23
E9
15
10
09
EB
EF
F9
FB
E6
FE
DB
11
E5
08
EA
E2
E2
FC
0A
FE
0A
E8
FD
F7
EA
1A
0C
09
02
09
FD
02
FD
10
1E
04
FA
F9
17
00
F7
EE
F9
0E
E1
16
FB
13
17
0B
FF
1F
F4
EA
01
01
F7
D4
07
01
0A
05
E5
F0
E5
FB
E5
FD
FC
FC
F8
DC
0C
F0
E3
F0
F7
FE
EF
F6
04
19
EF
17
0F
02
16
F1
08
F7
2A
FC
07
EF
06
01
01
03
EC
0E
0D
06
F7
FB
FA
27
FB
01
00
F2
0A
10
06
0C
FB
20
FF
FF
01
03
07
F2
1B
16
10
02
0E
0C
F8
34
FE
15
13
01
03
DA
E9
F6
0A
1E
ED
F9
00
0C
10
05
16
FF
F8
17
18
0A
06
12
0F
0B
04
E3
DE
1C
06
04
FD
F9
14
17
FD
FD
06
E1
08
03
FA
03
02
EC
E6
19
05
03
F0
E8
F9
0A
C8
10
09
14
02
FE
EE
1E
F9
06
0C
F4
FA
F5
FA
F9
DB
EF
06
FE
07
18
F6
03
E5
F9
0E
F1
EE
04
FA
18
F1
0E
FD
01
05
01
F7
FD
FD
FC
02
13
EC
FC
01
16
FA
E6
EF
FC
16
0E
F7
FE
03
0C
EA
E4
E9
1F
F9
F8
FD
D9
F6
0D
11
FC
ED
EB
FF
DA
EE
15
DA
1A
13
EA
F3
E2
FA
F4
02
16
FF
E8
E6
D1
F4
E8
00
FB
08
11
0C
11
F6
09
EB
F4
F4
FF
F2
F8
FC
14
F2
F5
0B
E8
FE
EE
EF
08
EB
10
F3
ED
F7
12
EF
F8
DE
00
14
E9
FE
ED
E6
03
1A
0E
07
F5
EE
F9
DE
D3
01
04
F7
F6
10
FC
16
FD
F9
F5
04
FA
ED
F4
DE
0D
E5
DF
E2
ED
F0
07
DA
FC
FF
F9
E3
D5
EE
0A
EF
20
02
F6
0B
FA
FA
02
EC
19
F8
F0
12
EB
EE
14
F5
19
07
07
09
F0
FA
03
16
FB
E2
0F
19
0C
0B
0B
01
FF
01
FF
FD
EA
0D
03
FE
16
10
02
08
F8
06
04
DC
17
F6
F5
F6
09
F0
EE
08
FE
F6
0B
1C
F8
F4
14
05
1C
02
D8
F6
DF
01
1F
FD
10
F2
EC
1F
FE
D1
11
F4
07
FE
C7
EC
E7
CD
1B
FC
0B
D4
02
FA
F8
F3
03
13
04
F9
00
0C
E8
F0
DC
03
F9
E5
09
FA
01
F9
ED
EF
FD
03
EE
F0
FE
EC
F4
14
F9
05
FD
05
FC
DD
18
20
FA
19
F1
04
08
D8
E2
F6
12
E6
E6
F2
22
EA
0E
19
E3
08
F2
E8
DF
EB
EC
0F
0A
E9
F4
FA
F5
F4
0B
01
04
EB
F7
FF
EF
E5
FF
E4
EA
E8
17
F3
FF
F1
F4
0B
07
02
F1
EB
00
FB
FC
08
FC
07
F0
F2
F1
16
04
EA
0B
06
F0
F5
F0
F4
0B
07
07
1B
F7
F4
03
08
F4
FE
F1
11
FA
FA
F1
EE
E9
07
0D
08
11
F4
0D
D7
17
F8
FE
E4
E1
F6
D7
E9
F0
FF
F7
E0
07
E3
E3
F1
16
22
01
00
0F
F7
15
0B
05
DF
EF
12
E5
23
17
F4
FA
06
FD
FE
06
17
0B
17
07
05
FE
FD
EF
10
0E
00
00
E0
F5
FD
02
07
F7
0D
1E
F3
F5
FB
17
20
03
EB
E5
ED
F2
F5
EF
11
0C
09
0B
0C
11
F8
02
E3
E2
11
F8
0B
00
EE
15
ED
FA
00
01
E4
EC
11
F2
F5
F6
F6
08
07
04
F1
1A
01
FE
08
E0
F7
FF
04
00
05
0A
E0
05
19
F6
00
FF
02
09
0C
0C
08
0C
F9
21
E6
EF
07
08
F2
03
FB
EA
FE
F2
EA
01
0D
10
02
0E
F6
DF
01
0B
F9
FF
21
03
FB
E7
FF
13
D4
19
EA
E7
11
F1
F5
F4
FC
0E
1D
01
DD
01
13
07
0C
00
00
E9
F8
F7
FD
10
14
1A
13
F6
FE
00
F3
F6
08
04
F9
E9
EB
FA
F4
14
10
F8
FD
F8
05
17
FB
F6
F0
F2
11
EE
13
0D
FC
1D
F1
0D
1A
01
0A
FC
EF
02
02
0D
EB
F5
02
FB
06
10
FF
F3
00
FF
F2
0A
06
F4
08
EE
0A
EC
15
19
F5
10
0F
DD
FA
04
02
1E
E5
FC
F3
01
0D
F9
FB
04
18
F3
FA
E1
DB
11
0B
26
1B
FD
E6
CE
2A
01
EC
EF
0C
FB
03
FA
03
03
06
FD
FC
EC
06
FD
F9
F8
EF
09
F2
E9
02
F0
F5
FE
0D
FA
EF
F3
FE
F2
FC
17
EF
00
F4
F1
06
0D
07
0B
F7
0D
02
0C
EA
01
F0
F2
FE
F5
09
FB
01
F5
EB
F2
EE
F2
05
0D
FF
FD
00
01
0A
03
FC
FE
09
FC
EC
EF
F1
EE
0C
EC
0F
FA
FF
F6
F3
FD
01
F8
01
F5
07
00
F2
F4
F5
01
00
01
04
FA
07
FB
05
F7
FC
00
F1
EF
FE
00
EF
F3
FD
FF
F2
F0
F2
F3
F6
FC
EF
F2
05
0D
F8
FD
FF
F1
FD
F7
08
F6
F7
01
EE
FC
09
FE
00
03
0D
0B
F4
04
06
F7
FA
02
F2
0D
02
FF
05
0F
FD
F6
F3
03
EF
F8
03
F7
FC
03
0C
08
FC
FD
F4
FB
F5
07
FE
F5
FD
FC
09
08
FF
02
FB
F3
F4
F7
FA
04
F2
F6
05
0A
F9
F3
08
08
EE
F8
06
F4
F3
0B
05
FC
FF
FB
F9
F3
0A
F3
F7
EF
FE
02
FB
F2
F0
F8
FE
01
0F
0B
FF
FA
ED
F6
0E
FD
ED
F4
05
F1
06
05
F5
10
FF
F3
F7
F4
FB
EB
01
0A
01
FF
06
EC
07
0B
F4
F4
FB
F0
02
0B
07
F3
05
F2
FF
F7
F8
00
F9
11
18
0C
FF
03
0F
01
06
F5
0E
0D
F5
26
FC
0C
00
10
3C
03
EF
ED
00
01
E6
E6
32
09
F2
1E
E5
06
E7
28
19
0A
FE
C9
D4
E8
DB
F2
0C
FF
F6
06
DB
EC
E4
0E
37
11
1B
BA
C6
F1
F0
F1
FE
ED
05
ED
0D
F6
F8
10
2C
F2
FA
04
0E
09
DD
01
07
0C
FE
11
04
F0
FB
FC
ED
FC
EF
F9
16
0B
E7
0E
15
0A
FE
06
06
07
ED
09
0B
17
0F
F8
F8
DC
01
04
EB
F3
11
03
ED
F3
02
16
07
1B
19
24
F6
F7
15
FE
05
EA
1A
EE
15
07
01
EC
09
0F
F8
E8
0F
EB
00
02
FE
00
EA
0F
08
06
F7
F9
FD
09
0F
F1
02
13
E7
EB
04
1B
04
07
0A
09
0C
04
02
0E
00
EA
0A
FC
F6
1B
E7
00
0D
EB
08
10
04
FF
FF
E8
02
11
E7
FC
F1
16
01
F2
04
F9
FC
14
04
F7
F2
0F
07
0A
EE
03
F0
FD
ED
1D
FC
F6
04
02
F6
1C
0D
FC
07
0E
F9
FA
E2
05
F0
14
E8
EC
09
0C
F2
F4
F8
F6
F9
13
FE
13
08
F8
EB
F6
EF
ED
F6
10
1D
F2
F7
F3
D9
11
FA
08
FF
E4
EA
F4
EF
0A
EB
06
0E
FD
0C
FD
F4
12
18
F5
0A
06
17
FA
16
05
0E
1C
05
FF
29
ED
ED
FF
01
18
F5
EB
F2
EA
13
FF
06
FF
FA
EA
1A
F8
01
16
E2
14
00
FF
FD
09
EF
13
0D
0C
EE
EB
01
02
FF
17
FB
FB
0A
FB
FE
F4
F1
0E
12
FC
F4
F9
0C
F0
E3
04
17
F7
10
0B
E3
F2
07
FE
FE
1E
02
E6
01
FC
D4
08
F9
0B
11
F0
FE
03
F5
1E
E5
03
F8
07
01
FB
F7
E7
EB
0D
EC
F4
09
03
0E
17
02
EC
02
FD
F5
FB
09
F5
F7
EC
13
0F
EB
F8
16
FF
1C
F2
00
E0
27
DC
FA
F0
0E
FB
F4
17
10
F7
11
0D
0E
02
D8
04
02
1D
E1
F5
F2
06
01
17
01
06
FF
11
02
F6
E9
13
07
13
E7
FF
06
FE
FE
04
1A
1D
0B
FD
ED
F1
05
0B
03
F4
07
1A
EB
04
04
FA
12
E8
18
F6
01
04
FE
CB
F7
13
01
04
0F
FE
17
FA
F6
F6
FB
F3
20
DE
FE
EF
00
08
DE
05
EF
11
0B
EF
15
15
0F
F9
11
E9
FF
1A
F3
17
D9
17
0E
F3
EE
FD
F9
0F
F9
FF
F8
09
E8
FE
F7
CB
03
12
FD
07
0A
E9
ED
FA
06
0B
E3
F6
08
F6
D6
F7
03
E5
04
00
07
01
19
01
1B
2C
E4
F7
08
FE
F6
04
15
F6
10
EB
F6
0F
06
0C
F3
22
07
03
0B
F7
FE
DA
F2
11
06
E9
F9
EC
0B
F2
0C
03
FB
FA
0D
26
0A
0C
EE
F9
F4
1C
E3
F6
E2
0B
0A
F7
10
EB
0B
05
F7
0B
DC
1B
FE
17
DF
FF
ED
FC
16
02
0E
0E
21
14
F7
02
F1
04
1E
F3
05
02
FE
F9
F6
0A
0F
0A
EB
02
04
24
F4
03
FC
08
FC
05
EA
16
FE
05
F0
08
02
19
FB
10
00
1A
F2
34
05
F7
DA
04
EB
ED
07
EE
13
F1
EB
EA
E6
E2
F1
0C
1C
04
EB
EF
EE
E9
ED
EF
01
FF
16
12
F0
EE
0A
15
15
06
02
01
F1
E6
E4
FC
F4
04
F4
06
08
F6
FD
F0
F1
EF
13
13
F8
12
FC
F3
01
F7
22
FE
F7
11
F1
16
FE
07
E1
F7
03
F1
07
F6
E7
02
0D
09
00
F1
FA
FD
12
12
F0
F4
20
D2
28
09
09
FE
08
EC
07
FC
0C
E7
01
12
0F
05
18
F0
0B
0F
1E
FF
EB
E3
03
F0
0B
D7
01
15
19
FB
FF
FF
F7
01
EA
12
DB
F7
02
04
09
EF
15
FB
0C
FB
09
FA
03
0C
FA
07
24
0F
09
EB
DF
DB
F1
00
E6
12
03
EC
0E
FB
F5
F3
EF
F8
04
0F
E8
E4
04
EE
07
00
F4
11
04
F1
F2
14
FE
0E
0B
06
E8
F4
F2
F7
01
E3
F3
13
F6
E9
0B
ED
F0
FC
0D
10
EF
12
05
FF
E5
EE
14
FF
10
F5
FA
08
F0
0F
15
FF
F9
D3
ED
0F
FD
07
FB
00
07
F4
05
FF
04
0C
0B
EF
E5
F4
E7
10
FF
04
EC
06
F7
03
05
ED
00
0D
01
F8
06
FC
11
0B
FE
03
F8
F8
FE
FA
06
F1
E8
E9
EC
10
17
0D
24
F8
11
F9
F2
0A
DF
05
1F
0E
F5
07
F7
F9
20
06
FF
0C
14
F5
FC
1E
F0
F8
07
07
EF
FD
D5
0E
01
01
EE
05
06
FE
04
06
F5
06
08
FF
F1
FF
02
07
F5
F6
FB
FF
EE
F8
0B
03
09
13
FD
ED
00
EC
02
F2
11
17
FC
18
23
08
E5
F7
E8
FF
FB
FC
B8
F9
E6
0B
1E
16
04
10
F6
EE
13
FA
EB
F5
11
EC
DE
DF
F4
1A
00
10
1E
05
FE
00
FE
DC
01
03
16
EF
08
F7
F8
03
03
1A
FB
0C
0C
FD
0B
FA
FB
12
25
E3
05
EC
06
07
ED
F7
E9
EE
21
F3
18
F8
12
02
F6
FB
04
F0
F5
14
14
EF
F2
0A
08
F1
F2
F5
0D
F5
00
F5
F7
06
EE
00
F6
02
EE
ED
F1
05
FD
F0
EC
0B
F0
09
EB
07
FC
FA
01
0C
FA
FC
FF
F3
F7
F7
02
EC
FE
02
EF
FB
07
EE
03
F9
0C
00
F5
FB
ED
F9
FF
EA
F9
F6
03
09
02
05
F8
0C
05
03
0A
F1
0C
FE
09
FF
F2
05
F1
0C
06
F6
06
F8
00
0B
10
F1
0E
FD
08
F6
FC
EE
06
FE
FB
F6
F5
FE
F0
FC
01
F3
04
05
05
F6
EC
02
0C
0C
EA
03
EA
FA
0D
0E
E9
F0
FD
F5
FD
FE
F1
F3
11
F9
FC
0E
F0
01
F4
F7
E9
F4
EF
0B
FC
01
07
F8
03
F8
FC
0C
F5
05
02
06
F5
FF
06
0F
F2
01
F5
01
EA
0D
F4
08
F6
0B
F0
ED
F1
F1
FC
F2
F3
FA
FE
10
F6
09
FF
08
08
EF
F6
F7
EE
F6
F8
EB
FE
FD
F4
02
F8
00
F4
F2
03
FB
FA
F4
FC
F8
05
01
F7
F4
07
0A
FE
F8
03
FF
03
01
EE
F8
FF
F3
06
0E
04
FF
FD
F0
EA
FB
F7
F5
EC
FB
F5
F4
F3
07
EE
FC
F2
E8
F6
04
0C
F1
F9
04
F9
0D
F1
FF
12
F0
F4
ED
FD
01
F3
E9
05
E6
00
00
01
1A
F2
0E
26
E1
05
F6
01
07
E2
03
E5
0F
E3
DF
0D
EB
F6
2C
19
17
F9
0C
F4
10
F6
0C
0F
12
11
EB
05
FB
EC
F7
30
19
EF
1C
F6
17
F9
33
13
16
14
E0
0B
D4
E7
E2
FD
05
07
05
EA
F3
F8
D2
0C
E7
E1
F9
F0
1A
0B
0B
19
0B
F0
F3
1D
F1
F1
08
F4
F9
14
F6
05
07
05
0D
EE
F7
FD
C2
23
10
00
F6
0E
0C
FC
15
03
F6
FC
FC
FD
15
0A
EE
F8
20
EA
05
12
02
E7
FC
E7
F4
F3
0C
F6
F4
0D
FD
E7
05
04
EE
F6
F1
05
EE
F1
F8
F1
05
F8
FD
F7
01
12
11
E2
F5
11
FE
F2
04
F5
0C
04
09
E0
02
F7
1F
03
15
FE
F2
03
F7
E8
FF
0A
0F
0B
FC
04
08
E3
0A
E4
F6
FB
EA
EC
07
F7
00
01
02
03
F9
07
19
07
0E
07
E2
0F
0F
0C
F1
FB
EC
F7
0C
03
FB
13
FF
0C
FB
F6
00
FD
F0
17
F1
0B
F9
F6
05
0D
E0
FF
EE
FA
21
03
FA
1E
15
03
F5
F9
06
20
03
F2
FC
02
00
03
F9
03
03
08
0C
F3
0D
14
0B
01
ED
03
F5
05
23
13
FD
07
F4
FB
E0
13
E8
F6
00
FB
FF
02
F7
FF
DC
0F
12
FD
F1
F0
D3
12
FB
DA
14
0B
F5
06
E0
F1
C1
16
1D
05
08
04
EB
22
22
E8
1B
14
16
02
F9
F4
F7
03
F2
E4
EE
FB
0F
09
19
1A
F2
04
02
FA
00
FF
1D
0C
FD
14
0C
EE
EA
F8
D6
ED
15
01
F6
0D
EC
F8
E3
F3
E1
EC
05
F9
E2
E6
EC
FF
F5
D7
03
FB
F8
02
EE
00
F2
F7
FC
CE
18
11
27
0C
F2
E6
0D
FD
01
F5
01
E0
FE
0A
FF
DE
13
FE
08
FC
0E
ED
EC
F8
F8
10
0B
EA
E6
05
F9
FA
F1
02
03
08
F4
F2
E1
19
18
FA
01
17
F9
08
08
E3
ED
03
F9
11
0C
F3
DB
F8
F5
FC
F7
EC
30
19
0E
DB
07
00
FE
03
03
CD
FC
00
F0
F6
E5
D8
EB
14
20
FD
F2
F8
FD
ED
F2
E1
FA
E3
11
F8
04
EC
F4
F3
0A
DD
FE
FE
1F
26
F7
FD
FB
DF
F5
03
07
F1
DC
0B
14
F1
F3
10
FE
F9
F2
D8
0E
D7
E5
FD
04
E5
12
04
16
FC
03
05
F9
F2
F0
DA
F0
E3
E9
F6
02
03
F9
F0
F2
F8
F9
FA
E4
FC
E1
FB
F2
EF
DE
F4
EB
D4
E7
15
FD
EA
04
FD
EB
0F
E2
EF
FC
FF
F9
DA
06
FF
D0
2A
FE
0C
08
D9
05
04
FB
14
0D
26
21
E5
0D
02
D6
15
12
1B
E7
E3
01
FC
14
13
FC
24
06
FC
02
0C
F5
17
25
10
D8
EC
ED
F4
1B
27
FC
28
16
07
EE
EE
00
F7
11
F2
F7
00
14
F0
F6
F7
FB
0B
07
F5
F8
F3
F8
EE
EB
0C
05
F4
F6
03
13
01
EB
F5
02
03
02
01
07
06
FD
0A
FA
04
F6
01
01
0F
EF
06
00
11
F7
F1
F1
FC
1B
0A
EB
E1
F7
05
E0
08
24
FB
0B
14
11
F0
FA
E0
05
02
08
0C
FA
F5
F3
0E
F9
F3
EA
26
EC
FA
26
CE
E9
0E
03
00
F9
02
FE
0B
01
EC
E8
03
EB
00
EE
F6
F9
07
FC
1D
F8
06
FF
E8
0A
E1
03
F7
0D
F8
08
09
0C
FB
15
16
2D
FC
BB
F3
E0
DA
0B
14
F4
DC
FB
08
23
F3
EF
DA
EE
0C
03
12
03
07
15
21
F6
0D
FB
F3
F9
F9
EA
F7
FB
11
14
06
11
04
08
08
01
F6
EF
05
FF
DE
FE
18
FF
0D
F5
F2
F4
E4
F1
F5
0D
F0
0B
04
ED
01
01
07
FB
09
F4
FD
F2
F3
F1
07
09
00
0D
08
E8
F8
08
0F
F1
13
CE
FD
ED
E1
E2
12
1C
D5
EE
FC
F7
FA
19
09
F5
F1
EB
EE
CF
ED
21
00
F2
EC
03
F2
06
EE
FF
FC
0A
FA
C7
EB
F3
11
FA
07
FC
F5
05
F9
FF
ED
02
09
09
FB
E3
FF
D0
05
EF
1A
17
FD
F5
F2
01
11
04
D9
01
FF
F8
22
FF
05
F8
06
06
F3
F8
E1
02
12
06
D7
FA
0D
31
13
0A
E6
12
F1
08
0F
F7
E7
03
14
E7
08
07
FA
19
12
E6
EE
0A
29
09
03
E0
F3
15
E9
0E
F6
FC
F5
EE
0F
0A
EF
E5
10
07
FE
0A
F3
1E
05
F8
FE
12
19
FF
0A
E6
13
FB
E7
09
F3
EE
E8
FB
0C
FA
EA
13
27
16
FF
1B
FE
0C
01
06
FB
01
10
13
03
FC
12
E9
FE
1B
08
FC
EC
EB
ED
0E
E1
1E
0C
09
E7
04
0F
FD
E1
F0
F4
F6
E8
F8
F3
F3
D3
0D
05
ED
00
06
0B
0A
09
EB
F9
0A
09
F8
08
0C
EB
FA
F9
02
F2
09
0C
FC
05
EB
F0
E5
00
0D
F8
FF
02
14
04
ED
F5
1A
21
F1
F6
F2
FC
F4
07
DD
FC
03
0C
07
FE
E5
FB
F8
0F
0C
FD
E3
02
E7
EA
EE
09
DF
F9
07
06
F5
EE
E6
08
02
07
FB
13
09
06
05
33
0D
EA
20
D8
F2
F9
0D
07
1F
07
F1
FC
FE
DF
E8
1F
FE
FE
24
DE
FC
EC
18
02
F3
00
E7
E4
EA
DB
FC
0E
01
EF
08
E2
E8
DA
1D
0F
17
0D
C9
D2
E2
CF
05
0C
11
F3
05
FA
E9
F5
F4
04
13
23
F3
0D
02
EB
00
2D
10
03
F9
EF
0F
FD
18
0C
F5
1F
F9
10
0F
FF
F6
0E
FD
EB
10
06
F9
15
12
F1
0C
DA
0E
08
1E
ED
EB
06
F6
18
EB
F4
EE
02
18
FE
0E
12
03
EA
E4
C2
E0
05
15
17
0C
FB
EF
06
F1
15
05
28
08
0E
0C
FC
0B
0E
F2
17
17
1C
14
F0
F0
FB
EB
FC
0F
0F
11
06
1E
EB
00
17
08
F3
F2
01
11
FE
00
F3
22
FC
05
F4
F3
F0
FE
08
F6
FD
F5
FC
09
EA
05
FC
1E
13
07
FD
10
F0
05
23
00
FF
EE
04
FC
12
FC
FF
0D
EF
00
F8
0D
EF
0F
F3
06
00
06
FE
FA
0D
06
05
F4
02
F5
02
00
F2
15
E8
09
FF
FD
F4
0C
17
15
E0
00
FF
FF
FE
18
E1
00
DE
EF
EF
07
F9
27
EC
DB
E4
16
02
F7
F5
FA
F3
02
EA
17
E2
ED
05
EE
32
FA
03
0B
DA
CC
02
F5
F3
EB
ED
D6
06
16
EE
01
1D
FC
06
00
DF
FF
E6
F1
FE
F5
EC
F9
01
0E
04
04
31
18
11
E4
09
0D
DE
FA
07
FC
F0
02
15
16
FF
14
09
03
F6
05
27
0B
FF
16
FD
F0
06
0F
FE
02
F9
0D
25
09
13
FD
DC
C0
E3
04
F0
10
F1
D2
1A
FB
DF
F5
12
FF
05
DB
BA
08
EA
EB
16
02
EF
FF
03
E9
F2
F9
12
0F
20
FF
03
04
0C
F7
01
FA
04
0F
08
E1
E9
0A
F7
08
E8
02
00
F2
15
14
03
EC
0F
05
E8
F6
0C
14
0D
0D
F6
E0
00
DE
EC
08
EC
19
03
12
F5
F2
F4
F6
FE
E5
EC
EA
DA
DC
F2
10
14
16
F9
1B
FB
F6
F4
12
0F
F8
00
03
FC
DE
0F
0C
13
E4
E4
04
FC
00
18
FF
FE
0B
02
EB
F0
CF
02
10
04
EC
F4
EF
0F
0E
26
13
EF
0A
E8
16
1D
00
FF
0A
0D
FA
00
0E
F0
EB
FA
1A
DF
FD
E3
17
0B
F6
F8
05
FB
FB
13
1C
0A
FB
FA
D5
0A
EB
F0
05
F4
FD
F0
11
17
F2
06
EC
F5
13
00
F4
FF
F0
F2
0E
FE
04
01
18
F0
F2
07
FE
13
13
FB
0E
0A
10
00
03
04
18
FD
01
F6
F9
02
18
0B
15
FA
0A
0C
07
03
1A
06
08
02
F2
FB
09
FE
EF
0B
13
17
E3
E4
01
FC
04
14
09
06
F9
DF
FA
14
D4
F9
07
0C
0C
F4
04
E4
1F
21
EC
08
08
F4
14
11
F6
EE
F5
15
EB
13
01
F1
F4
F1
0D
FA
D9
02
F9
07
05
07
00
FF
03
08
09
F6
DC
EF
02
04
EC
F2
04
F2
ED
12
F8
EE
EB
F8
FB
11
ED
0C
00
E9
1E
F7
F8
04
EE
01
13
F2
05
0E
14
1A
F0
01
DF
DF
02
F9
14
EC
01
10
09
E0
F2
00
0D
09
F2
F4
0E
F1
05
F0
14
04
FF
1A
F5
FC
16
FA
0B
0A
0E
F7
FA
05
E8
F3
09
EE
EE
0A
F2
1A
F1
F9
DA
03
11
18
03
0B
E9
F4
DE
F4
DE
08
1A
12
D5
05
DA
E3
1C
F7
FF
1A
00
EB
F1
0A
FD
FD
EC
0D
01
FF
EE
05
F2
F4
F2
01
EA
14
F4
17
0F
0A
F7
0A
F2
DE
02
F1
EB
04
ED
04
0F
03
F8
11
13
F3
03
08
D9
E1
ED
E0
E5
2C
E0
21
19
15
F4
09
FA
F4
DF
06
F1
E7
2E
F6
F6
1D
F3
10
18
16
19
17
1F
07
07
09
00
09
02
0D
F0
F1
07
0D
01
FF
07
06
FC
F6
F4
F5
09
03
F2
03
F3
00
09
EF
FA
00
ED
0D
0D
0A
F5
FF
09
02
EF
FF
F9
0B
F0
F6
00
F2
08
F8
07
FC
FF
0D
EC
EF
F8
EC
FA
FD
F2
0D
F8
F0
04
FF
05
09
FB
F4
F0
08
FD
F9
0D
FD
EF
FB
0B
FB
FB
06
F5
F9
EF
F4
FF
F4
00
F9
06
F8
F2
FC
07
F3
04
00
0C
EF
F8
F4
0A
F2
00
03
F6
F3
FE
02
01
F6
F9
F4
F2
0A
FD
0C
0C
F1
FA
0A
F7
09
01
F4
01
F4
F3
F1
03
ED
05
00
F8
FF
ED
00
0A
FD
08
FA
F7
09
FE
F5
F7
06
09
EE
02
0D
0B
EE
F6
F9
F6
FA
0C
07
04
F8
0B
F0
06
04
F2
F2
EF
FE
F1
FA
FF
FC
F9
FF
F0
03
02
EF
F4
FE
FA
FC
0B
FD
FB
F7
08
FF
F0
03
00
05
FB
F9
FF
08
F6
0B
FA
EC
FD
F9
F1
0B
ED
0E
02
06
02
F9
F4
EF
ED
F1
03
08
07
F7
03
F0
F9
F7
05
01
F8
FE
04
FA
0B
F3
04
02
08
F9
FD
FF
FF
F9
F7
F5
05
08
0A
EF
F0
00
ED
F6
EC
F5
07
08
F9
EF
0E
FC
02
F0
F5
FF
F3
17
F3
E7
05
04
17
ED
12
DF
E4
0E
0F
FB
14
F7
E0
05
F9
F6
02
0F
14
1A
FC
F9
EA
0D
F9
13
F4
04
DF
1E
0C
03
05
23
1C
06
0E
16
13
16
E5
14
0E
06
E8
09
1C
11
F8
F8
FE
0D
FD
0F
0F
FF
FC
F7
FA
D1
F0
20
E2
F3
10
E5
01
F7
03
F8
EE
EC
15
03
FF
FD
E1
03
FF
F4
F6
F9
F4
F7
0F
04
EF
05
0B
01
EE
F3
21
06
13
25
0A
05
08
02
F6
04
08
05
E2
26
16
FE
01
00
02
0E
FA
01
DC
18
01
0E
FB
FF
0B
1D
09
F3
EA
17
E3
E4
0C
F4
F4
E8
E2
00
EE
15
1D
03
01
FE
FE
02
1E
F4
0E
EE
F8
E2
E4
F5
DC
01
02
10
F2
FB
09
FE
08
0D
FE
FF
FF
11
FC
FD
05
E2
EB
10
03
05
04
05
00
F4
EB
F5
F0
EC
FC
F9
FB
E6
0A
05
0B
05
FB
08
04
FC
02
FA
F2
FE
E9
00
F8
06
0F
F1
E2
02
E9
04
28
2D
06
08
10
0C
D4
F7
03
EC
EB
FB
08
05
18
FF
1F
14
09
FA
FB
00
04
F0
0F
E0
10
02
EE
EE
04
0E
D9
04
05
09
00
EE
FA
F5
07
F3
FA
FA
09
F7
FA
E9
F8
EE
EE
DC
ED
CC
E7
FA
EA
FB
26
E1
EF
F3
2E
1C
1B
FA
10
05
D7
E2
EF
FD
F9
F3
E6
10
FD
04
FA
06
FF
12
F3
ED
E6
ED
F6
F5
FA
F9
0E
05
F1
02
13
0B
DF
15
2D
DF
24
01
FE
DF
F7
1A
F1
14
F6
0F
F7
EB
FE
FC
FC
E6
01
DE
E9
EE
FF
0A
EF
F8
F0
F4
1A
F2
05
0A
12
F8
FC
DE
07
F7
0E
0D
E6
F5
F1
08
05
0A
0E
15
08
0F
02
F8
09
14
13
FE
05
EC
02
F7
EE
F7
F4
F2
05
E2
1F
19
FC
07
F0
E0
16
FF
E5
E8
01
05
F0
E8
F9
02
E7
13
14
15
E8
F8
1A
F2
03
0C
0F
04
23
E9
E5
E7
F6
ED
0C
FC
13
0A
F3
E3
09
0B
0B
0E
21
08
F4
F3
EC
EE
FD
14
11
EF
FD
FF
FF
04
05
FB
F3
07
D8
F1
05
FF
02
18
0B
F1
10
E5
07
EF
EE
FA
EE
E6
06
0E
0E
11
16
0B
02
1B
CF
03
0F
F8
01
05
0D
FC
0B
02
02
09
ED
FB
F0
03
0D
FF
19
F5
12
F0
26
FE
01
F4
F3
E8
EA
04
12
04
FC
0A
11
EB
06
FB
FA
FB
F3
00
F3
F5
F0
02
FC
FE
FD
CF
05
FB
