F5
FD
02
FE
01
F9
07
FE
05
07
FC
FD
01
FF
01
00
F3
F8
08
06
FF
F9
05
FF
FB
FC
F9
FC
0C
0B
03
FA
03
FB
FA
FD
FB
FC
F6
06
F9
02
FF
00
FD
FD
FA
07
FF
FE
05
F9
FA
06
FE
FA
FC
03
FF
FF
FC
FB
F8
FB
01
05
07
FB
0C
09
FB
00
FB
FE
F9
09
FE
FA
05
06
FA
FF
F6
FF
FE
08
F8
02
FD
09
06
FC
07
02
05
03
FC
FA
FE
FE
01
01
03
FD
FA
00
05
02
FC
F8
03
F8
FE
00
FF
FA
03
FC
F6
01
