FD
1A
F2
E0
1B
16
21
ED
DF
04
E8
E8
27
F5
D9
DA
09
11
1E
D7
FB
C5
E3
C9
E9
07
1B
15
D5
CA
D8
D6
DE
E2
DB
EF
E5
F0
E6
EA
08
E5
17
05
09
E3
1D
FC
E5
0D
16
12
E2
F6
DD
FE
28
03
EC
00
F6
10
21
04
EE
DE
03
2D
D3
E0
EE
DB
16
27
0C
04
02
F8
E1
F2
22
E2
04
22
EC
E2
E7
ED
F6
01
F7
05
C4
FD
F0
C6
C8
E9
22
FA
22
18
F6
13
07
FC
09
04
EA
CF
F5
FA
08
00
0F
11
14
E9
FE
D9
00
14
21
29
19
F8
1B
E5
E2
CD
18
13
DE
1A
03
FB
04
E7
17
F8
E9
E0
12
0F
03
1C
D2
EC
27
18
F0
15
0A
E5
E1
EE
D3
10
CC
E4
DF
DF
D4
EC
C6
EC
28
0A
14
1E
1D
16
01
FF
15
F6
BD
F9
06
EC
D0
10
0A
1E
03
10
00
F3
CA
1A
F3
D3
11
D7
D7
1D
F7
1D
EF
00
1D
25
1D
EE
F2
05
ED
00
1F
11
D4
00
21
12
02
1C
F5
11
F7
DA
04
12
DB
0F
1B
FF
01
0D
FE
1A
F4
13
11
D7
18
13
E9
06
E6
DE
20
E4
EF
28
F5
CF
E6
E7
F6
0F
EB
FA
F5
F6
E8
FA
FB
EB
FF
28
DF
C0
FF
10
E2
EB
CA
21
11
21
F7
C8
15
F2
28
E9
E3
F7
18
19
29
18
FC
D7
F3
18
0F
D7
E6
F3
0C
E0
DE
EF
EF
EE
E9
F7
05
16
E6
12
D9
19
1B
1D
F4
01
DD
04
DF
D2
E6
13
0C
D6
F9
ED
DB
B8
EC
F8
07
26
F8
D6
27
F1
0C
19
19
05
D3
F1
FC
22
E5
EF
FD
01
08
D2
1D
0A
E7
26
F6
14
03
FF
06
18
EA
E0
17
02
E9
D8
E2
27
1C
F0
12
E9
04
C3
FF
11
0A
00
0F
14
1B
CB
2C
E4
F5
04
03
E1
01
E9
E9
F0
08
F8
FD
D0
DB
F3
1C
D2
05
13
F2
FF
20
F0
FF
EB
18
DB
26
C0
E2
E0
E1
1E
DD
FB
E7
11
1B
1D
E6
F1
08
08
CB
F8
CE
F6
DB
F8
EF
E0
FC
F7
11
FE
06
18
20
0E
22
D8
02
F3
F3
EB
15
13
18
00
08
DA
04
FD
FF
08
E1
D9
E0
02
0A
DB
F8
FC
DC
0A
E9
03
29
00
D0
C1
F4
DE
0A
E4
17
D3
04
E7
E7
0E
FF
19
F5
F2
F5
F7
01
FD
EC
25
00
FC
21
0B
FD
1D
20
E8
18
1F
D7
F1
FF
03
D9
F3
13
06
AC
DE
2D
F0
DD
15
E3
FC
0D
F0
B2
17
0F
09
E3
D3
E4
EE
0E
0F
0E
DD
EA
E7
06
22
10
E0
FB
F4
D3
0A
D2
03
15
E1
F2
03
00
1E
E8
EB
F3
DC
CB
F0
13
02
FC
07
1F
C9
E1
09
F2
0D
23
E4
ED
D7
FC
F4
00
16
2B
E7
1B
DF
BD
EB
04
02
ED
29
FE
E5
20
F6
10
0B
0B
08
01
07
ED
EE
15
EF
06
FA
0D
D7
FA
EF
FF
00
19
1D
EF
FB
08
FE
DA
D9
FC
DA
24
15
F3
1A
F6
E4
18
10
0E
F9
0B
EF
24
01
E4
0F
DD
0E
0F
EB
01
1F
17
00
1C
26
0C
02
CC
FE
FA
1A
01
C8
BD
15
FB
12
FD
1E
D3
E0
0B
DF
CD
21
FA
D7
CF
E4
F2
DA
C1
FF
EC
F2
F8
23
12
E5
EB
E3
15
E0
F4
10
FF
06
DD
2C
D5
E4
DE
06
FC
E1
15
FC
0E
DF
2A
24
1A
26
EE
00
FD
0B
20
18
D2
FC
1A
EC
FD
D6
12
04
1E
FB
E2
DE
F7
EB
D5
0E
10
08
D6
06
CF
EC
18
D9
07
11
E3
1C
E8
D4
0E
17
D9
EA
22
F5
D6
18
0C
D6
1A
0C
E8
E1
DF
E8
16
D9
F3
EB
FF
0A
ED
09
D6
FA
0E
20
2A
96
0C
E2
F3
1A
11
EF
23
F9
01
0E
F2
EE
CE
25
0D
FE
DC
DE
13
27
14
D6
13
F8
E0
DB
1C
F0
ED
13
D1
24
F8
0D
05
E3
F6
0A
DA
EB
D8
DA
FD
24
04
0B
F1
E5
DF
0C
0C
01
12
DD
19
E7
16
D8
FA
F2
CC
0D
03
E7
26
D0
CC
EC
09
FB
21
0A
DD
0F
04
E2
04
09
ED
F4
