00
02
FF
FE
02
01
02
FF
FE
00
FE
FE
02
FF
FE
FE
01
01
02
FD
00
FC
FE
FD
FF
00
02
01
FD
FD
FE
FD
FE
FE
FE
FF
FE
FF
FE
FF
01
FE
01
00
01
FE
02
00
FE
01
01
01
FE
FF
FE
00
03
00
FF
00
FF
01
02
00
FF
FE
00
03
FD
FE
FF
FE
01
02
01
00
00
00
FE
FF
02
FE
00
02
FF
FE
FE
FF
FF
00
FF
00
FC
00
FF
FC
FC
FF
02
00
02
02
FF
01
00
00
01
00
FF
FD
FF
00
00
00
01
01
01
FF
00
FE
00
01
02
03
02
00
02
FE
FE
FD
01
01
FE
02
00
00
00
FE
01
00
FF
FE
01
01
00
02
FD
FF
02
02
FF
01
01
FE
FE
FF
FD
01
FD
FE
FE
FE
FD
FF
FC
FF
02
01
01
02
02
01
00
00
01
FF
FC
00
00
FF
FD
01
01
02
00
01
00
FF
FD
02
FF
FD
01
FD
FD
02
FF
02
FF
00
02
02
02
FF
FF
00
FF
00
02
01
FD
00
02
01
00
02
FF
01
FF
FE
00
01
FE
01
02
00
00
01
00
02
FF
01
01
FD
01
01
FF
00
FE
FE
02
FE
FF
02
FF
FD
FE
FE
FF
01
FF
00
FF
FF
FF
00
00
FF
00
02
FE
FC
00
01
FE
FF
FD
02
01
02
FF
FD
01
FF
03
FF
FE
FF
01
02
03
01
00
FD
FF
01
01
FD
FE
FF
01
FE
FE
FF
FF
FF
FF
FF
00
01
FE
01
FE
02
02
02
FF
00
FE
00
FE
FD
FE
01
01
FD
00
FF
FE
FB
FF
00
00
02
00
FD
02
FF
01
02
02
00
FD
FF
00
02
FE
FF
00
00
00
FD
02
01
FE
02
FF
01
00
00
00
01
FF
FE
01
00
FF
FD
FE
02
02
FF
01
FF
00
FC
00
01
01
00
01
01
02
FD
03
FE
FF
00
00
FE
00
FF
FF
FF
01
00
00
FD
FE
FF
02
FD
00
01
FF
00
02
FF
00
FF
02
FE
02
FC
FE
FE
FE
02
FE
00
FE
01
02
02
FE
FF
00
01
FD
00
FD
FF
FE
00
FF
FE
00
FF
01
00
00
01
02
01
02
FD
00
FF
FF
FF
01
01
01
00
01
FE
00
00
00
01
FE
FE
FE
00
01
FE
FF
00
FE
01
FF
00
03
00
FD
FC
FF
FE
01
FE
01
FD
00
FE
FE
01
00
02
FF
FF
FF
FF
00
00
FF
02
00
00
02
01
00
02
02
FE
02
02
FD
FF
00
00
FE
FF
01
00
FB
FE
03
FF
FE
01
FE
00
01
FF
FB
01
01
01
FE
FD
FE
FF
01
01
01
FE
FF
FE
00
02
01
FE
00
FF
FD
01
FD
00
01
FE
FF
00
00
02
FE
FF
FF
FE
FD
FF
01
00
00
00
02
FD
FE
01
FF
01
02
FE
FF
FD
00
FF
00
01
03
FE
02
FE
FC
FF
00
00
FF
03
00
FE
02
FF
01
01
01
01
00
00
FF
FF
01
FF
00
00
01
FD
00
FF
00
00
02
02
FF
00
01
00
FE
FE
00
FE
02
01
FF
02
FF
FE
02
01
01
00
01
FF
02
00
FE
01
FE
01
01
FF
00
02
01
00
02
02
01
00
FD
00
00
02
00
FC
FC
01
00
01
00
02
FD
FE
01
FE
FD
02
00
FD
FD
FE
FF
FE
FC
00
FF
FF
00
02
01
FE
FF
FE
01
FE
FF
01
00
00
FE
03
FD
FE
FE
00
00
FE
01
00
01
FE
03
02
02
02
FF
00
00
01
02
02
FD
00
02
FF
00
FD
01
00
02
00
FE
FE
FF
FF
FD
01
01
00
FD
00
FD
FF
02
FE
00
01
FE
02
FE
FD
01
01
FE
FF
02
FF
FD
02
01
FD
02
01
FE
FE
FE
FE
01
FE
FF
FF
00
01
FF
01
FD
00
01
02
03
F9
01
FE
FF
02
01
FF
02
00
00
01
FF
FF
FD
02
01
00
FE
FE
01
02
01
FD
01
00
FE
FE
02
FF
FF
01
FD
02
FF
01
00
FE
FF
01
FE
FF
FD
FE
00
02
00
01
FF
FE
FE
01
01
00
01
FE
02
FE
01
FD
00
FF
FD
01
00
FE
02
FD
FD
FF
01
00
02
01
FE
01
00
FE
00
01
FF
FF
