FD
EC
14
F5
E5
CE
AC
ED
15
0E
1A
E2
1E
F6
EF
F6
DE
EE
E0
20
F2
E7
1D
E8
FD
DB
2D
15
F4
2A
E0
ED
16
FA
01
F8
F0
EF
10
96
1B
F6
01
FB
08
EF
DD
06
FF
0C
16
01
FF
EB
D2
E0
15
FA
06
E2
21
F7
15
FF
1D
FC
E3
0D
DD
F3
ED
05
F6
28
0A
F7
FC
D7
2C
1A
DF
C4
BD
DF
E7
11
0D
FA
D5
11
04
FD
F9
C0
26
FE
F0
EF
E4
EF
E8
F0
06
FF
F6
06
B2
FF
DE
23
E8
C6
EC
10
14
18
17
00
06
F9
27
C8
D0
E2
03
20
0F
19
FC
01
F5
E9
10
EB
FF
0E
09
1D
E1
0E
D9
22
0A
CA
06
22
E3
EF
15
F2
DA
FA
1E
21
18
D8
D3
FB
FC
EE
09
22
03
11
EA
02
E4
08
0E
CE
11
18
10
21
E0
F3
EE
FE
DF
25
1E
F6
00
F7
17
F3
0E
DA
2A
0D
D7
13
F3
C8
02
EB
0F
D9
24
FE
FB
07
CA
15
E9
15
0E
FC
1A
DC
C5
FC
1A
F2
D8
13
DD
DA
26
DE
E3
09
F3
28
E2
18
EA
24
EE
13
C9
04
D3
E9
27
00
E7
15
00
27
E9
EA
11
E3
1C
08
06
F3
FD
14
07
CF
D7
F7
F0
DA
22
1A
0B
D6
1B
F5
D7
18
12
04
10
F6
20
13
15
FA
1D
19
E9
FD
E0
E4
18
F8
D5
08
F7
29
04
FF
FB
18
D2
E0
CA
00
1D
18
C3
08
F4
10
FC
DB
D8
0F
EF
FC
FF
E1
D3
0E
1A
1C
D6
11
00
D7
11
D9
0A
F9
EC
F0
DE
14
1D
F3
0A
E0
D2
0B
FD
ED
E2
E9
25
18
00
02
03
EF
D6
13
DB
FE
1D
0F
0F
0A
15
24
12
D1
EF
D9
EE
D7
14
DB
E1
01
04
24
E5
00
F2
E6
1B
F8
F2
E4
1E
F8
F0
14
05
F3
CB
FC
03
0F
FB
0D
E6
21
ED
0C
2C
DC
00
DD
E2
05
EA
29
00
E0
E4
0A
1E
0E
DE
E3
08
19
1F
DE
F5
E9
E8
0F
F7
F6
E5
F8
11
EF
04
03
EB
EB
EB
0A
17
1B
D4
EF
03
29
F3
01
D5
DA
05
E5
00
EE
E1
00
DC
1F
0E
EB
09
E2
21
E9
01
D0
CB
17
10
D8
E3
CD
12
F7
E9
C1
F0
00
08
DA
1D
18
02
05
E9
F4
13
1C
D6
FD
FC
13
1C
16
F0
DE
02
26
06
24
E5
DE
F5
E6
08
0A
FC
0C
CF
04
0D
1A
11
12
F8
E4
07
02
EC
0B
16
03
F7
D9
FD
17
1F
CC
18
F1
12
FB
DA
19
D0
D3
C9
FE
D9
E5
E2
04
04
1B
DB
04
E1
FA
07
DF
F6
E7
12
1D
F3
E7
09
1A
11
0C
DD
17
DB
F4
1C
E7
F2
01
E3
0C
FE
F8
0F
01
D2
0E
0D
C8
1C
01
28
E9
1B
DD
05
FF
23
BD
E8
12
03
E0
FF
04
13
19
E4
15
D4
DD
EC
12
01
DF
F2
F5
ED
FB
0E
19
00
0F
0D
D2
FF
F2
D7
12
17
E7
F6
03
FE
E6
20
F5
FC
FD
D9
16
10
1C
1A
13
F0
F7
F4
1E
EA
D8
21
D2
F4
0C
FF
01
00
D3
22
FA
04
EC
13
D6
EB
FD
16
E0
F5
F2
EE
27
11
F9
18
EC
2B
0B
D6
CC
DE
18
D7
ED
DB
25
E7
DF
18
0D
03
F0
18
DB
26
00
1B
CD
0C
03
2D
15
13
B8
C0
FC
DF
21
D6
E7
D3
0A
E9
EC
E2
21
BD
FA
1A
26
E0
E5
06
F8
E0
0B
EB
D7
0C
D0
EE
E1
E6
07
E1
FD
04
CF
E8
CC
DB
EE
DE
26
1E
1D
02
E4
E1
EC
16
D3
20
F8
DD
20
ED
F2
DF
09
27
10
E4
D6
FB
E8
29
DA
E8
FB
0C
CC
EF
27
E7
18
FE
C1
16
21
04
E4
28
F1
11
1F
E5
FF
D9
0A
02
DF
F5
0C
1B
D7
20
EC
F3
DD
F8
DF
CF
19
1D
F1
F6
F2
EB
0F
E1
D4
E6
19
E6
FF
10
F8
FF
04
F2
EC
E7
05
F1
03
0B
23
0A
E2
22
C6
F6
D3
08
D9
0B
12
ED
04
E2
EC
0F
F1
08
F3
08
E5
09
09
04
28
EB
FC
CB
13
01
EB
D6
ED
22
0A
FA
22
F8
06
07
E3
FA
F4
